{
  "version": "1.0",
  "truncation": null,
  "padding": null,
  "added_tokens": [
    {
      "id": 0,
      "content": "<pad>",
      "single_word": false,
      "lstrip": false,
      "rstrip": false,
      "normalized": false,
      "special": true
    },
    {
      "id": 1,
      "content": "<unk>",
      "single_word": false,
      "lstrip": false,
      "rstrip": false,
      "normalized": false,
      "special": true
    },
    {
      "id": 2,
      "content": "<sos>",
      "single_word": false,
      "lstrip": false,
      "rstrip": false,
      "normalized": false,
      "special": true
    },
    {
      "id": 3,
      "content": "<eos>",
      "single_word": false,
      "lstrip": false,
      "rstrip": false,
      "normalized": false,
      "special": true
    }
  ],
  "normalizer": null,
  "pre_tokenizer": {
    "type": "ByteLevel",
    "add_prefix_space": true,
    "trim_offsets": true,
    "use_regex": true
  },
  "post_processor": null,
  "decoder": {
    "type": "ByteLevel",
    "add_prefix_space": true,
    "trim_offsets": true,
    "use_regex": true
  },
  "model": {
    "type": "BPE",
    "dropout": null,
    "unk_token": null,
    "continuing_subword_prefix": null,
    "end_of_word_suffix": null,
    "fuse_unk": false,
    "byte_fallback": false,
    "ignore_merges": false,
    "vocab": {
      "<pad>": 0,
      "<unk>": 1,
      "<sos>": 2,
      "<eos>": 3,
      "!": 4,
      "\"": 5,
      "'": 6,
      "(": 7,
      ")": 8,
      ",": 9,
      "-": 10,
      ".": 11,
      "0": 12,
      "1": 13,
      "2": 14,
      "3": 15,
      "4": 16,
      "5": 17,
      "6": 18,
      "7": 19,
      "8": 20,
      "9": 21,
      ":": 22,
      ";": 23,
      "<": 24,
      ">": 25,
      "?": 26,
      "[": 27,
      "]": 28,
      "a": 29,
      "b": 30,
      "c": 31,
      "d": 32,
      "e": 33,
      "f": 34,
      "g": 35,
      "h": 36,
      "i": 37,
      "j": 38,
      "k": 39,
      "l": 40,
      "m": 41,
      "n": 42,
      "o": 43,
      "p": 44,
      "q": 45,
      "r": 46,
      "s": 47,
      "t": 48,
      "u": 49,
      "v": 50,
      "w": 51,
      "x": 52,
      "y": 53,
      "z": 54,
      "{": 55,
      "}": 56,
      "¡": 57,
      "¢": 58,
      "£": 59,
      "¤": 60,
      "¥": 61,
      "§": 62,
      "¨": 63,
      "©": 64,
      "ª": 65,
      "«": 66,
      "¬": 67,
      "®": 68,
      "¯": 69,
      "°": 70,
      "±": 71,
      "²": 72,
      "³": 73,
      "´": 74,
      "µ": 75,
      "¶": 76,
      "·": 77,
      "¸": 78,
      "¹": 79,
      "º": 80,
      "»": 81,
      "¼": 82,
      "½": 83,
      "¾": 84,
      "¿": 85,
      "Â": 86,
      "Ã": 87,
      "Ä": 88,
      "Å": 89,
      "Æ": 90,
      "Ç": 91,
      "Ê": 92,
      "Ï": 93,
      "Ð": 94,
      "Ñ": 95,
      "à": 96,
      "á": 97,
      "â": 98,
      "ä": 99,
      "å": 100,
      "æ": 101,
      "ç": 102,
      "è": 103,
      "ï": 104,
      "Ċ": 105,
      "Ġ": 106,
      "Ģ": 107,
      "ģ": 108,
      "Ĥ": 109,
      "ĥ": 110,
      "Ħ": 111,
      "ħ": 112,
      "ĩ": 113,
      "ī": 114,
      "ĭ": 115,
      "į": 116,
      "ı": 117,
      "Ĳ": 118,
      "ĳ": 119,
      "Ĵ": 120,
      "ĵ": 121,
      "Ķ": 122,
      "ķ": 123,
      "ĸ": 124,
      "Ĺ": 125,
      "ĺ": 126,
      "Ļ": 127,
      "ļ": 128,
      "Ľ": 129,
      "Ŀ": 130,
      "Ł": 131,
      "ł": 132,
      "Ń": 133,
      "á»": 134,
      "Ġt": 135,
      "áº": 136,
      "ng": 137,
      "Ġc": 138,
      "ĠÄ": 139,
      "ĠÄĳ": 140,
      "Ãł": 141,
      "Ġn": 142,
      "Ġv": 143,
      "há»": 144,
      "hÃ": 145,
      "Ġl": 146,
      "Æ°": 147,
      "Ġm": 148,
      "Ġb": 149,
      "ĠcÃ": 150,
      "Ġk": 151,
      "iá»": 152,
      "háº": 153,
      "Ġs": 154,
      "Ġtr": 155,
      "nh": 156,
      "Æ°á»": 157,
      "ĠtÃ": 158,
      "áº¡": 159,
      "Ġng": 160,
      "Ġg": 161,
      "ĠvÃł": 162,
      "á»Ļ": 163,
      "ĠÄĳÃ": 164,
      "áº¿": 165,
      "ĠlÃł": 166,
      "´i": 167,
      "Ġh": 168,
      "ĠtÃ´i": 169,
      "Ġnh": 170,
      "ĠchÃ": 171,
      "Ġthá»": 172,
      "Ġp": 173,
      "Ġr": 174,
      "Ġd": 175,
      "´ng": 176,
      "ĠÄĳá»": 177,
      "¡c": 178,
      "áº£": 179,
      "Ãª": 180,
      "ĠkhÃ": 181,
      "ĠcÃ³": 182,
      "Ġcá»": 183,
      "á»Ļt": 184,
      "Ġvá»": 185,
      "Ġmá»Ļt": 186,
      "áº¥": 187,
      "Ġch": 188,
      "Ġth": 189,
      "ĠchÃº": 190,
      "Ġhá»": 191,
      "Ŀi": 192,
      "Ãªn": 193,
      "Ġnhá»": 194,
      "ĠchÃºng": 195,
      "á»ĳ": 196,
      "iá»ĩ": 197,
      "¯ng": 198,
      "Ġtháº": 199,
      "Æ¡": 200,
      "Ã¡": 201,
      "iáº¿": 202,
      "Ã³": 203,
      "Ľi": 204,
      "Ġnhá»¯ng": 205,
      "Ġcá»§": 206,
      "Ġcá»§a": 207,
      "Ã¬": 208,
      "Ġta": 209,
      "Ġtá»": 210,
      "qu": 211,
      "Ġqu": 212,
      "ĠkhÃ´ng": 213,
      "Æ°á»Ŀi": 214,
      "áº¡n": 215,
      "ĠnÃ³": 216,
      "ĠcÃ¡c": 217,
      "Æ°á»£": 218,
      "iá»ģ": 219,
      "áº§": 220,
      "Ġkh": 221,
      "ĠnÃł": 222,
      "á»Ł": 223,
      "ĠÄĳÃ³": 224,
      "Ġbáº¡n": 225,
      "Ġgi": 226,
      "ĠnhÆ°": 227,
      "áºŃ": 228,
      "Ġx": 229,
      "ong": 230,
      "ĠngÆ°á»Ŀi": 231,
      "Ġsá»": 232,
      "iá»ģu": 233,
      "Ġtrong": 234,
      "áº¡i": 235,
      "áº¥t": 236,
      "ĠthÃ": 237,
      "Ġchá»": 238,
      "Ġthá»ĥ": 239,
      "Ġhá»į": 240,
      "Æ°á»£c": 241,
      "uy": 242,
      "Äĥ": 243,
      "ĠÄĳÆ°á»£c": 244,
      "ĠnÃły": 245,
      "ĠÄĳÃ£": 246,
      "Ġvá»Ľi": 247,
      "Ġngh": 248,
      "Ġpháº": 249,
      "¢y": 250,
      "Ġmá»": 251,
      "ay": 252,
      "Ġcho": 253,
      "Ġra": 254,
      "Ġsáº": 255,
      "Ġgiá»": 256,
      "an": 257,
      "ĠphÃ": 258,
      "Ġsá»±": 259,
      "Ġlá»": 260,
      "ĠlÃłm": 261,
      "Ġnháº": 262,
      "±ng": 263,
      "Ġbá»": 264,
      "Ġá»Ł": 265,
      "ĠÄĳá»ĥ": 266,
      "ĠmÃł": 267,
      "ĠÃ": 268,
      "Ġdá»": 269,
      "Ġ-": 270,
      "iÃªn": 271,
      "ang": 272,
      "Ġcáº£": 273,
      "ĠÄĳiá»ģu": 274,
      "Ġsáº½": 275,
      "Ġkhi": 276,
      "Ġho": 277,
      "£i": 278,
      "Ġvá»ģ": 279,
      "áº±ng": 280,
      "±c": 281,
      "¢n": 282,
      "iá»ĥ": 283,
      "áº·": 284,
      "iáº¿t": 285,
      "Ä©": 286,
      "anh": 287,
      "Æ¡n": 288,
      "Æ°á»Ľ": 289,
      "Ġtháº¿": 290,
      "uá»ĳ": 291,
      "Ãłnh": 292,
      "on": 293,
      "ĠhÃ": 294,
      "Ġtá»«": 295,
      "áº¿n": 296,
      "©ng": 297,
      "ai": 298,
      "áº§n": 299,
      "ch": 300,
      "ĠnhÆ°ng": 301,
      "ĠváºŃ": 302,
      "inh": 303,
      "áº§u": 304,
      "áº¯": 305,
      "Ġcháº": 306,
      "Ġsá»ĳ": 307,
      "uyá»": 308,
      "ao": 309,
      "ĠnÄĥ": 310,
      "Ġviá»ĩ": 311,
      "ĠnhÃ": 312,
      "ĠÄĳáº¿n": 313,
      "ĠnÃ³i": 314,
      "©c": 315,
      "ĠlÃ": 316,
      "Ã¬nh": 317,
      "Ġtháº¥": 318,
      "ĠÄĳÃ¢y": 319,
      "Ġpháº£i": 320,
      "Ńnh": 321,
      "Æ°á»Ľc": 322,
      "Ġ\"": 323,
      "Ġtrá»": 324,
      "ĠvÃło": 325,
      "Ġviá»ĩc": 326,
      "Æ°á»Ŀ": 327,
      "ĠÄĳá»Ļ": 328,
      "iá»ĩn": 329,
      "ĠcÃ¡": 330,
      "ĠvÃ¬": 331,
      "Æ°á»Ŀng": 332,
      "au": 333,
      "Ãłn": 334,
      "Ġ1": 335,
      "ĠhÆ¡n": 336,
      "ĠÄĳang": 337,
      "ĠnghÄ©": 338,
      "Ġná»": 339,
      "Ġráº±ng": 340,
      "Ġláº¡i": 341,
      "Ġtháº¥y": 342,
      "¹ng": 343,
      "ĠgÃ¬": 344,
      "¢u": 345,
      "Ġnhiá»ģu": 346,
      "ĠcÃ¡ch": 347,
      "Ġháº": 348,
      "áº¥y": 349,
      "in": 350,
      "Ġráº¥t": 351,
      "Ãłi": 352,
      "ĠÄĳáº§u": 353,
      "ĠkhÃ¡c": 354,
      "Ġchá»ī": 355,
      "Æ°Æ¡": 356,
      "iáº¿n": 357,
      "¥t": 358,
      "ĠcÃ´ng": 359,
      "Æ°Æ¡ng": 360,
      "Ġcon": 361,
      "Ġhá»įc": 362,
      "¬nh": 363,
      "ĠdÃ": 364,
      "Ġthá»±c": 365,
      "áº£n": 366,
      "áº¿u": 367,
      "įi": 368,
      "ĠtrÃªn": 369,
      "ķi": 370,
      "áº¡o": 371,
      "áº¿t": 372,
      "Ġphá»": 373,
      "Ġbiáº¿t": 374,
      "ĠváºŃy": 375,
      "Ġthá»©": 376,
      "ĠnÄĥm": 377,
      "Ãłng": 378,
      "ĠÄĳá»ģ": 379,
      "ĠphÃ¡": 380,
      "iá»ĩu": 381,
      "á»ĵ": 382,
      "Ńt": 383,
      "Æ¡i": 384,
      "Ã´": 385,
      "Ġnáº¿u": 386,
      "ĠcÅ": 387,
      "ĠnÃło": 388,
      "ung": 389,
      "ĠthÃłnh": 390,
      "uyá»ĩ": 391,
      "ĠÄĳi": 392,
      "Ġ(": 393,
      "ĠcÅ©ng": 394,
      "ĠcÃ¡i": 395,
      "uá»ĳn": 396,
      "Ġto": 397,
      "Ġdá»¥": 398,
      "ĠbÃ": 399,
      "Ġbá»ĭ": 400,
      "ĠnhÃł": 401,
      "áº¯t": 402,
      "á»Ļc": 403,
      "Ńn": 404,
      "ĠxÃ": 405,
      "Ġkho": 406,
      "ĳng": 407,
      "Ġlo": 408,
      "ĠnÃªn": 409,
      "Ńch": 410,
      "áº»": 411,
      "Ġquan": 412,
      "ĠtrÃ": 413,
      "Ġtá»ĳ": 414,
      "eo": 415,
      "ºc": 416,
      "Ġká»": 417,
      "uá»Ļc": 418,
      "ĠchÃŃnh": 419,
      "Ġmuá»ĳn": 420,
      "Ġnháº¥t": 421,
      "em": 422,
      "Ġph": 423,
      "ĠÄĳá»Ļng": 424,
      "áº«": 425,
      "ĠmÃ¬nh": 426,
      "Ġtáº¡o": 427,
      "¯a": 428,
      "Ġgiáº£": 429,
      "Ġgiá»Ľi": 430,
      "Æ°á»Ł": 431,
      "Ġanh": 432,
      "Æ°á»Łng": 433,
      "Ġgiá»Ŀ": 434,
      "Ġmá»įi": 435,
      "Ġlá»Ľ": 436,
      "Ġhay": 437,
      "²n": 438,
      "ĠvÃ": 439,
      "ģn": 440,
      "áº¥n": 441,
      "Ġhiá»ĩn": 442,
      "ıi": 443,
      "Ġtiáº¿": 444,
      "Ġtáº¡i": 445,
      "Ãªu": 446,
      "áº·t": 447,
      "ĠÃ´ng": 448,
      "Ġquy": 449,
      "iá»ĥu": 450,
      "áº·c": 451,
      "Æ°a": 452,
      "Æ°á»£ng": 453,
      "ĠnháºŃn": 454,
      "¢m": 455,
      "§n": 456,
      "Ġcáº§n": 457,
      "Ãły": 458,
      "Ġsá»ĳng": 459,
      "á»Łi": 460,
      "Ġsau": 461,
      "ĠhÃ¬nh": 462,
      "Ġbá»Łi": 463,
      "Ġtá»±": 464,
      "uá»": 465,
      "ĠtháºŃt": 466,
      "ĠcÃ²n": 467,
      "ĠÃ½": 468,
      "ĠÄĳá»ĵ": 469,
      "ĠÄĳá»ĭ": 470,
      "Ġ2": 471,
      "ĥn": 472,
      "Ġáº¥y": 473,
      "uyá»ĩn": 474,
      "Ġtáº¥t": 475,
      "áºŃp": 476,
      "¬n": 477,
      "Ġy": 478,
      "Ġcuá»Ļc": 479,
      "įng": 480,
      "ĠcÃ¹ng": 481,
      "00": 482,
      "ĠthÃ¬": 483,
      "Ã¡n": 484,
      "Ġtheo": 485,
      "Ġlá»Ľn": 486,
      "ĠnhÃ¢n": 487,
      "am": 488,
      "er": 489,
      "áº«n": 490,
      "Ġkhá»": 491,
      "iá»ĥm": 492,
      "Ġcáº£m": 493,
      "ĠÄĳÃ¡": 494,
      "Ġbáº¯t": 495,
      "Ġthu": 496,
      "ĠsÃ¡": 497,
      "²ng": 498,
      "en": 499,
      "ĠcÆ¡": 500,
      "áºŃt": 501,
      "ĠnhÃ¬n": 502,
      "Ġsinh": 503,
      "Ĺi": 504,
      "ĠcÃ¢u": 505,
      "Ġcá»©": 506,
      "Ġthá»Ŀi": 507,
      "Ġqua": 508,
      "Ġbáº±ng": 509,
      "Ġdo": 510,
      "Ġbáº£n": 511,
      "ĠmÃ¡": 512,
      "ĠtrÆ°á»Ľc": 513,
      "Ġsao": 514,
      "á»ĵi": 515,
      "ĠlÃªn": 516,
      "Ġtin": 517,
      "ĠngÃły": 518,
      "ĠgiÃ": 519,
      "ĠgiÃ¡": 520,
      "Ġtá»Ľi": 521,
      "ĳi": 522,
      "Äĥn": 523,
      "Ġkháº": 524,
      "Ġtáº¿": 525,
      "iá»ĥn": 526,
      "£y": 527,
      "¥c": 528,
      "ĠnÆ°á»Ľc": 529,
      "Ġthay": 530,
      "ĠnÄĥng": 531,
      "Ġhá»Ļ": 532,
      "ĠnÆ¡i": 533,
      "Ġdá»¥ng": 534,
      "¬m": 535,
      "Ġbá»Ļ": 536,
      "ĠtoÃłn": 537,
      "Ġnghiá»ĩ": 538,
      "Ġtrá»Ł": 539,
      "ĠmÃ": 540,
      "ĠÄĳá»ķi": 541,
      "Ġgá»": 542,
      "Ġgia": 543,
      "Ġchuyá»ĩn": 544,
      "ĠtÃ¬m": 545,
      "Ġlu": 546,
      "ĠcÃ´": 547,
      "áº£ng": 548,
      "ĠphÃ¡t": 549,
      "áº£nh": 550,
      "ĠsÃ": 551,
      "Ġváº¥n": 552,
      "Ġpháº§n": 553,
      "ia": 554,
      "Ġhá»ĩ": 555,
      "Ġnhau": 556,
      "Ġsá»Ń": 557,
      "ĠnÃ": 558,
      "Ġkáº¿t": 559,
      "iá»ĩt": 560,
      "ĠÄĳá»ĭnh": 561,
      "ĠthÃ´ng": 562,
      "Ġmá»Ľi": 563,
      "ĠváºŃt": 564,
      "ar": 565,
      "Ġmáº¡": 566,
      "Ã¡i": 567,
      "Ġtá»ĳt": 568,
      "ĠhÃłng": 569,
      "ĠtrÆ°á»Ŀng": 570,
      "ĠtÃŃnh": 571,
      "Ġnghá»": 572,
      "¡ch": 573,
      "ĠhÃłnh": 574,
      "Äĥng": 575,
      "Ġngá»": 576,
      "ĠtÆ°á»Łng": 577,
      "ĠlÃ½": 578,
      "Ġhá»ıi": 579,
      "ĠnhiÃªn": 580,
      "Ġmáº·t": 581,
      "Ã´n": 582,
      "iá»ħ": 583,
      "Ġai": 584,
      "Ġháº¡": 585,
      "Ġhai": 586,
      "Ńa": 587,
      "áºŃn": 588,
      "£p": 589,
      "Ġtiáº¿p": 590,
      "Ġrá»ĵi": 591,
      "ĠÄĳá»ĵng": 592,
      "Ġhá»£p": 593,
      "Ġliá»ĩu": 594,
      "ĠtrÃ¬nh": 595,
      "¯c": 596,
      "ĠmÃ¡y": 597,
      "¿t": 598,
      "áº¹": 599,
      "ĩnh": 600,
      "ĠhoÃ¡": 601,
      "Ġáº£nh": 602,
      "ĠkhÃ¡": 603,
      "á»ĳc": 604,
      "ĠvÃłi": 605,
      "áº¡t": 606,
      "áº¥u": 607,
      "³ng": 608,
      "im": 609,
      "ĠkÃ": 610,
      "uyÃªn": 611,
      "á»ĳi": 612,
      "Ġgian": 613,
      "áº©": 614,
      "Ġtrá»įng": 615,
      "£o": 616,
      "Ġtay": 617,
      "Ġhá»Ļi": 618,
      "ĠhÃ£y": 619,
      "áº£o": 620,
      "ĠlÆ°á»£ng": 621,
      "Ġthá»©c": 622,
      "ĠquÃ¡": 623,
      "iÃªu": 624,
      "Ġkinh": 625,
      "ĠthÆ°á»Ŀng": 626,
      "Ġbáº¥t": 627,
      "Ġbá»ĩnh": 628,
      "Ġgiáº£i": 629,
      "ĠÄĳá»ĳi": 630,
      "Ġná»¯a": 631,
      "Ġláº§n": 632,
      "uá»ķi": 633,
      "Ġxem": 634,
      "Ġtráº»": 635,
      "ĠÄĳá»ģu": 636,
      "Ġthiáº¿t": 637,
      "Ġvá»ĭ": 638,
      "Ġá»": 639,
      "ĠbÃł": 640,
      "ĠÄĳo": 641,
      "ĠtiÃªn": 642,
      "Ġtráº£": 643,
      "Ġchiáº¿": 644,
      "á»Ļng": 645,
      "Ġhiá»ĥu": 646,
      "Ġgiá»ĳng": 647,
      "Ġhoáº·c": 648,
      "Ġngo": 649,
      "Ġloáº¡i": 650,
      "ºng": 651,
      "ĠthÃŃch": 652,
      "Ġtrung": 653,
      "ĭch": 654,
      "ĠtÃ¢m": 655,
      "ĠthÃ¡": 656,
      "ĠÄĳiá»ĥm": 657,
      "Ġcá»©u": 658,
      "iá»ħn": 659,
      "Ġmá»Ĺi": 660,
      "Ġthá»ĳng": 661,
      "ĠÄĳáº¡i": 662,
      "áº£y": 663,
      "áº½": 664,
      "ĠnghÄ©a": 665,
      "Ġbao": 666,
      "ĠtÆ°Æ¡ng": 667,
      "Ġnay": 668,
      "ĠlÃºc": 669,
      "Ġgá»įi": 670,
      "ĠviÃªn": 671,
      "Ġváº«n": 672,
      "ĠsÃ¡ng": 673,
      "ºp": 674,
      "Ġ3": 675,
      "Ġnhá»ı": 676,
      "ĠÃ¡": 677,
      "ĠrÃ": 678,
      "ĠdÃ¹ng": 679,
      "al": 680,
      "áº¯ng": 681,
      "Ġvi": 682,
      "ĠhoÃłn": 683,
      "ĠÄĳÆ°á»Ŀng": 684,
      "Ġquáº£": 685,
      "uyá»ĥn": 686,
      "įn": 687,
      "ĠgiÃºp": 688,
      "Ġnghá»ĩ": 689,
      "ĠÄĳÆ°a": 690,
      "iá»ģn": 691,
      "Ġtá»ķ": 692,
      "ĠÄĳáº¥t": 693,
      "Ġxu": 694,
      "Ġphá»¥": 695,
      "ĠtÃ¡c": 696,
      "Ġtá»«ng": 697,
      "Ġcá»ĳ": 698,
      "Ġxáº£y": 699,
      "Ġchuyá»ĥn": 700,
      "Ġdá»±": 701,
      "Ġbiá»ĩt": 702,
      "Ġnghiá»ĩm": 703,
      "uyá»ĩt": 704,
      "cÆ°á»Ŀi": 705,
      "Ġquá»ĳc": 706,
      "ĠbÃªn": 707,
      "Ġná»¯": 708,
      "Ġlá»±c": 709,
      "Ġnghe": 710,
      "Ġquyáº¿t": 711,
      "Ġtrá»ĭ": 712,
      "Ġcáº§u": 713,
      "Ġcao": 714,
      "uyá»ģn": 715,
      "«ng": 716,
      "Ġcháº¥t": 717,
      "or": 718,
      "ĠdÃ¢n": 719,
      "Ġtriá»ĥn": 720,
      "Ġtuyá»ĩt": 721,
      "Ġkhoáº£ng": 722,
      "Ġbáº£o": 723,
      "áº©n": 724,
      "Ġem": 725,
      "ĠtÃ¬nh": 726,
      "uá»ĳi": 727,
      "Ġkhu": 728,
      "ĠkhÃ³": 729,
      "©t": 730,
      "ĠliÃªn": 731,
      "Ġtho": 732,
      "Ġlá»Ŀi": 733,
      "ĠcÆ°á»Ŀi": 734,
      "áº¯c": 735,
      ".\"": 736,
      "Ġchá»§": 737,
      "©a": 738,
      "ĠÄĳÃºng": 739,
      "iáº¿ng": 740,
      "ĠchÆ°a": 741,
      "Ġdáº¡": 742,
      "ĠbÃ¢y": 743,
      "Ġchiáº¿c": 744,
      "ĠnghiÃªn": 745,
      "ĠthuáºŃt": 746,
      "áº¥p": 747,
      "Ã´i": 748,
      "Ġquyá»": 749,
      "ĠÄĥn": 750,
      "Ġkáº¿": 751,
      "©m": 752,
      "©p": 753,
      "ĠtháºŃ": 754,
      "Ġbiáº¿n": 755,
      "Ġdiá»ħn": 756,
      "Å©": 757,
      "Äĥm": 758,
      "ĠbÃ¡": 759,
      "ĠtÆ°á»£ng": 760,
      "ĠtáºŃp": 761,
      "Ġtiáº¿n": 762,
      "ĠgiÃ¡o": 763,
      "Ġgáº§n": 764,
      "ĠphÃ²ng": 765,
      "Ġtiáº¿ng": 766,
      "ĠphÃ¢n": 767,
      "el": 768,
      "es": 769,
      "áº·p": 770,
      "Æ°á»Ľng": 771,
      "Ġngay": 772,
      "Ġháº¿t": 773,
      "Ġtinh": 774,
      "Ġso": 775,
      "Ġcuá»ĳi": 776,
      "uá»ĳng": 777,
      "ºt": 778,
      "Ġxuáº¥t": 779,
      "ĠnÃ£o": 780,
      "Æ°á»Ľi": 781,
      "Ġkháº£": 782,
      "Ġtuá»ķi": 783,
      "Ġxe": 784,
      "ĠÄĳÆ¡n": 785,
      "ĠÄĳiá»ĩn": 786,
      "ĠphÃ¡p": 787,
      "áº§m": 788,
      "ĠyÃªu": 789,
      "Ġgiá»¯a": 790,
      "tiáº¿ng": 791,
      "..": 792,
      "uá»ĵ": 793,
      "ĠbÃ©": 794,
      "is": 795,
      "Ġláº¡": 796,
      "Ġhiá»ĩu": 797,
      "ĠbÃ¬nh": 798,
      "áº¯n": 799,
      "Ġhá»ĵ": 800,
      "Ġkhoa": 801,
      "Ġbá»ı": 802,
      "ªm": 803,
      "ĠloÃłi": 804,
      "¥p": 805,
      "Ġtruyá»ģn": 806,
      "£n": 807,
      "Ġba": 808,
      "Ġmang": 809,
      "Ġmá»¹": 810,
      "ĠngoÃłi": 811,
      "Ġsáº£n": 812,
      "ĠhÃ´": 813,
      "ĠthÃ¢n": 814,
      "Ġthá»ĭ": 815,
      "iÃª": 816,
      "Ġhoáº¡t": 817,
      "Ġtranh": 818,
      "Ġmáº¥t": 819,
      "ĠÄĳáº·t": 820,
      "Ġtiá»ģn": 821,
      "Ġrá»": 822,
      "Ġcá»Ļng": 823,
      "Ġláº¥y": 824,
      "Ġchiáº¿n": 825,
      "ĠbÃłi": 826,
      "Ġsá»©c": 827,
      "ĠtÃª": 828,
      "Ġká»³": 829,
      "et": 830,
      "ĠchÃŃ": 831,
      "Ġká»ĥ": 832,
      "Ġnghiá»ĩp": 833,
      "iá»ĩm": 834,
      "Ġmáº¹": 835,
      "ĠÄĳÃ¡ng": 836,
      "ĠgÃ": 837,
      "Ġbá»©c": 838,
      "uyáº¿t": 839,
      "įc": 840,
      "ĠÄĳá»Ŀi": 841,
      "Ġminh": 842,
      "«a": 843,
      "ĠtrÃŃ": 844,
      "ĠthÃº": 845,
      "uá»ĵn": 846,
      "ĠtrÃ¡i": 847,
      "ĠtÃªn": 848,
      "ĠphÆ°Æ¡ng": 849,
      "Ġ5": 850,
      "Ġmáº¡nh": 851,
      "Ġw": 852,
      "Ġquyá»ģn": 853,
      "ĠluÃ´n": 854,
      "³m": 855,
      "ĠÃŃt": 856,
      "ĠkhÃŃ": 857,
      "ĠmÃ´": 858,
      "Ġa": 859,
      "ĠvÃ´": 860,
      "ĠtÆ°": 861,
      "Ġtá»Ń": 862,
      "Ġbá»ĳ": 863,
      "Ġdáº«n": 864,
      "ĠtiÃªu": 865,
      "ĠláºŃp": 866,
      "ĠsÃ¡ch": 867,
      "ĠxÃ£": 868,
      "ĠhÆ°á»Ľng": 869,
      "Ġchá»įn": 870,
      "ĠvÄĥn": 871,
      "Ġj": 872,
      "Ġf": 873,
      "ĠvÃŃ": 874,
      "ĠtÄĥng": 875,
      "Ġthá»Ń": 876,
      "Ġchá»©ng": 877,
      "ĠÄĳáº·c": 878,
      "Ġá»©ng": 879,
      "¯p": 880,
      "Ġvá»¥": 881,
      "ĠchÆ¡i": 882,
      "ĠdÃ¹": 883,
      "Ġ4": 884,
      "Ġphá»ĳ": 885,
      "ĠnguyÃªn": 886,
      "ĠtÃłi": 887,
      "ic": 888,
      "Ãło": 889,
      "ĠsÄ©": 890,
      "Ġtriá»ĩu": 891,
      "ĠtÃ¡": 892,
      "ĠquÃ": 893,
      "ĠÃ¢m": 894,
      "ĠxÃ¢y": 895,
      "Ġkiáº¿n": 896,
      "ĠmÃłu": 897,
      "Ġdi": 898,
      "Ã³c": 899,
      "á»Ļi": 900,
      "ĠÄĳÃ¢u": 901,
      "Ġtá»ĵ": 902,
      "Ġchu": 903,
      "Ġgáº·p": 904,
      "Ġphi": 905,
      "Ġláº½": 906,
      "Ġviáº¿t": 907,
      "Ġkhá»ıi": 908,
      "ĠÄĳáº¥y": 909,
      "Ġkhiáº¿n": 910,
      "Ġchá»©c": 911,
      "iáº¿m": 912,
      "Ġsuy": 913,
      "Ġmáº¡ng": 914,
      "Ġtu": 915,
      "Ġcáº¥p": 916,
      "Ġdá»±ng": 917,
      "Ġtháº§n": 918,
      "Ġcá»±c": 919,
      "at": 920,
      "Ġvá»Ŀi": 921,
      "Ġpháº©m": 922,
      "ĠnhÃ³m": 923,
      "ĠÄĳá»©a": 924,
      "it": 925,
      "Ġcháº¿": 926,
      "Ġcháº¿t": 927,
      "Ã³ng": 928,
      "ĠrÃµ": 929,
      "Ġnháº¡c": 930,
      "ĠdÆ°á»Ľi": 931,
      "¯n": 932,
      "ĠxÃ¡c": 933,
      "Ġcáº£nh": 934,
      "Ġná»ģn": 935,
      "Ġdá»¯": 936,
      "Ġcháº¯c": 937,
      "áºŃu": 938,
      "ĠsÃ¡t": 939,
      "ĠthÃ¡ng": 940,
      "ĠÄĳÃ¡nh": 941,
      "Ġ20": 942,
      "Ġdá»ĭch": 943,
      "Ġcá»¥": 944,
      "ot": 945,
      "Ġnhá»Ľ": 946,
      "ĠthÃªm": 947,
      "ĠÄĳáº¡o": 948,
      "ĠgiÃ¡c": 949,
      "Ġmá»Ł": 950,
      "Ġquanh": 951,
      "Ġo": 952,
      "ĠtháºŃm": 953,
      "000": 954,
      "Ġdá»ħ": 955,
      "ĠbÃ¡o": 956,
      "Ġxuá»ĳng": 957,
      "as": 958,
      "ĠkÃ¬": 959,
      "ĠÃ¡n": 960,
      "Ġgiáº£n": 961,
      "ĠcÃ¢y": 962,
      "ĠbÃło": 963,
      "Ġquay": 964,
      "ĠÄĳá»§": 965,
      "Ġco": 966,
      "ĠgÃ¢y": 967,
      "Ġnhanh": 968,
      "áº¹p": 969,
      "áº¥m": 970,
      "Ġmá»©c": 971,
      "Ġvá»įng": 972,
      "ĠcÃłng": 973,
      "áº¡p": 974,
      "ĠphÃŃa": 975,
      "áº§y": 976,
      "ĠvÃ¹ng": 977,
      "Ġcháº¡": 978,
      "il": 979,
      "Ġchá»ĭ": 980,
      "ed": 981,
      "ĠhÃ´m": 982,
      "ĠphÃ©p": 983,
      "Ġpháº£n": 984,
      "Ġnguá»ĵn": 985,
      "us": 986,
      "§ng": 987,
      "Ġthuyáº¿t": 988,
      "ĠhÆ°á»Łng": 989,
      "ĠtrÃ²": 990,
      "ĠdÃłi": 991,
      "Ġtá»¥c": 992,
      "ĠÄĳÃ´i": 993,
      "ua": 994,
      "Æ°u": 995,
      "Ġcháº³ng": 996,
      "Ġdáº¡ng": 997,
      "hi": 998,
      "Ã¡t": 999,
      "ĠthÆ°Æ¡ng": 1000,
      "Ġtham": 1001,
      "Ġxá»": 1002,
      "Ġan": 1003,
      "Ġgáº¯ng": 1004,
      "Ġ10": 1005,
      "áº¡ch": 1006,
      "ĠvÅ©": 1007,
      "uá»ĳc": 1008,
      "Ġgiáº£m": 1009,
      "Ġvá»±c": 1010,
      "Ġkiá»ĥm": 1011,
      "Ġxa": 1012,
      "Ġchia": 1013,
      "ĠchÃºt": 1014,
      "Ġ19": 1015,
      "ĠÄĳÃłn": 1016,
      "ĠchÃ¢u": 1017,
      "ĠÄĳáº¹p": 1018,
      "ĠÄĳÃ¬nh": 1019,
      "ĠbÆ°á»Ľc": 1020,
      "Ġro": 1021,
      "Ġthuá»ĳc": 1022,
      "±a": 1023,
      "Ġbay": 1024,
      "Ġháº§": 1025,
      "Ġtrá»Ŀi": 1026,
      "áº¯m": 1027,
      "Ġlá»ĩ": 1028,
      "Ġtráº£i": 1029,
      "ĠcáºŃu": 1030,
      "Ġphim": 1031,
      "ĠÄĳá»ĭa": 1032,
      "vá»": 1033,
      "Ġtrang": 1034,
      "ĠthÆ°": 1035,
      "Ġtá»ĵn": 1036,
      "iÃªng": 1037,
      "Ġduy": 1038,
      "Ġmá»¥c": 1039,
      "áº«u": 1040,
      "Ġlá»£i": 1041,
      "Ġty": 1042,
      "Ġbiá»ĥu": 1043,
      "Ġháº¡n": 1044,
      "vá»Ĺ": 1045,
      "ĠtÃŃch": 1046,
      "Ġvá»ĩ": 1047,
      "ĠÄĳÃ´": 1048,
      "¢ng": 1049,
      "Ġngá»¯": 1050,
      "Ġlai": 1051,
      "?\"": 1052,
      "Ġgiao": 1053,
      "Ġkiáº¿m": 1054,
      "Ġsá»£": 1055,
      "±m": 1056,
      "Ġda": 1057,
      "Ġvá»«a": 1058,
      "ĠluáºŃn": 1059,
      "Ġhá»ĵi": 1060,
      "ĠvÃ²ng": 1061,
      "áº¡c": 1062,
      "Ġdá»¥c": 1063,
      "Ġmáº¯t": 1064,
      "Ġtá»ī": 1065,
      "Ġin": 1066,
      "Ġ6": 1067,
      "Ġvu": 1068,
      "Ġphá»¥c": 1069,
      "ĠÄĳoÃ¡n": 1070,
      "Ġháº§u": 1071,
      "Ġtá»ĳi": 1072,
      "Ġkia": 1073,
      "ĠnghÃ": 1074,
      "Ġgiá»¯": 1075,
      "ĠdÃłnh": 1076,
      "ĠÄĳáº§y": 1077,
      "Ġla": 1078,
      "uyáº¿n": 1079,
      "Ġ'": 1080,
      "ĠluáºŃt": 1081,
      "ĠsÃ¢u": 1082,
      "ĠtoÃ¡n": 1083,
      "Ġváº»": 1084,
      "ter": 1085,
      "Ġphá»§": 1086,
      "Ġthanh": 1087,
      "Ġná»ĳi": 1088,
      "Ġrá»Ļng": 1089,
      "ĠÄĳoáº¡n": 1090,
      "Ġlá»ĭch": 1091,
      "Ġthuá»Ļc": 1092,
      "iá»ģm": 1093,
      "Ġchi": 1094,
      "Ãłu": 1095,
      "Æ°á»¡": 1096,
      "iáº¿u": 1097,
      "ĠlÃ²ng": 1098,
      "ĠmÃ´i": 1099,
      "Ġtrá»£": 1100,
      "Æ°á»£t": 1101,
      "Ġbiá»ĥn": 1102,
      "Ġkhoáº»": 1103,
      "ĠÄĳá»©ng": 1104,
      "ĠthÃ´i": 1105,
      "Ġtáº£": 1106,
      "Ġdiá»ĩn": 1107,
      "ĠthiÃªn": 1108,
      "¨o": 1109,
      "le": 1110,
      "ĠcÄĥn": 1111,
      "Ġsai": 1112,
      "ĠÄĳáº¡t": 1113,
      "ĠchÃ¢n": 1114,
      "Ġtáº¡p": 1115,
      "ĠriÃªng": 1116,
      "ĠÃ¡nh": 1117,
      "Ġmá»ĳi": 1118,
      "ĠgÃ¡i": 1119,
      "Ġca": 1120,
      "ĠtrÄĥm": 1121,
      "uá»ĳt": 1122,
      "ro": 1123,
      "ĠÄĳá»įc": 1124,
      "ĠlÃ£": 1125,
      "Ġyáº¿u": 1126,
      "ĠthÃ¡i": 1127,
      "ra": 1128,
      "Ġlá»Ľp": 1129,
      "Ġthoáº¡i": 1130,
      "Ġtrá»¥": 1131,
      "Ġnam": 1132,
      "Ġná»ķi": 1133,
      "Ġkiá»ĥu": 1134,
      "Ġtuáº§n": 1135,
      "ĠthÃºc": 1136,
      "Ġviá»ĩn": 1137,
      "Ġká»¹": 1138,
      "Ńu": 1139,
      "ĠÄĳa": 1140,
      "´n": 1141,
      "Ġkháº¯p": 1142,
      "Ġngá»ĵi": 1143,
      "ĠbÃ¡c": 1144,
      "ĠxÃºc": 1145,
      "ĠchÆ°Æ¡ng": 1146,
      "Ġxung": 1147,
      "ol": 1148,
      "Ġvui": 1149,
      "ĠÆ¡n": 1150,
      "Ġdáº¡y": 1151,
      "ĠváºŃn": 1152,
      "Ġmáº«u": 1153,
      "Ġcá»Ńa": 1154,
      "ĠlÃ¢u": 1155,
      "áº·ng": 1156,
      "ĠmÃ¹": 1157,
      "Ġká»·": 1158,
      "ĠbÃłn": 1159,
      "Ġ7": 1160,
      "Ġkhá»§ng": 1161,
      "Ńp": 1162,
      "ĠÃ¡p": 1163,
      "Ġmáº·c": 1164,
      "Ġcháº¯n": 1165,
      "Ġsá»Ł": 1166,
      "uá»·": 1167,
      "Ġtiáº¿t": 1168,
      "ĠlÃŃ": 1169,
      "Ġsuá»ĳt": 1170,
      "Ġchung": 1171,
      "ĠsÆ°": 1172,
      "Ġi": 1173,
      "ĠngÃ´n": 1174,
      "ĠtrÃ´ng": 1175,
      "Ġcháº¡y": 1176,
      "ĠkhÃ¡m": 1177,
      "Ġpháº¡": 1178,
      "Ġxin": 1179,
      "ĠÄĳau": 1180,
      "©o": 1181,
      "ĠphÃŃ": 1182,
      "ĠtrÃºc": 1183,
      "ĠbÃ¡n": 1184,
      "Ġ9": 1185,
      "Ġ8": 1186,
      "Ġtá»ķng": 1187,
      "áº±m": 1188,
      "Ġnhiá»ĩm": 1189,
      "Ġe": 1190,
      "ĠchÃ¡": 1191,
      "Ġbuá»ķi": 1192,
      "Ġsáº¯c": 1193,
      "ĵng": 1194,
      "Ġcá»ķ": 1195,
      "Ġkiá»ĩn": 1196,
      "Ġban": 1197,
      "Ġchá»ĭu": 1198,
      "ĠthÃŃ": 1199,
      "Ġmua": 1200,
      "Ġnáº±m": 1201,
      "ĠbÃ³ng": 1202,
      "Ä©nh": 1203,
      "ĠkÃŃch": 1204,
      "Ġcung": 1205,
      "áº¡nh": 1206,
      "Ġlá»±a": 1207,
      "Ġtráº¡": 1208,
      "ĠnháºŃp": 1209,
      "¯u": 1210,
      "Ġáº¥n": 1211,
      "Ġhiá»ĥm": 1212,
      "Ġhá»¯u": 1213,
      "id": 1214,
      "ĠchuyÃªn": 1215,
      "ĠxÃ©t": 1216,
      "Ġcáº¡nh": 1217,
      "ew": 1218,
      "ĠcÃ¡nh": 1219,
      "Ġcáº¥u": 1220,
      "Ġnáº¡n": 1221,
      "ıng": 1222,
      "Ġtá»ĩ": 1223,
      "ĠngÃ´i": 1224,
      "Ġtra": 1225,
      "Ġsáº»": 1226,
      "Ġkáº»": 1227,
      "ĠngÃ": 1228,
      "ĠrÃłng": 1229,
      "Ġchá»Ĺ": 1230,
      "ĠphÃºt": 1231,
      "ĠÄĳá»Ļc": 1232,
      "Ġxá»Ń": 1233,
      "Ġphá»©c": 1234,
      "Æ°á»¡ng": 1235,
      "Ġhy": 1236,
      "Ġghi": 1237,
      "Ġchuáº©n": 1238,
      "Ġdoanh": 1239,
      "Ġtim": 1240,
      "ĠtháºŃp": 1241,
      "ac": 1242,
      "Äĳ": 1243,
      "ĠkhÄĥn": 1244,
      "Ġchá»©": 1245,
      "Ġdá»±a": 1246,
      "oo": 1247,
      "µn": 1248,
      "ĠhÆ¡i": 1249,
      "ĠháºŃu": 1250,
      "Ġchá»ĳng": 1251,
      "ĠÄĳÃ´ng": 1252,
      "áº©y": 1253,
      "and": 1254,
      "ĠtrÆ°á»Łng": 1255,
      "Ġhoa": 1256,
      "Ġngáº¡c": 1257,
      "Æ°ng": 1258,
      "ĠhoÃł": 1259,
      "ĠdÆ°Æ¡ng": 1260,
      "ĠÃŃch": 1261,
      "ĠÄĳá»Ļi": 1262,
      "áº¿p": 1263,
      "Ġmay": 1264,
      "ĠvÃ¢ng": 1265,
      "Ġcuá»ĳn": 1266,
      "Ġthiáº¿u": 1267,
      "Ġtá»©c": 1268,
      "ad": 1269,
      "ĠÄĳen": 1270,
      "Ġst": 1271,
      "Ġsáºµn": 1272,
      "Ġláº¯ng": 1273,
      "Ġnguy": 1274,
      "ĠvÆ°á»£t": 1275,
      "Ġmong": 1276,
      "Ġxanh": 1277,
      "ĠngÃłnh": 1278,
      "Ġgen": 1279,
      "un": 1280,
      "Ġháº¡t": 1281,
      "os": 1282,
      "iÃªm": 1283,
      "Ġtháº¥t": 1284,
      "Ġkhá»ķ": 1285,
      "ĠtoÃł": 1286,
      "ĠchÄĥm": 1287,
      "ĠÄĳÃ³ng": 1288,
      "Ġpháº¡m": 1289,
      "ĠnghÃ¨o": 1290,
      "Ńi": 1291,
      "ºi": 1292,
      "Ġdáº§n": 1293,
      "Ġkháº¯c": 1294,
      "Ġhá»ģ": 1295,
      "Ġ200": 1296,
      "ĠtÃ¡i": 1297,
      "Ġtrá»±c": 1298,
      "Ġváº½": 1299,
      "eb": 1300,
      "ĠlÆ°u": 1301,
      "Ġthá»§": 1302,
      "Ġtáº¥m": 1303,
      "Ġcáº£i": 1304,
      "Ġsáº¯p": 1305,
      "tÃ´i": 1306,
      "Ġáº©n": 1307,
      "Ġtá»·": 1308,
      "Ġxo": 1309,
      "Ġnhá»Ŀ": 1310,
      "Ġchá»¯": 1311,
      "Ġtrai": 1312,
      "Ġhá»©ng": 1313,
      "Ġxáº¥u": 1314,
      "Ġcha": 1315,
      "ur": 1316,
      "¥n": 1317,
      "Ġtá»ĳc": 1318,
      "ĠÃ´": 1319,
      "Ġal": 1320,
      "...": 1321,
      "Ġná»Ĺi": 1322,
      "Ġngoáº¡i": 1323,
      "Ġchá»¥p": 1324,
      "uÃ´i": 1325,
      "Ġdáº¥u": 1326,
      "Ġtráº¡ng": 1327,
      "Ġsang": 1328,
      "Ġhoáº¡": 1329,
      "Ġháº¡nh": 1330,
      "ĠthÃ¡ch": 1331,
      "Ġdung": 1332,
      "ĠngÆ°á»£c": 1333,
      "ĠbÄĥng": 1334,
      "Ġniá»ĩm": 1335,
      "Ġnhiá»ħ": 1336,
      "ĠkÃŃnh": 1337,
      "\".": 1338,
      "Ġsu": 1339,
      "ĠnhiÃªu": 1340,
      "Ġnhiá»ĩt": 1341,
      "Ġhá»Ĺ": 1342,
      "ĠtÃ¢y": 1343,
      "áºŃy": 1344,
      "ĠkhÃ¡ch": 1345,
      "ĠÄĳá»Ļt": 1346,
      "Ġ100": 1347,
      "Ġung": 1348,
      "ĠÄĳáº¥u": 1349,
      "Łi": 1350,
      "Ġtáº§m": 1351,
      "á»ĳng": 1352,
      "á»Ļn": 1353,
      "Ġniá»ģm": 1354,
      "Ġdanh": 1355,
      "ĠmáºŃt": 1356,
      "Ġchá»¯a": 1357,
      "Ġtá»Ļi": 1358,
      "iá»ĩp": 1359,
      "Ġhi": 1360,
      "Ġnew": 1361,
      "ĠkÃ©o": 1362,
      "ĠphÃºc": 1363,
      "Ġgá»Ńi": 1364,
      "Ġtháº³ng": 1365,
      "Ġláº¡c": 1366,
      "Ġthiá»ĩn": 1367,
      "Ġgá»ĵ": 1368,
      "Ġá»ķ": 1369,
      "ĠcáºŃn": 1370,
      "ĠÄĳáº©y": 1371,
      "Ġmáº¯c": 1372,
      "th": 1373,
      "Ġngá»§": 1374,
      "ĠÆ°á»Ľc": 1375,
      "ĠÄĳá»©c": 1376,
      "om": 1377,
      "«u": 1378,
      "Ã¡nh": 1379,
      "ĠquÃ½": 1380,
      "Ġgá»ĵm": 1381,
      "Ġbáº§u": 1382,
      "Ġná»Ļi": 1383,
      "Ġ30": 1384,
      "Ġrob": 1385,
      "Ġ15": 1386,
      "ĠmÃ£": 1387,
      "ĠsoÃ¡t": 1388,
      "Ġnhu": 1389,
      "Ġlá»Ĺi": 1390,
      "Ġnhiá»ħm": 1391,
      "ĠghÃ": 1392,
      "Ġná»Ńa": 1393,
      "ĠlÃ£nh": 1394,
      "ĠmÆ¡": 1395,
      "Ġcháº¥p": 1396,
      "Ġquáº£n": 1397,
      "Ġthi": 1398,
      "Ġháº¡i": 1399,
      "ĠphÃ³ng": 1400,
      "ĠquÃ¢n": 1401,
      "ĠtÃłu": 1402,
      "Ġká»ī": 1403,
      "ĠhÃ¡": 1404,
      "Ġcá»Ń": 1405,
      "Ġkhá»ĳi": 1406,
      "Ġ50": 1407,
      "Ã³n": 1408,
      "ĠdÃ²ng": 1409,
      "ĠsÃ³c": 1410,
      "ĠtÃ´n": 1411,
      "Ġtuy": 1412,
      "ĠdÃ¢y": 1413,
      "ĠÄĳá»ĳ": 1414,
      "ĠcÆ°": 1415,
      "Ġbáº¡i": 1416,
      "ĠÄĳÃªm": 1417,
      "Ġcháº·": 1418,
      "Ġtháº¥p": 1419,
      "áº£m": 1420,
      "ĠtáºŃn": 1421,
      "Ġrá»ĳi": 1422,
      "Ġnghi": 1423,
      "ĠnuÃ´i": 1424,
      "Ġbáº¡o": 1425,
      "Ġkhai": 1426,
      "ing": 1427,
      "µi": 1428,
      "ĠÄĳá»¡": 1429,
      "ĠgÃ³": 1430,
      "Ġhoáº¡ch": 1431,
      "Ġbáº¯c": 1432,
      "ĠcáºŃp": 1433,
      "Ġtáº¯c": 1434,
      "áº£i": 1435,
      "ĠkÄ©": 1436,
      "Ġvai": 1437,
      "Ġchiá»ģu": 1438,
      "ĠlÄ©nh": 1439,
      "ĠtÃŃn": 1440,
      "Ġphong": 1441,
      "ĠsÃ³ng": 1442,
      "ĠhÃł": 1443,
      "ĠdÃłng": 1444,
      "ĠniÃªn": 1445,
      "ĠsÃłng": 1446,
      "ĠsiÃªu": 1447,
      "ĠcÃ¢n": 1448,
      "Ġu": 1449,
      "ĠnÃ´ng": 1450,
      "ĠchÃºa": 1451,
      "\",": 1452,
      "ĠÄĳÃŃch": 1453,
      "Ġted": 1454,
      "Ġcáº¯t": 1455,
      "ĠtrÃ¡ch": 1456,
      "uá»Ĺi": 1457,
      "áº§ng": 1458,
      "Ġtiá»ĩn": 1459,
      "net": 1460,
      "ĠxuyÃªn": 1461,
      "Ġphá»ķ": 1462,
      "Ġquá»": 1463,
      "Ġtáº§ng": 1464,
      "ĠngÄĥn": 1465,
      "Ġkhá»Łi": 1466,
      "Ġgá»ĳc": 1467,
      "Ġxáº¿p": 1468,
      "Ġlan": 1469,
      "ĠngÃłn": 1470,
      "ĠcÃ¡o": 1471,
      "Ġngá»Ŀ": 1472,
      "īnh": 1473,
      "Ġgiáº¿t": 1474,
      "Ġbá»ĳn": 1475,
      "Ġtáº¥n": 1476,
      "ĠbÃŃ": 1477,
      "Ġtráº¯ng": 1478,
      "ĠlÃ¡": 1479,
      "Ġthá»¥": 1480,
      "Ġquen": 1481,
      "ĳn": 1482,
      "Ġnháº¯c": 1483,
      "ĠlÃ¡i": 1484,
      "Ġgáº¯n": 1485,
      "ĠÃ¢u": 1486,
      "ĠÄĳáº£m": 1487,
      "ĠÄĳá»ı": 1488,
      "ĠbÃ¡nh": 1489,
      "áº¯p": 1490,
      "ine": 1491,
      "Ġgiáº¥y": 1492,
      "Ġinter": 1493,
      "ph": 1494,
      "Ġdá»«ng": 1495,
      "ĠngÃ¢n": 1496,
      "Ġrobot": 1497,
      "ĠmÃ¡u": 1498,
      "re": 1499,
      "Ġláº¯m": 1500,
      "Ġngáº¯n": 1501,
      "Ġgáº¥p": 1502,
      "ĠÄĳá»«ng": 1503,
      "lo": 1504,
      "Ġlao": 1505,
      "ard": 1506,
      "ig": 1507,
      "ĠÄĳá»£i": 1508,
      "Ġma": 1509,
      "Ġkhiá»ĥn": 1510,
      "ĠsÃ¢n": 1511,
      "ĠÄĳá»ķ": 1512,
      "Ġgiai": 1513,
      "khÃ": 1514,
      "Ġchiáº¿u": 1515,
      "ist": 1516,
      "Ġrá»«ng": 1517,
      "ĠthÆ¡": 1518,
      "Ġá»ķn": 1519,
      "Ńm": 1520,
      "deo": 1521,
      "ĠhÃºt": 1522,
      "Ġmáº¡ch": 1523,
      "ĠmÃłn": 1524,
      "ĠmÃª": 1525,
      "Ġháº¥p": 1526,
      "ĠlÆ°á»Ľi": 1527,
      "Ġvideo": 1528,
      "Ġchá»§ng": 1529,
      "Ġtháº£": 1530,
      "Ġbang": 1531,
      "Ġtai": 1532,
      "©n": 1533,
      "¨n": 1534,
      "Ġinternet": 1535,
      "ĠtÃ¹": 1536,
      "Ġtá»Ļc": 1537,
      "ton": 1538,
      "Ġnghá»ĭ": 1539,
      "Ġtháº£i": 1540,
      "ĠgiÃ¢y": 1541,
      "Ġchuyáº¿n": 1542,
      "ĠÄĳÃ¡p": 1543,
      "Ġdáº§u": 1544,
      "Ġ12": 1545,
      "ĠmÃ¹a": 1546,
      "²i": 1547,
      "ĠÄĳem": 1548,
      "Ġchá»©a": 1549,
      "ork": 1550,
      "Ġluyá»ĩn": 1551,
      "Ġnháº£y": 1552,
      "Ġcam": 1553,
      "ĠÃ¡o": 1554,
      "Ġtuá»": 1555,
      ",\"": 1556,
      "li": 1557,
      "Ġhá»Ļp": 1558,
      "Ġpháº«u": 1559,
      "tr": 1560,
      "Ġmar": 1561,
      "ĠhÃ¡t": 1562,
      "Ġchá»Ŀ": 1563,
      "Ġtrá»«": 1564,
      "ĠnháºŃt": 1565,
      "Ġtáº£i": 1566,
      "Ľm": 1567,
      "ĠgÃ³c": 1568,
      "Ġbuá»Ļc": 1569,
      "Ġnáº·ng": 1570,
      "ĠnghiÃªm": 1571,
      "Ġloáº¡n": 1572,
      "Ġuá»ĳng": 1573,
      "Ġhuá»·": 1574,
      "Ġáº£o": 1575,
      "Ġchá»īnh": 1576,
      "Ġrá»Ŀi": 1577,
      "Ġquyá»ĥn": 1578,
      "ĠtrÃ¹ng": 1579,
      "ag": 1580,
      "Ã¡ng": 1581,
      "ĭp": 1582,
      "Ġcan": 1583,
      "Ġkhuáº©n": 1584,
      "ĠmÃ¡i": 1585,
      "ĠcÆ¡n": 1586,
      "ĠnÃ³ng": 1587,
      "ĠbÃły": 1588,
      "Ġcoi": 1589,
      "ĠsÆ¡": 1590,
      "ĠdÄ©": 1591,
      "Ġyork": 1592,
      "ĠkÃª": 1593,
      "Ġtháº¯ng": 1594,
      "Ã³t": 1595,
      "Ġbu": 1596,
      "³n": 1597,
      "ĠkÃ½": 1598,
      "Ġtrao": 1599,
      "ey": 1600,
      "ĠphÃ¹": 1601,
      "ĠgiÃłu": 1602,
      "Ġcháº¡m": 1603,
      "ĠchÃ¡u": 1604,
      "ĠtrÃ¡nh": 1605,
      "Ġmiá»ħn": 1606,
      "Ġbuá»ĵn": 1607,
      "Ġlá»Ńa": 1608,
      "ĠkhÃ¡n": 1609,
      "ri": 1610,
      "iáº¿p": 1611,
      "ĠÄĳÃ¡m": 1612,
      "Ġmáº¥y": 1613,
      "Ġháº³n": 1614,
      "Ġsá»Ńa": 1615,
      "ĠthoÃ¡t": 1616,
      "ĠÄĳiá»ĥn": 1617,
      "ĠkhuÃ´n": 1618,
      "Ġsá»Ľm": 1619,
      "Ġweb": 1620,
      "Ġdu": 1621,
      "Ġmáº½": 1622,
      "ah": 1623,
      "Ã´ng": 1624,
      "Ġvá»ĳn": 1625,
      "Ġbá»ģ": 1626,
      "ĠtÆ°á»Ŀng": 1627,
      "ĠkhÃ¡i": 1628,
      "³c": 1629,
      "Ġsan": 1630,
      "Ġquang": 1631,
      "Ġ40": 1632,
      "um": 1633,
      "Ġchim": 1634,
      "ĠcÅ©": 1635,
      "ĠgÃ³p": 1636,
      "ck": 1637,
      "Ġ18": 1638,
      "Ġmáº£nh": 1639,
      "ĠpháºŃn": 1640,
      "ģm": 1641,
      "Ã½": 1642,
      "ĠdÃµi": 1643,
      "Ġchuá»Ļt": 1644,
      "Ġphá»ıng": 1645,
      "Ġlá»ĵ": 1646,
      "Ġtá»ĵi": 1647,
      "ĠvÃłng": 1648,
      "chÃ": 1649,
      "ran": 1650,
      "ĠÄĳáº£o": 1651,
      "Ġtá»ķn": 1652,
      "Ġkhá»ķng": 1653,
      "Ġlinh": 1654,
      "įt": 1655,
      "Ġtá»Ŀ": 1656,
      "ĠÄĳÆ°Æ¡ng": 1657,
      "Ġtuyáº¿n": 1658,
      "Ġtháº£o": 1659,
      "son": 1660,
      "na": 1661,
      "Ġláº§m": 1662,
      "ĠgiÃł": 1663,
      "Ġ201": 1664,
      "ĠdÆ°á»¡ng": 1665,
      "ĠchÃ³ng": 1666,
      "ĠnÃºi": 1667,
      "áº¥c": 1668,
      "ĠquÃªn": 1669,
      "ĠÄĳÃło": 1670,
      "ĠmÃ´n": 1671,
      "Ġbá»įn": 1672,
      "Ġháº£o": 1673,
      "Ġmáº¯n": 1674,
      "Ġtráº¡i": 1675,
      "Ġtáº£ng": 1676,
      "ĠdáºŃy": 1677,
      "ĠÄĳÃ³i": 1678,
      "Ġ25": 1679,
      "Ġcar": 1680,
      "ĠÄĳiÃªn": 1681,
      "Ġláº«n": 1682,
      "Ġquáº§n": 1683,
      "Å©ng": 1684,
      "Ġmá»ģm": 1685,
      "Ġná»ķ": 1686,
      "Ġtiá»ĥu": 1687,
      "Ġá»§ng": 1688,
      "ĠtrÃ¬": 1689,
      "Ġláº¡nh": 1690,
      "ĠhÃłi": 1691,
      "Ġquá»¹": 1692,
      "ab": 1693,
      "Ġhu": 1694,
      "háº¿": 1695,
      "ĠcháºŃm": 1696,
      "Ġá»ĳng": 1697,
      "ĠhÃ£i": 1698,
      "Ġkim": 1699,
      "Ġvá»¯ng": 1700,
      "Ġhoáº£ng": 1701,
      "ĠxÆ°Æ¡ng": 1702,
      "Ġgiá»ıi": 1703,
      "Ġá»ĵ": 1704,
      "ĠtráºŃn": 1705,
      "ĠkhoÃ¡": 1706,
      "Ġchuá»Ĺi": 1707,
      "Ġjo": 1708,
      "Ġliá»ĩt": 1709,
      "Ġcá»¡": 1710,
      "Ġcháº£y": 1711,
      "ex": 1712,
      "Ġar": 1713,
      "¥m": 1714,
      "áº³ng": 1715,
      "¹a": 1716,
      "Ġchiáº¿m": 1717,
      "ĠmÃ³n": 1718,
      "ĠrÆ¡i": 1719,
      "Ġtá»ĳn": 1720,
      "st": 1721,
      "Ġam": 1722,
      "ĠtÃ¡ch": 1723,
      "Ġvá»¡": 1724,
      "¹n": 1725,
      "Ġlá»Ļ": 1726,
      "áº·m": 1727,
      "Ġká»ĭch": 1728,
      "Ġbáº£ng": 1729,
      "Ġgiáº¥c": 1730,
      "Ġsuáº¥t": 1731,
      "Ġhoáº£": 1732,
      "ĠkhÃŃch": 1733,
      "ĠsÃ³t": 1734,
      "ĠnghÃ¬n": 1735,
      "ĠtÃ´": 1736,
      "ĠdÆ°á»Ŀng": 1737,
      "ĠsÃ¡u": 1738,
      "Ġngá»«ng": 1739,
      "ĠchÃ³": 1740,
      "ĠhÃ´n": 1741,
      "ein": 1742,
      "Ġvá»Ĺ": 1743,
      "ĠmÃ£i": 1744,
      "Ġnáº¯m": 1745,
      "Ġmá»Ŀi": 1746,
      "ĠrÃºt": 1747,
      "Ġphá»ĳi": 1748,
      "Ġthá»«a": 1749,
      "ĠÄĳá»īnh": 1750,
      "ĠlÆ°Æ¡ng": 1751,
      "Ġvá»£": 1752,
      "Ġgiá»įng": 1753,
      "ĠÄĳiá»ĩu": 1754,
      "ĠvÄ©": 1755,
      "ĠÄĳÃ¨n": 1756,
      "ut": 1757,
      "Ġpr": 1758,
      "Ġtiá»ģm": 1759,
      "ĠtÃłn": 1760,
      "Ġhiá»ĥn": 1761,
      "Ġcáº§m": 1762,
      "ĠbiÃªn": 1763,
      "ĠchÃłng": 1764,
      "han": 1765,
      "Ġquáº£ng": 1766,
      "Ġ11": 1767,
      "Ġbá»ģn": 1768,
      "Ġz": 1769,
      "Ġkhoáº£n": 1770,
      "Ġsáº¡ch": 1771,
      "Ġhá»ķ": 1772,
      "Ġlá»Ĺ": 1773,
      "ill": 1774,
      "ak": 1775,
      "Ġnghá»ī": 1776,
      "ev": 1777,
      "ĠÃł": 1778,
      "Ġláº·p": 1779,
      "ĠbÃ¨": 1780,
      "Ġkhá»©": 1781,
      "ĠhÃło": 1782,
      "Ġcá»Ŀ": 1783,
      "Ġtrá»ĵng": 1784,
      "Ġ[": 1785,
      "Ġcháº¥m": 1786,
      "ow": 1787,
      "ĵi": 1788,
      "ĠÄĳáº¿": 1789,
      "Ġdáº·m": 1790,
      "Ġru": 1791,
      "ĠsÃ´ng": 1792,
      "ich": 1793,
      "ĠÆ°u": 1794,
      "ĠmÅ©": 1795,
      "Ġlá»ĳi": 1796,
      "Ġtráº§m": 1797,
      "ent": 1798,
      "Ġnghá»ģ": 1799,
      "Ġ60": 1800,
      "op": 1801,
      "áº·n": 1802,
      "ĠvÃ¢n": 1803,
      "ec": 1804,
      "Ġtháº§": 1805,
      "if": 1806,
      "ĠthÆ°á»Łng": 1807,
      "ĠthuáºŃn": 1808,
      "ĠthÆ°á»Ľc": 1809,
      "Ġbá»¥": 1810,
      "Ġnguyá»ĩn": 1811,
      "Ġtáº¯t": 1812,
      "ĠbáºŃt": 1813,
      "Ġchá»ĵng": 1814,
      "Ġnháº¡": 1815,
      "Ġong": 1816,
      "Ġsa": 1817,
      "Ġok": 1818,
      "ĠtáºŃt": 1819,
      "Ġdiá»ĩu": 1820,
      "Ġdoáº¡": 1821,
      "Ġbá»¯a": 1822,
      "ĠgiÃ³": 1823,
      "ĠsÃ¡nh": 1824,
      "Ġthuá»·": 1825,
      "ell": 1826,
      "Ġkhoáº£nh": 1827,
      "ĠthÄĥm": 1828,
      "Ġvir": 1829,
      "khÃ´ng": 1830,
      "Ġtháº£m": 1831,
      "ĠÄĳáº³ng": 1832,
      "ik": 1833,
      "ĳt": 1834,
      "ĠÄĳuá»ķi": 1835,
      "Ġná»Ĺ": 1836,
      "Ġgoo": 1837,
      "ĠhÃ¹ng": 1838,
      "ie": 1839,
      "ber": 1840,
      "Ġsh": 1841,
      "ĠtrÆ°ng": 1842,
      "Ġthá»ĭt": 1843,
      "§i": 1844,
      "Ġngáº¡i": 1845,
      "Ġváº¿t": 1846,
      "ĠkhÃ¡ng": 1847,
      "ĠkÃ©m": 1848,
      "Ġ80": 1849,
      "Ġbi": 1850,
      "Ġtáº¡": 1851,
      "Ġthiá»ĩu": 1852,
      "Ġsá»ĳt": 1853,
      "Ġgá»£i": 1854,
      "Ġbá»Ŀ": 1855,
      "Ġviá»ħn": 1856,
      "ul": 1857,
      "ĠphiÃªn": 1858,
      "oi": 1859,
      "ĠÄĳe": 1860,
      "gle": 1861,
      "ĠlÃłng": 1862,
      "ĠtrÃ²n": 1863,
      "Ġgháº¿": 1864,
      "Ġthá»Ł": 1865,
      "Ġthai": 1866,
      "ĠchÃło": 1867,
      "Ġnháº¹": 1868,
      "Ġlá»¥c": 1869,
      "Ġ''": 1870,
      "ĠcÃł": 1871,
      "ĠÄĳÄĥng": 1872,
      "ĠtÃºi": 1873,
      "Ġtan": 1874,
      "ĠÄĳoÃłn": 1875,
      "Ġvá»ı": 1876,
      "ĠngÃłi": 1877,
      "Ġsá»£i": 1878,
      "ord": 1879,
      "Ġ0": 1880,
      "ĠxoÃ¡": 1881,
      "Ġxoay": 1882,
      "ĠghÃ©p": 1883,
      "chÃºng": 1884,
      "£ng": 1885,
      "ris": 1886,
      "Ġloáº¡t": 1887,
      "ĠnÃ¢ng": 1888,
      "ĠÄĳáº±ng": 1889,
      "ĠtÃ¡n": 1890,
      "Ġgoogle": 1891,
      "est": 1892,
      "©u": 1893,
      "Ã¢n": 1894,
      "ĠlÆ°á»£c": 1895,
      "Ġtrá»ĳng": 1896,
      "Ġpháº¥n": 1897,
      "ĠkÃŃ": 1898,
      "áºŃc": 1899,
      "Ġkháº£o": 1900,
      "Ġcháº·n": 1901,
      "Ġtá»¥": 1902,
      "Ġlá»įc": 1903,
      "ĠnhÃ©": 1904,
      "Æ°Æ¡i": 1905,
      "Ġcal": 1906,
      "istan": 1907,
      "Ġad": 1908,
      "ĠbáºŃc": 1909,
      "Ġcá»©ng": 1910,
      "Ġthoáº£": 1911,
      "ĠhoÃłng": 1912,
      "ĠgiÃ¡m": 1913,
      "ĠcÄĥng": 1914,
      "one": 1915,
      "ĠphÃª": 1916,
      "Ġtá»ĭ": 1917,
      "bon": 1918,
      "man": 1919,
      "ly": 1920,
      "Ġnháº¯n": 1921,
      "Ġthuyá»ģn": 1922,
      "Ġcáº£n": 1923,
      "ĠcÃº": 1924,
      "Ġhuy": 1925,
      "di": 1926,
      "ĩt": 1927,
      "Ġcháº·t": 1928,
      "ĠtuyÃªn": 1929,
      "ĠrÃ¡c": 1930,
      "ĠlÃłnh": 1931,
      "Ġthang": 1932,
      "Ġdá»ĭ": 1933,
      "Ġkiá»ĩm": 1934,
      "ĠmÃ³c": 1935,
      "Ġnhá»±a": 1936,
      "Ġtrá»¯": 1937,
      "Ġlá»ħ": 1938,
      "eg": 1939,
      "ack": 1940,
      "co": 1941,
      "Ġláº·ng": 1942,
      "Ġkháº©u": 1943,
      "Ġhuá»ĳng": 1944,
      "Ġxá»©ng": 1945,
      "Ġmai": 1946,
      "Æ°á»¡i": 1947,
      "ĠÄĳiá»ĩp": 1948,
      "Ġháº£i": 1949,
      "ĠthÃ¹": 1950,
      "Æ°á»Ŀn": 1951,
      "ĠÄĳÃ¹a": 1952,
      "ĠÄĳá»±ng": 1953,
      "ĠtÃłng": 1954,
      "ĠtrÃło": 1955,
      "Ġhoang": 1956,
      "Ľt": 1957,
      "Ġbr": 1958,
      "Ã¡m": 1959,
      "ĠsÃºng": 1960,
      "Ġháº¯n": 1961,
      "Ġmáº¡i": 1962,
      "Ġox": 1963,
      "Ġtuá»ĩ": 1964,
      "Ġngang": 1965,
      "Ġdiá»ĩt": 1966,
      "Ġ199": 1967,
      "ĠlÃ£ng": 1968,
      "ĠkhÃŃa": 1969,
      "Ġthao": 1970,
      "ĠlÅ©": 1971,
      "Ġnhá»ĭp": 1972,
      "ĠmÃ©t": 1973,
      "Ġngáº«u": 1974,
      "¯t": 1975,
      "Ġhá»įp": 1976,
      "ĠÄĳÃ²i": 1977,
      "Ġthoáº£i": 1978,
      "ĠchÃ©p": 1979,
      "ĠÃ¡c": 1980,
      "ĠÄĳáºŃp": 1981,
      "á»ĳt": 1982,
      "ĠnhuáºŃn": 1983,
      "Ġgam": 1984,
      "Ġhiáº¿m": 1985,
      "Ġráº»": 1986,
      "ºa": 1987,
      "Ġel": 1988,
      "Ġ90": 1989,
      "la": 1990,
      "Ġis": 1991,
      "Ġxáº¡": 1992,
      "Ġtia": 1993,
      "Ġdna": 1994,
      "Ġbá»ĳi": 1995,
      "Ġ14": 1996,
      "ick": 1997,
      "Ġcáº·p": 1998,
      "Ġ70": 1999,
      "Ãłm": 2000,
      "ĠbÆ¡i": 2001,
      "Ġthá»Ŀ": 2002,
      "Ġmá»«ng": 2003,
      "ĠmÃ¹i": 2004,
      "Ġtri": 2005,
      "Ġtá»ı": 2006,
      "ĠgiáºŃn": 2007,
      "Ġkhung": 2008,
      "Ġsá»ķ": 2009,
      "ĠyÃªn": 2010,
      "vid": 2011,
      "Ġvoi": 2012,
      "az": 2013,
      "ĠÃ¡m": 2014,
      "ĠchÃ¡n": 2015,
      "Ġand": 2016,
      "pp": 2017,
      "ĠtÃ³c": 2018,
      "ĠphÃ¡n": 2019,
      "ĠÄĳam": 2020,
      "iá»ĩng": 2021,
      "Ġhuáº¥n": 2022,
      "hn": 2023,
      "ĠtháºŃn": 2024,
      "Ġmáº¡c": 2025,
      "Ġsong": 2026,
      "ian": 2027,
      "ta": 2028,
      "Ġcá»¥c": 2029,
      "ĠÄĳáº¡p": 2030,
      "Ġbá»ķ": 2031,
      "Ġ16": 2032,
      "Ġbáº£y": 2033,
      "ĠthÃ¡c": 2034,
      "ĠthÃ¡nh": 2035,
      "ĠbÃ²": 2036,
      "ĠtrÃŃch": 2037,
      "Ġrá»§i": 2038,
      "Ġ17": 2039,
      "Ġcong": 2040,
      "Ġvirus": 2041,
      "ĠhÃ¨": 2042,
      "Ġngá»įn": 2043,
      "ry": 2044,
      "Ľp": 2045,
      "Ġmiá»ĩng": 2046,
      "ĠsÄĥn": 2047,
      "¥u": 2048,
      "ĠmÆ°a": 2049,
      "Ġtháº¡ch": 2050,
      "Ġnháº±m": 2051,
      "ĠngoÃ¡i": 2052,
      "ĠÄĳáº£ng": 2053,
      "Ġtrá»©ng": 2054,
      "Ġliá»ģn": 2055,
      "Ġláº¯p": 2056,
      "Ġprot": 2057,
      "ĠmÃ¢y": 2058,
      "¹i": 2059,
      "ĠxÃ¢m": 2060,
      "Ġhá»Ĺn": 2061,
      "ĠkÃªu": 2062,
      "Ġrá»ĵ": 2063,
      "Ġmá»±c": 2064,
      "Ġ13": 2065,
      "¨m": 2066,
      "orn": 2067,
      "Ġbáº¯n": 2068,
      "Ġhiá»ĩp": 2069,
      "Ġchá»ĳi": 2070,
      "ver": 2071,
      "Ġche": 2072,
      "Ä©a": 2073,
      "ĠthuÃª": 2074,
      "Ġdá»ĳi": 2075,
      "ĠnÆ¡": 2076,
      "all": 2077,
      "Ġcu": 2078,
      "ĠtrÃłn": 2079,
      "Ġthiá»ĥu": 2080,
      "ff": 2081,
      "ĠbÃ£i": 2082,
      "Ġli": 2083,
      "don": 2084,
      "Ġtá»īnh": 2085,
      "Ġtruy": 2086,
      "Ġbiá»ĩn": 2087,
      "Ġpar": 2088,
      "ĠÄĳá»ĳng": 2089,
      "Ġmu": 2090,
      "Ġkhuyáº¿n": 2091,
      "Ġtháº¥u": 2092,
      "Ġháº¹n": 2093,
      "ĠcÃ£i": 2094,
      "Ġá»©c": 2095,
      "Ġkháº¥u": 2096,
      "Ġcá»Ļt": 2097,
      "ess": 2098,
      "ion": 2099,
      "ĠghÃ©t": 2100,
      "ĠbÃ©o": 2101,
      "),": 2102,
      "¯m": 2103,
      "Ġim": 2104,
      "Ġhuyáº¿t": 2105,
      "Ġcá»ı": 2106,
      "ĠmÃ²": 2107,
      "Ġfran": 2108,
      "ds": 2109,
      "Ġvong": 2110,
      "ob": 2111,
      "ĠchÃ¬": 2112,
      "Ġgiáº£ng": 2113,
      "....": 2114,
      "á»ĳn": 2115,
      "ĠkhÃ¡t": 2116,
      "ĠÄĳÃłi": 2117,
      "ail": 2118,
      "ĠnÃºt": 2119,
      "Ġtháº§y": 2120,
      "Ġthá»£": 2121,
      "Ġbom": 2122,
      "Ġhar": 2123,
      "Ġphiáº¿u": 2124,
      "ĠgÆ°Æ¡ng": 2125,
      "Ġcá»Ĺ": 2126,
      "ĠngÆ°á»¡ng": 2127,
      "Ġpin": 2128,
      "ĠdÃły": 2129,
      "ĠnÃ´": 2130,
      "Ġthá»ķ": 2131,
      "ĠrÆ°á»£": 2132,
      "Ġaf": 2133,
      "£t": 2134,
      "ĠmÄ©": 2135,
      "Ġjohn": 2136,
      "Ġnháº¥n": 2137,
      "Ġhá»ĵn": 2138,
      "¡n": 2139,
      "ĠtrÃ´i": 2140,
      "att": 2141,
      "ge": 2142,
      "Ġláº»": 2143,
      "ĠtÃ¡m": 2144,
      "ĠrÆ°á»£u": 2145,
      "50": 2146,
      "Ġhá»©a": 2147,
      "ĠcÃ¡m": 2148,
      "eet": 2149,
      "Ġmiáº¿ng": 2150,
      "Ġkhiáº¿p": 2151,
      "Ġ21": 2152,
      "enn": 2153,
      "ĠÄĳá»ĳt": 2154,
      "báº¡n": 2155,
      "Ġkáº¹": 2156,
      "Ġtriáº¿t": 2157,
      "Ġcháº©n": 2158,
      "ĠvÃº": 2159,
      "Ġhiv": 2160,
      "Ġly": 2161,
      "era": 2162,
      "Ġthuá»": 2163,
      ").": 2164,
      "Ġráº¯c": 2165,
      "Ġxong": 2166,
      "ĠmÃ¨o": 2167,
      "ĠlÃŃnh": 2168,
      "ĠcÃ´n": 2169,
      "ho": 2170,
      "ĠcÆ°á»Ŀng": 2171,
      "ĠrÄĥng": 2172,
      "Ġsá»¹": 2173,
      "ĠnhÃ¡": 2174,
      "Ġron": 2175,
      "Ãªm": 2176,
      "uá»ĵng": 2177,
      "ĠvÆ°á»Ŀn": 2178,
      "Ġhiáº¿n": 2179,
      "Ġchá»ĳt": 2180,
      "Ġsc": 2181,
      "Ġlá»«a": 2182,
      "ĠchÃ¡y": 2183,
      "ap": 2184,
      "Ġtw": 2185,
      "ĠtÃºc": 2186,
      "ĠtÃ³m": 2187,
      "Ġti": 2188,
      "ĠtiÃªm": 2189,
      "ĠráºŃp": 2190,
      "Ġáº¥m": 2191,
      "Ġlá»Ļn": 2192,
      "ĠtÃ¡o": 2193,
      "Ġ198": 2194,
      "ore": 2195,
      "ee": 2196,
      "Ġnan": 2197,
      "ers": 2198,
      "ook": 2199,
      "Ġmá»Ļ": 2200,
      "ĠmáºŃp": 2201,
      "ĠtrÄĥng": 2202,
      "Ġyo": 2203,
      "Ġtuá»³": 2204,
      "ĠbÃ³": 2205,
      "Ľn": 2206,
      "áº©u": 2207,
      "ĠmÅ©i": 2208,
      "ir": 2209,
      "Ġbra": 2210,
      "Ġnha": 2211,
      "ĠkhÃ³c": 2212,
      "ĠÄĳá»ĳc": 2213,
      "Ġcáº¥y": 2214,
      "ĠÄĳÄ©a": 2215,
      "Ġdá»įc": 2216,
      "Ġháº±ng": 2217,
      "Ġcá»ĳt": 2218,
      "Ġthoáº£ng": 2219,
      "Ġleo": 2220,
      "land": 2221,
      "ok": 2222,
      "Ġmáº¡o": 2223,
      "ĠtÃ²": 2224,
      "Ġngáº§m": 2225,
      "ĠÄĳáº¯t": 2226,
      "Ġthan": 2227,
      "Ġnhá»ī": 2228,
      "ĠmÃ£n": 2229,
      "ĠnÃ©m": 2230,
      "Ġbáº¡c": 2231,
      "Ġtruyá»ĩn": 2232,
      "Ġtáº¡m": 2233,
      "ce": 2234,
      "ĠlÆ°ng": 2235,
      "Ġbáº¡ch": 2236,
      "ĠÄĳÃ¡y": 2237,
      "Ġlá»ıng": 2238,
      "Æ°á»Ľt": 2239,
      "ĠbÃ¹ng": 2240,
      "Ġthiá»ĩp": 2241,
      "Ġdinh": 2242,
      "Ġsp": 2243,
      "Ġtrá»ĳn": 2244,
      "ĠhÆ°Æ¡ng": 2245,
      "Ġgá»įn": 2246,
      "khÃ¡n": 2247,
      "ĠquÃ¡n": 2248,
      "Ġgá»Ĺ": 2249,
      "ĠÃ³c": 2250,
      "ĠngÃ³n": 2251,
      "ĠÃ©p": 2252,
      "Ġ500": 2253,
      "ĵn": 2254,
      "ĠxÆ°a": 2255,
      "iá»ĩc": 2256,
      "Ġfac": 2257,
      "Ġáº£": 2258,
      "Ġkhá»ī": 2259,
      "art": 2260,
      "con": 2261,
      "Ġsá»¥p": 2262,
      "ĠmÃ¡t": 2263,
      "Ġprotein": 2264,
      "ĠÄĳua": 2265,
      "Ġva": 2266,
      "Ġthuáº§n": 2267,
      "ĠthÆ°á»£ng": 2268,
      "ĠphÃ³": 2269,
      "Ġ24": 2270,
      "ma": 2271,
      "ĠrÃło": 2272,
      "ans": 2273,
      "aw": 2274,
      "ĠÄĳáº¯n": 2275,
      "ĠkiÃªn": 2276,
      "ĠkhÃ´": 2277,
      "Ġgame": 2278,
      "be": 2279,
      "lin": 2280,
      "ps": 2281,
      "ĠtÄ©nh": 2282,
      "Ã½t": 2283,
      "Ġafg": 2284,
      "Ġnáº¥m": 2285,
      "ĠÄĳá»Ľn": 2286,
      "Ġchá»«ng": 2287,
      "Ġchris": 2288,
      "ĠbÃ£o": 2289,
      "ne": 2290,
      "Ġmiá»ģn": 2291,
      "Ġgeo": 2292,
      "ĠlÃ¢m": 2293,
      "Ġtháº©m": 2294,
      "ĠÄĳÃ³n": 2295,
      "Ġcháº¥n": 2296,
      "!\"": 2297,
      "Æ°á»£n": 2298,
      "Ã¢m": 2299,
      "ĠgÃł": 2300,
      "ĠgiÃłnh": 2301,
      "ina": 2302,
      "Ġhá»ĵng": 2303,
      "Ġláº·n": 2304,
      "Ġngu": 2305,
      "ĠhÆ°": 2306,
      "Ġchai": 2307,
      "Ġnháº¡y": 2308,
      "Ġgiam": 2309,
      "«n": 2310,
      "Ĺng": 2311,
      "ornia": 2312,
      "ya": 2313,
      "ĠmiÃªu": 2314,
      "ĠxÃ³": 2315,
      "Ġcáº¥m": 2316,
      "Ġpháº¡t": 2317,
      "lu": 2318,
      "nhá»": 2319,
      "ebook": 2320,
      "Ġthuáº¿": 2321,
      "ĠÄĳáº¿m": 2322,
      "Ġfacebook": 2323,
      "cÃ³": 2324,
      "ĠÄĳáºŃu": 2325,
      "Ġbinh": 2326,
      "Ġthá»īnh": 2327,
      "Ġgiáº¥u": 2328,
      "Ġcalif": 2329,
      "ĠkhuyÃªn": 2330,
      "he": 2331,
      "Ġnáº¥u": 2332,
      "ĠquÃª": 2333,
      "Ġphá»ķi": 2334,
      "ĠnÃ©t": 2335,
      "Ġcalifornia": 2336,
      "Ġninh": 2337,
      "Ġmo": 2338,
      "ĠquÃ¡i": 2339,
      "Ġcáº©n": 2340,
      "Ġkhá»Ľp": 2341,
      "Ġafghan": 2342,
      "Ġvinh": 2343,
      "Ġthe": 2344,
      "ĠdÃ²": 2345,
      "ĠngÃ£": 2346,
      "Ġor": 2347,
      "ÄĳÃ": 2348,
      "Ġtráº¥n": 2349,
      "Ġgene": 2350,
      "ĠgiÃły": 2351,
      "Ġlá»ĩnh": 2352,
      "ĠrÃ©t": 2353,
      "ood": 2354,
      "ĠmÃ¬": 2355,
      "Ġemail": 2356,
      "Ġlá»ĩch": 2357,
      "ĠvuÃ´ng": 2358,
      "áº©m": 2359,
      "ĠtuÃ½": 2360,
      "Ġbá»¥ng": 2361,
      "Ġlon": 2362,
      "ĠmÆ°á»Ŀi": 2363,
      "Ġtrá»Ļn": 2364,
      "Ġtráº¡m": 2365,
      "ĠdÃ£y": 2366,
      "ĠhÃłn": 2367,
      "ĠrÆ°á»¡i": 2368,
      "áº«y": 2369,
      "Ġtung": 2370,
      "Ġtiá»ĩc": 2371,
      "ada": 2372,
      "ip": 2373,
      "Ġle": 2374,
      "Ġmanh": 2375,
      "Ġkhuyáº¿t": 2376,
      "ĠcÃ¡t": 2377,
      "ve": 2378,
      "Ġ2000": 2379,
      "Ġcol": 2380,
      "Ġtv": 2381,
      "Ġvua": 2382,
      "Ġ197": 2383,
      "cÃ": 2384,
      "Ġbá»¥i": 2385,
      "Ġtuyáº¿t": 2386,
      "Ġsá»¯a": 2387,
      "Ġhoáº¡i": 2388,
      "Ġngá»±a": 2389,
      "Ġtuyá»ĥn": 2390,
      "Ġcá»±": 2391,
      "ĠgiÆ°á»Ŀng": 2392,
      "Ġá»ĵn": 2393,
      "Ġná»Ł": 2394,
      "Ġken": 2395,
      "ico": 2396,
      "Ġnga": 2397,
      "ĠdÃŃnh": 2398,
      "Ġmic": 2399,
      "á»Ļm": 2400,
      "Ġheo": 2401,
      "ĠlÃµi": 2402,
      "Ġ300": 2403,
      "ĠbuÃ´n": 2404,
      "to": 2405,
      "Ġtáº·ng": 2406,
      "hÃ£y": 2407,
      "ĠlÆ°á»Ŀng": 2408,
      "ĠthÃ¡p": 2409,
      "ĠÄĳeo": 2410,
      "Ġcá»¥m": 2411,
      "ĠhÃłm": 2412,
      "ĠlÃłn": 2413,
      "Ġhá»ĳi": 2414,
      "Ġtháº»": 2415,
      "ĠlÃ¢y": 2416,
      "Ġafghanistan": 2417,
      "ĠngÅ©": 2418,
      "ĠlÃ´ng": 2419,
      "Ġgá»¡": 2420,
      "ĠkÃ¨m": 2421,
      "ide": 2422,
      "nháº": 2423,
      "Ġdao": 2424,
      "ara": 2425,
      "Ġmuá»Ĺi": 2426,
      "Ġblo": 2427,
      "ĠxÃ³m": 2428,
      "Ġsy": 2429,
      "ĠdÃ¡ng": 2430,
      "Ġmá»ĩnh": 2431,
      "Ġtrá»¥c": 2432,
      "ama": 2433,
      "Ġtráº¯c": 2434,
      "Ġphiá»ģn": 2435,
      "Ġoxy": 2436,
      "Ġed": 2437,
      "ĠchÃ¬m": 2438,
      "Ã¬a": 2439,
      "ĠthÃŃnh": 2440,
      "ĠbáºŃn": 2441,
      "nhá»¯ng": 2442,
      "te": 2443,
      "Ġliá»ģu": 2444,
      "ĠdÆ°á»£c": 2445,
      "ĠdÃ¢m": 2446,
      "³i": 2447,
      "Ġhá»ıng": 2448,
      "Ġmá»Ŀ": 2449,
      "áº«m": 2450,
      "Ġmá»ĩt": 2451,
      "ĠthÄĥng": 2452,
      "¹m": 2453,
      "Ġnghiá»ĩn": 2454,
      "náº¿u": 2455,
      "Ġmon": 2456,
      "Ġdá»©t": 2457,
      "Æ°á»Ľp": 2458,
      "Ġ196": 2459,
      "Ġthuá»µ": 2460,
      "Ġtráº§n": 2461,
      "Ġngá»ĳc": 2462,
      "ĠnÃłng": 2463,
      "ĠgÃ£": 2464,
      "ĠlÃ²": 2465,
      "pe": 2466,
      "±n": 2467,
      "ĠchÃŃn": 2468,
      "Ġnghá»ĭch": 2469,
      "ĠkÃªnh": 2470,
      "iz": 2471,
      "ĠtrÆ°á»£t": 2472,
      "Ġlang": 2473,
      "Ġthá»į": 2474,
      "Ġnháº§": 2475,
      "Ġháº¡ng": 2476,
      "Ġmich": 2477,
      "Ġná»£": 2478,
      "Ġlog": 2479,
      "eria": 2480,
      "ĠkÃŃn": 2481,
      "Ġcá»ĳc": 2482,
      "ĠquÃ©t": 2483,
      "hing": 2484,
      "Ġlá»ģ": 2485,
      "Ġnháº¯m": 2486,
      "ĠquÃ£ng": 2487,
      "ĠgÃ³i": 2488,
      "gh": 2489,
      "ĠdÃ¡n": 2490,
      "Ġkhao": 2491,
      "Ġnháº«n": 2492,
      "zil": 2493,
      "Ġbar": 2494,
      "Ġhá»ĳ": 2495,
      "Ġab": 2496,
      "ass": 2497,
      "les": 2498,
      "Ġham": 2499,
      "io": 2500,
      "ĠsÃłn": 2501,
      "ĠlÃ£o": 2502,
      "ĠbÃ´ng": 2503,
      "Ġáº¡": 2504,
      "Ġber": 2505,
      "Ġlondon": 2506,
      "ngÆ°á»Ŀi": 2507,
      "Ġbáº¿p": 2508,
      "Ġbrazil": 2509,
      "ĠtÃŃ": 2510,
      "ĠngáºŃp": 2511,
      "da": 2512,
      "ĠdÃłn": 2513,
      "ĠkhÆ¡i": 2514,
      "Ġmá»ıi": 2515,
      "ola": 2516,
      "Ġtiáº¿c": 2517,
      "Äĳá»": 2518,
      "Ġmáº©u": 2519,
      "ĠtÃ¢n": 2520,
      "ĠquÃł": 2521,
      "ĠÃºc": 2522,
      "ĠthÃ¡m": 2523,
      "itter": 2524,
      "Ġmá»ı": 2525,
      "Ġat": 2526,
      "Ġgeor": 2527,
      "Ġgáº¥u": 2528,
      "ĠÄĳá»±c": 2529,
      "Ġvá»Ł": 2530,
      "ĠÆ¡i": 2531,
      "Ġde": 2532,
      "pt": 2533,
      "ĠbÆ¡": 2534,
      "ĠdÃ£": 2535,
      "Ġwas": 2536,
      "Ġcanada": 2537,
      "av": 2538,
      "Ġuy": 2539,
      "ĠdÃ¡m": 2540,
      "ĠchÃ¬a": 2541,
      "nháº¡c": 2542,
      "¹p": 2543,
      "Ġbe": 2544,
      "Ġxinh": 2545,
      "Ġmá»ĵi": 2546,
      "Ġkhoan": 2547,
      "ath": 2548,
      "Ġháº§m": 2549,
      "Ġcáº¥t": 2550,
      "Ġlong": 2551,
      "ĠlÆ°á»£t": 2552,
      "Ġmáº»": 2553,
      "Ġnig": 2554,
      "ĠgiÃ¡n": 2555,
      "Ġháº¹p": 2556,
      "Ġrá»Ńa": 2557,
      "ĠtÆ°Æ¡i": 2558,
      "ĠlÆ°á»Ľt": 2559,
      "Ġtá»§": 2560,
      "ĠvÃ¢y": 2561,
      "Ġdáº£i": 2562,
      "ica": 2563,
      "ti": 2564,
      "ĠbÃª": 2565,
      "Ġthá»ķi": 2566,
      "Ġtoáº£": 2567,
      "Ġcarbon": 2568,
      "dio": 2569,
      "Ġnáº£y": 2570,
      "Ġnho": 2571,
      "ĠkhÃ´n": 2572,
      "ĠthÃ³i": 2573,
      "ĠbÃºt": 2574,
      "£m": 2575,
      "Ġtáº¯m": 2576,
      "Ġthiá»ĩt": 2577,
      "ĠphÃ¡i": 2578,
      "Ġtwitter": 2579,
      "ĠcáºŃy": 2580,
      "ĠchÄĥng": 2581,
      "Ġsá»ĳc": 2582,
      "Ġfeet": 2583,
      "Ġruá»Ļt": 2584,
      "ĠdÅ©ng": 2585,
      "Ġláº¡m": 2586,
      "Ġcamera": 2587,
      "Ġblog": 2588,
      "táº¡i": 2589,
      "Ġtáº§n": 2590,
      "Ġngon": 2591,
      "Ġpet": 2592,
      "Ġngá»±c": 2593,
      "Ġ400": 2594,
      "ĠlÃ£m": 2595,
      "Ġchar": 2596,
      "ĠphÃº": 2597,
      "Ġthuáº«n": 2598,
      "hington": 2599,
      "ĠdÆ°": 2600,
      "Ġbá»Ľt": 2601,
      "ĠrÃ£i": 2602,
      "Ġthá»ĭnh": 2603,
      "ka": 2604,
      "Ġláº¥p": 2605,
      "Ġman": 2606,
      "Ġbon": 2607,
      "Ġcá»Łi": 2608,
      "ĠthÃ¹ng": 2609,
      "ĠmÃły": 2610,
      "und": 2611,
      "ĠthÆ°a": 2612,
      "ĠgiÆ¡": 2613,
      "Ġpha": 2614,
      "ĠquÃ¡t": 2615,
      "ĠÄĳoan": 2616,
      "ĠgÃµ": 2617,
      "Ġkáº¹t": 2618,
      "ox": 2619,
      "yl": 2620,
      "ĠcÆ°á»Ľp": 2621,
      "Ġsá»©": 2622,
      "ĠlÃ¹i": 2623,
      "Ġthua": 2624,
      "de": 2625,
      "ria": 2626,
      "Ġváº¯c": 2627,
      "Ġwashington": 2628,
      "ca": 2629,
      "tin": 2630,
      "ĠtrÆ°a": 2631,
      "Ġpau": 2632,
      "Ã¡p": 2633,
      "Ġruá»ĵi": 2634,
      "lÃłm": 2635,
      "ts": 2636,
      "Ġen": 2637,
      "Ġvan": 2638,
      "ĠnhÃ£n": 2639,
      "Ġláº¡p": 2640,
      "ite": 2641,
      "ĠÆ°a": 2642,
      "ĠlÄĥn": 2643,
      "Ġbro": 2644,
      "ĠnhÅ©ng": 2645,
      "ĠchÃ¢m": 2646,
      "Ġranh": 2647,
      "wood": 2648,
      "á»±": 2649,
      "Ġná»ĳt": 2650,
      "ĠÄĳÃ¢m": 2651,
      "áºŃm": 2652,
      "Ġngá»«a": 2653,
      "ĩn": 2654,
      "Ġne": 2655,
      "Ġhang": 2656,
      "ĠlÃ´i": 2657,
      "anda": 2658,
      "Ġang": 2659,
      "Ġkiá»ĩt": 2660,
      "ĠthÃ´": 2661,
      "ĠmÃ¢u": 2662,
      "Ġjam": 2663,
      "stein": 2664,
      "Ġadn": 2665,
      "Ġtha": 2666,
      "Ã³i": 2667,
      "Ġká»ĭp": 2668,
      "Ġcac": 2669,
      "ler": 2670,
      "ĠÆ°": 2671,
      "Ġmáº¡n": 2672,
      "Ġdan": 2673,
      "Ġ1000": 2674,
      "per": 2675,
      "á»ĳm": 2676,
      "ĠhÃ²": 2677,
      "ash": 2678,
      "ley": 2679,
      "Ġráº½": 2680,
      "ĠsÆ¡n": 2681,
      "Ġsung": 2682,
      "Ġcom": 2683,
      "Ġira": 2684,
      "Ġbá»Ļt": 2685,
      "ĠhÃ²n": 2686,
      "ĠÄĳÃ¡o": 2687,
      "utu": 2688,
      "ba": 2689,
      "Ġbl": 2690,
      "Ġbo": 2691,
      "Ġdar": 2692,
      "Ġas": 2693,
      "Ġfranc": 2694,
      "bi": 2695,
      "ham": 2696,
      "Ġau": 2697,
      "Ġbos": 2698,
      "ain": 2699,
      "exico": 2700,
      "Ġnáº¯ng": 2701,
      "Ġkháº³ng": 2702,
      "Ġsay": 2703,
      "Ġnháº§m": 2704,
      "ĠlÆ°á»¡ng": 2705,
      "Ġhá»ĩt": 2706,
      "Ġmexico": 2707,
      "Ġtháº±ng": 2708,
      "Ġpháº³ng": 2709,
      "Ġmá»ĵ": 2710,
      "Ġdavid": 2711,
      "ke": 2712,
      "ĠtÆ¡": 2713,
      "Ġ150": 2714,
      "Ġnigeria": 2715,
      "Ġbong": 2716,
      "ĠtÃ´ng": 2717,
      "ĠrÃ´": 2718,
      "ĠgiÃ£n": 2719,
      "Ġmáº¥u": 2720,
      "Ġmil": 2721,
      "Ġdá»įn": 2722,
      "Ġkm": 2723,
      "ĠtrÃº": 2724,
      "Ġngoan": 2725,
      "ort": 2726,
      "ros": 2727,
      "Ġkenya": 2728,
      "Ġtreo": 2729,
      "Ġpo": 2730,
      "ĠthÃ´n": 2731,
      "ĠphÃ¬": 2732,
      "rael": 2733,
      "me": 2734,
      "ĠcÆ°á»¡ng": 2735,
      "ĠÄĳáº»": 2736,
      "Ġvang": 2737,
      "Ġráº¯n": 2738,
      "Ġchá»¥c": 2739,
      "ana": 2740,
      "Ġrá»ħ": 2741,
      "ford": 2742,
      "ram": 2743,
      "ĠvÄ©nh": 2744,
      "Ġbá»įc": 2745,
      "ĠthÃ¡o": 2746,
      "vÃ": 2747,
      "ĠvÆ°Æ¡ng": 2748,
      "Ġsáº¯t": 2749,
      "erson": 2750,
      "Ġngá»įt": 2751,
      "ĠtuÃ¢n": 2752,
      "the": 2753,
      "Ġisrael": 2754,
      "ĠÄĳáº¡n": 2755,
      "Ġrung": 2756,
      "Ã¡y": 2757,
      "ĠmÃłng": 2758,
      "bur": 2759,
      "ĠÄĳai": 2760,
      "Ġmen": 2761,
      "Ġmit": 2762,
      "Ġgu": 2763,
      "ĠÄĳá»Ľi": 2764,
      "Ġcá»¥t": 2765,
      "Ġmc": 2766,
      "ĠhoÃłi": 2767,
      "ĠÄĳá»ĵi": 2768,
      "ĠÄĳá»ĭch": 2769,
      "asa": 2770,
      "Ġiran": 2771,
      "ron": 2772,
      "ĠcÆ°á»Ľi": 2773,
      "ĠrÅ©": 2774,
      "Ġdáº¯t": 2775,
      "Ġchá»£": 2776,
      "isco": 2777,
      "chá»": 2778,
      "ft": 2779,
      "Ġnat": 2780,
      "Ġváº£i": 2781,
      "Æ°Æ¡n": 2782,
      "Ġsl": 2783,
      "Ġtháº¯c": 2784,
      "Ġbá»į": 2785,
      "má»Ļt": 2786,
      "Ġna": 2787,
      "Ġváº¹": 2788,
      "Ġná»į": 2789,
      "Ġje": 2790,
      "Ġfl": 2791,
      "ren": 2792,
      "Ġnhá»Ł": 2793,
      "ĠquÃŃ": 2794,
      "azon": 2795,
      "Ġcuá»Ļn": 2796,
      "Ġcl": 2797,
      "Ġngáº¯m": 2798,
      "Ġ35": 2799,
      "Ġstev": 2800,
      "Ġmuá»Ļn": 2801,
      "Ġlin": 2802,
      "ĠhÆ°á»Ľc": 2803,
      "Ã¡o": 2804,
      "ĠtrÃ¢n": 2805,
      "ĠlÃ¡t": 2806,
      "Ġbill": 2807,
      "ĠchÃ´n": 2808,
      "ĠtÆ°á»Ľng": 2809,
      "Ġchá»Ł": 2810,
      "Ġmá»ıng": 2811,
      "Ġaids": 2812,
      "ith": 2813,
      "video": 2814,
      "ct": 2815,
      "Ġnon": 2816,
      "Ġmáº£ng": 2817,
      "Ġbáº¯p": 2818,
      "ere": 2819,
      "Ġbá»ĳt": 2820,
      "ger": 2821,
      "ud": 2822,
      "Ġcáº¡n": 2823,
      "Ġgo": 2824,
      "á»Ļp": 2825,
      "Ġamazon": 2826,
      "Ġcá»±u": 2827,
      "Ġwal": 2828,
      "Ġ75": 2829,
      "Ġiraq": 2830,
      "Ġá»ĳc": 2831,
      "ĠÄĳuÃ´i": 2832,
      "ĠgÃ¡nh": 2833,
      "Ġpal": 2834,
      "Ġkhiáº¿m": 2835,
      "ĠhÃ©t": 2836,
      "ĠvÃ²i": 2837,
      "iss": 2838,
      "gi": 2839,
      "ĠnÆ°á»Ľng": 2840,
      "Ġgre": 2841,
      "Ġtam": 2842,
      "Ġcr": 2843,
      "Ġsáº¡n": 2844,
      "ĠÄĳá»£t": 2845,
      "Ġcá»«u": 2846,
      "ice": 2847,
      "Ġeb": 2848,
      "ĠbuÃ½t": 2849,
      "ĠcÃºm": 2850,
      "Ġmal": 2851,
      "ĠsÃ´i": 2852,
      "ky": 2853,
      "Ġsm": 2854,
      "Ġcacbon": 2855,
      "Ġus": 2856,
      "ĠláºŃt": 2857,
      "ĠnhÃłng": 2858,
      "Ġnháº·": 2859,
      "ĠthoÃ¡i": 2860,
      "ĠbÃ¡m": 2861,
      "áº±n": 2862,
      "Ġrau": 2863,
      "Ġquyáº¿n": 2864,
      "lad": 2865,
      "Ġtrá»Ļm": 2866,
      "Ġga": 2867,
      "ĠchÆ°á»Ľc": 2868,
      "Ġháº¡ch": 2869,
      "Ġvay": 2870,
      "Ġmáº§m": 2871,
      "Ġgh": 2872,
      "áº¿ch": 2873,
      "Ġ22": 2874,
      "Ġpaul": 2875,
      "vi": 2876,
      "Ġtáº£o": 2877,
      "Ġcuá»ĵng": 2878,
      "ĠvÆ°Æ¡n": 2879,
      "Ġgan": 2880,
      "Ġ45": 2881,
      "ate": 2882,
      "Ġalex": 2883,
      "dp": 2884,
      "Ġbia": 2885,
      "Ġgáº¡ch": 2886,
      "ĠhÆ°u": 2887,
      "Ġein": 2888,
      "ney": 2889,
      "ĠthÃ¢m": 2890,
      "Ġwil": 2891,
      "Ġangel": 2892,
      "utube": 2893,
      "Ġon": 2894,
      "ĠsÆ°u": 2895,
      "Ġyoutube": 2896,
      "Ġnháº·t": 2897,
      "oc": 2898,
      "tháº": 2899,
      "win": 2900,
      "Ġben": 2901,
      "Ġgdp": 2902,
      "ĠkhÃ´i": 2903,
      "Ġlos": 2904,
      "phone": 2905,
      "Ġhung": 2906,
      "Ġpl": 2907,
      "Ġrich": 2908,
      "ĠÄĳiÃªu": 2909,
      "ĠquyÃªn": 2910,
      "ĠnhÃ¡nh": 2911,
      "ĠbÆ¡m": 2912,
      "Ġeinstein": 2913,
      "bia": 2914,
      "ĠÄĳÃł": 2915,
      "Ġhen": 2916,
      "ĠchÃºc": 2917,
      "Ġmá»ī": 2918,
      "sá»±": 2919,
      "ĠtrÃł": 2920,
      "Ġ23": 2921,
      "iel": 2922,
      "mo": 2923,
      "thá»": 2924,
      "Ġbáº©n": 2925,
      "Ġsil": 2926,
      "ĠkhÃºc": 2927,
      "Ġmá»įc": 2928,
      "Ġvá»ĭnh": 2929,
      "Ġof": 2930,
      "Ġcá»ķng": 2931,
      "bo": 2932,
      "Ġno": 2933,
      "Ġven": 2934,
      "ĠtÃŃm": 2935,
      "ĠhÃ£ng": 2936,
      "áº»o": 2937,
      "Ġtháº§m": 2938,
      "Ġá»ĳm": 2939,
      "ĠtráºŃt": 2940,
      "Ġnhá»ĩn": 2941,
      "Ġlá»Ŀ": 2942,
      "á»ĵng": 2943,
      "ĠĠ": 2944,
      "Ġer": 2945,
      "ĠnÃ¡t": 2946,
      "Ġser": 2947,
      "Ġduyá»ĩt": 2948,
      "Ġmá»ķ": 2949,
      "Ġcháº£": 2950,
      "Ġtá»±a": 2951,
      "ago": 2952,
      "Ġcai": 2953,
      "Ġhe": 2954,
      "Ġnhiáº¿p": 2955,
      "Ġdá»ĳc": 2956,
      "ĠxÃ¡m": 2957,
      "Ġhol": 2958,
      "ins": 2959,
      "ÄĳÃ¢y": 2960,
      "Ġcáº¯m": 2961,
      "ĠÄĳÃłm": 2962,
      "ĠlÅ©ng": 2963,
      "ĠmÃ²n": 2964,
      "Ġros": 2965,
      "Ġhuynh": 2966,
      "Ġet": 2967,
      "Ġpro": 2968,
      "ĠÄĳá»Ĺ": 2969,
      "Ġviá»ĩt": 2970,
      "ĠnÃ©n": 2971,
      "are": 2972,
      "Ġ99": 2973,
      "Ġgeorge": 2974,
      "cÃ¡i": 2975,
      "nÃły": 2976,
      "¥ng": 2977,
      "Ġse": 2978,
      "ĠrÃ¡p": 2979,
      "Ġqui": 2980,
      "ĠÃ´i": 2981,
      "Ġtá»±u": 2982,
      "ens": 2983,
      "ile": 2984,
      "edia": 2985,
      "xit": 2986,
      "ĠnÃªu": 2987,
      "Ġsam": 2988,
      "Ġthung": 2989,
      "Ġ2008": 2990,
      "Ġlogic": 2991,
      "²m": 2992,
      "Ġhuyá»ģn": 2993,
      "Ġdá»Ļi": 2994,
      "ĠkhÃ³i": 2995,
      "30": 2996,
      "µng": 2997,
      "Ġbáº¥y": 2998,
      "Ġdáº¡o": 2999,
      "ĠhÃŃt": 3000,
      "ĠÄĳá»ģn": 3001,
      "Ġnghiá»ĩt": 3002,
      "Ġá»«": 3003,
      "Ġharv": 3004,
      "Ġváº¹n": 3005,
      "by": 3006,
      "line": 3007,
      "van": 3008,
      "âĢ": 3009,
      "ĠâĢ": 3010,
      "Ġnasa": 3011,
      "ĠvÃ¡n": 3012,
      "Ġcá»ĳi": 3013,
      "ĠhÃ´i": 3014,
      "ĠâĢĵ": 3015,
      "Ġuá»·": 3016,
      "Ġváº¡ch": 3017,
      "ĠlÃ¡nh": 3018,
      "Ġhack": 3019,
      "Ġfrancisco": 3020,
      "ĠÄĳan": 3021,
      "ĠchÄĥn": 3022,
      "Ġapp": 3023,
      "Ġ194": 3024,
      "ªnh": 3025,
      "ĠlÆ¡": 3026,
      "ĠkhiÃªu": 3027,
      "ĠlÃ¹ng": 3028,
      "ĠxÃŃu": 3029,
      "Ġju": 3030,
      "ose": 3031,
      "Ġsw": 3032,
      "Ġgá»ĳi": 3033,
      "ĠxÄĥng": 3034,
      "ĠhÃ£m": 3035,
      "Ġtom": 3036,
      "iá»ħu": 3037,
      "ÄĳÆ°á»£c": 3038,
      "Ġ2010": 3039,
      "......": 3040,
      "ress": 3041,
      "Ã©": 3042,
      "Ġ000": 3043,
      "Ġkhuy": 3044,
      "ĠxÃ´": 3045,
      "ĠthÃ©p": 3046,
      "ĠxÃŃch": 3047,
      "Ġsoáº¡n": 3048,
      "do": 3049,
      "sa": 3050,
      "ĠÄĳáº½": 3051,
      "Ġcá»ĳng": 3052,
      "Ġphun": 3053,
      "ert": 3054,
      "ĠmÃºa": 3055,
      "ĠghÃª": 3056,
      "tron": 3057,
      "ael": 3058,
      "Ġgal": 3059,
      "Ġpm": 3060,
      "Ġre": 3061,
      "ony": 3062,
      "Ġsyria": 3063,
      "Ġcáº¯p": 3064,
      "Ġpak": 3065,
      "Ġgiá»įt": 3066,
      "ast": 3067,
      "Ġnano": 3068,
      "20": 3069,
      "cÃ´": 3070,
      "Ġlau": 3071,
      "Ġmá»Ļng": 3072,
      "Ġsi": 3073,
      "ish": 3074,
      "Ġwik": 3075,
      "Ġob": 3076,
      "Ġbal": 3077,
      "Ġbus": 3078,
      "ĠkhoÃ¡i": 3079,
      "ĠphÃŃm": 3080,
      "iáº¿c": 3081,
      "Ġ27": 3082,
      "ĠgiÃ¡p": 3083,
      "lip": 3084,
      "Ġjames": 3085,
      "lan": 3086,
      "ĠÄĳáº¡c": 3087,
      "Ġlen": 3088,
      "Ġmi": 3089,
      "Ġtrá»«u": 3090,
      "Å©i": 3091,
      "ike": 3092,
      "Ġpakistan": 3093,
      "Ġtháº¯t": 3094,
      "Ġbá»ĵ": 3095,
      "ino": 3096,
      "rop": 3097,
      "Ġparis": 3098,
      "heim": 3099,
      "Ġvá»©t": 3100,
      "ÄĳÃ³": 3101,
      "Ġrichard": 3102,
      "Ã£n": 3103,
      "Ġnáº£n": 3104,
      "Ġluá»": 3105,
      "Ġher": 3106,
      "ind": 3107,
      "ĠvÃ©": 3108,
      "Ġac": 3109,
      "Ġboston": 3110,
      "Ġslide": 3111,
      "ĠcÆ°Æ¡ng": 3112,
      "Ġgol": 3113,
      "ĠkhiÃªm": 3114,
      "Ġquá»·": 3115,
      "ĠtÃ´m": 3116,
      "Ġharvard": 3117,
      "po": 3118,
      "ĠdÆ¡i": 3119,
      "Ġlá»¡": 3120,
      "ity": 3121,
      "Äĳiá»ģu": 3122,
      "igh": 3123,
      "vÃ¢ng": 3124,
      "den": 3125,
      "nÃ³": 3126,
      "rist": 3127,
      "ĠÃ¡i": 3128,
      "ĠbÆ°á»Ľ": 3129,
      "Ġchá»£t": 3130,
      "Ġlá»ĵng": 3131,
      "Ġbá»Ĺng": 3132,
      "Ġná»¥": 3133,
      "Ġkháº©n": 3134,
      "lywood": 3135,
      "Ġscot": 3136,
      "cÃ¡c": 3137,
      "ĠmÆ°á»£n": 3138,
      "Ġlá»£n": 3139,
      "ĠxÃ´i": 3140,
      "ala": 3141,
      "Ġwh": 3142,
      "Ġvá»¥n": 3143,
      "Ġii": 3144,
      "Ġmary": 3145,
      "ĠgÅ©i": 3146,
      "Ġray": 3147,
      "ĠxÃł": 3148,
      "Ġcháº½": 3149,
      "ĠsÃºc": 3150,
      "Ġchua": 3151,
      "Ġxá»©": 3152,
      "Ġmark": 3153,
      "Ġobama": 3154,
      "mas": 3155,
      "sh": 3156,
      "Ġtiá»ħn": 3157,
      "Ġdá»Ł": 3158,
      "ĠgiáºŃt": 3159,
      "ĠviÃªm": 3160,
      "Ġq": 3161,
      "ĠÄĳáºŃm": 3162,
      "Ġki": 3163,
      "ĠphÃ¡c": 3164,
      "Ġtrá»«ng": 3165,
      "Ġ2009": 3166,
      "Ġnháº¡t": 3167,
      "za": 3168,
      "Ã¡c": 3169,
      "itan": 3170,
      "Ġoh": 3171,
      "Ġhyd": 3172,
      "Ġtáº¡ng": 3173,
      "Ġkáº¹o": 3174,
      "heimer": 3175,
      "ban": 3176,
      "dy": 3177,
      "Ġáº¥u": 3178,
      "ĠvÆ°á»£ng": 3179,
      "ĠbÃ¬a": 3180,
      "Ġsch": 3181,
      "ĠchuÃ´ng": 3182,
      "ĠÃ´m": 3183,
      "Ġalz": 3184,
      "Ġelec": 3185,
      "má»": 3186,
      "Ġáº©m": 3187,
      "Ġbá»ĳc": 3188,
      "Ġtao": 3189,
      "Ġbá»Ļi": 3190,
      "ĠluÃ¢n": 3191,
      "Ġanderson": 3192,
      "Ġcharles": 3193,
      "Ġangeles": 3194,
      "thÃ": 3195,
      "ward": 3196,
      "Ġdáº»o": 3197,
      "ĠchÃł": 3198,
      "Ġhá»¥t": 3199,
      "Ġcá»§ng": 3200,
      "Ġradio": 3201,
      "ĠhoÃ£n": 3202,
      "ela": 3203,
      "Ġalzheimer": 3204,
      "bb": 3205,
      "ll": 3206,
      "Ġlat": 3207,
      "Ġngáº«m": 3208,
      "Ġchic": 3209,
      "Ġná»ģ": 3210,
      "ĠgÃ£y": 3211,
      "Ġ600": 3212,
      "iano": 3213,
      "Ġfrank": 3214,
      "mon": 3215,
      "ĠtrÃ¡n": 3216,
      "ĠkhÃ©o": 3217,
      "Ġnhá»ĭ": 3218,
      "Ġpho": 3219,
      "ĠrÃ£": 3220,
      "Ġchicago": 3221,
      "ĠlÄĥng": 3222,
      "Ġmáº¿n": 3223,
      "Ġmá»Ļc": 3224,
      "Ġtriá»ĩt": 3225,
      "ĠÄĳá»ĩ": 3226,
      "ĠbÃ¡ch": 3227,
      "Ġsteve": 3228,
      "Ġes": 3229,
      "ĠmÃ³ng": 3230,
      "Ġsar": 3231,
      "Ġngháº": 3232,
      "Ġrw": 3233,
      "Ġrá»Ĺng": 3234,
      "ation": 3235,
      "Ġiphone": 3236,
      "Ġláº¯c": 3237,
      "Ġmet": 3238,
      "ĠbÃ³c": 3239,
      "Ġhiáº¿p": 3240,
      "Ġná»ĵng": 3241,
      "ĠgiÃ¡ng": 3242,
      "icon": 3243,
      "Ġhá»ķng": 3244,
      "Ġdarwin": 3245,
      "br": 3246,
      "ner": 3247,
      "ĳc": 3248,
      "ĠlÆ°á»¡i": 3249,
      "Ġngá»«": 3250,
      "Ġaxit": 3251,
      "Ġmichael": 3252,
      "ach": 3253,
      "Ġte": 3254,
      "ĠtÄĥm": 3255,
      "ĠngÆ°ng": 3256,
      "Ġdá»ĭp": 3257,
      "ale": 3258,
      "Ġxá»ī": 3259,
      "Ġ250": 3260,
      "ĠnhÄ©": 3261,
      "ug": 3262,
      "ĠcÃłi": 3263,
      "Ġnor": 3264,
      "Ġmá»ĳc": 3265,
      "Ġsá»į": 3266,
      "ĠphiÃªu": 3267,
      "Ġ36": 3268,
      "Ġstu": 3269,
      "Ġlá»ģu": 3270,
      "Ġebola": 3271,
      "se": 3272,
      "wn": 3273,
      "Ġtiá»ĩm": 3274,
      "Ġcent": 3275,
      "ami": 3276,
      "ander": 3277,
      "Ġpark": 3278,
      ".'": 3279,
      "vÃł": 3280,
      "ĠmÆ°Æ¡i": 3281,
      "Ġtriá»ģu": 3282,
      "Ġgom": 3283,
      "Ġpi": 3284,
      "ĠnÃłn": 3285,
      "Ġngá»Ľ": 3286,
      "esh": 3287,
      "Ġxoáº¯n": 3288,
      "Ġwebs": 3289,
      "car": 3290,
      "§a": 3291,
      "Ġbáº¥m": 3292,
      "Ġngá»Ļt": 3293,
      "Ġsáº¯m": 3294,
      "ĠlÃ¢n": 3295,
      "ĠkhoÃ¡ng": 3296,
      "Ġthomas": 3297,
      "Ġ65": 3298,
      "Ġonline": 3299,
      "Ġluá»¹": 3300,
      "Ġelectron": 3301,
      "Ġun": 3302,
      "Ġcanh": 3303,
      "Ġngáº©n": 3304,
      "ĠhÃ³c": 3305,
      "ĠphÆ¡i": 3306,
      "Ġhaiti": 3307,
      "Ġper": 3308,
      "Ġphe": 3309,
      "Ġluá»ĵng": 3310,
      "ĠxuÃ¢n": 3311,
      "ett": 3312,
      "tháº¿": 3313,
      "Ġváº£": 3314,
      "ĠmÆ°u": 3315,
      "ĠÄĳÃºc": 3316,
      "Ġtá»ĭch": 3317,
      "ĠÄĳá»Ļn": 3318,
      "ary": 3319,
      "ĠrÃ¨n": 3320,
      "Ġ1980": 3321,
      "mer": 3322,
      "Ġbáº»": 3323,
      "Ġbig": 3324,
      "Ġhaw": 3325,
      "Ġpol": 3326,
      "ĠxÆ°á»Łng": 3327,
      "Ġ26": 3328,
      "eland": 3329,
      "ĠkÃ¬a": 3330,
      "khi": 3331,
      "pr": 3332,
      "Ġkem": 3333,
      "Ġvá»Ŀ": 3334,
      "Ġchuyá»ģn": 3335,
      "Ġchrist": 3336,
      "Ġquáº·c": 3337,
      "Ġtimes": 3338,
      "Ġflor": 3339,
      "cháº": 3340,
      "xin": 3341,
      "Ġme": 3342,
      "Ġmuá»ĳi": 3343,
      "Ġke": 3344,
      "Ġdon": 3345,
      "Ġdá»Ĺ": 3346,
      "ĠsÃ¡o": 3347,
      "ald": 3348,
      "ust": 3349,
      "Ġ195": 3350,
      "Ġ2007": 3351,
      "gg": 3352,
      "og": 3353,
      "Ġtex": 3354,
      "Ġváº¡n": 3355,
      "áº¡m": 3356,
      "Ġnguá»": 3357,
      "Ġpat": 3358,
      "ĠdÃ¬": 3359,
      "Ġop": 3360,
      "uss": 3361,
      "Ġstress": 3362,
      "ĠxoÃ¡y": 3363,
      "Ġapple": 3364,
      "Ġkhuynh": 3365,
      "Ġtuá»·": 3366,
      "ĠÄĳuá»ĳi": 3367,
      "Ġbur": 3368,
      "Ġbáº«y": 3369,
      "ĠlÃ´": 3370,
      "ect": 3371,
      "uk": 3372,
      "Ġceo": 3373,
      "nhÆ°ng": 3374,
      "Ġtháº¥m": 3375,
      "Ġká»ĩ": 3376,
      "Ġjon": 3377,
      "Ġeu": 3378,
      "Ġsilicon": 3379,
      "Ġhydro": 3380,
      "ĠcÆ°á»£c": 3381,
      "Ġvá»Ļi": 3382,
      "Ġlas": 3383,
      "ĠbÄĥn": 3384,
      "Ġsah": 3385,
      "ĠngÆ°Æ¡i": 3386,
      "Ġpiano": 3387,
      "Ġráº¡n": 3388,
      "Ġráº¡p": 3389,
      "Ġnháº¥p": 3390,
      "Ġháº»": 3391,
      "ĠháºŃn": 3392,
      "ĠxÃŃ": 3393,
      "ĠÄĳoáº¡t": 3394,
      "bert": 3395,
      "cá»": 3396,
      "Ġbá»±c": 3397,
      "ĠkhoÄĥn": 3398,
      "ipedia": 3399,
      "ight": 3400,
      "Ġwebsite": 3401,
      "Ġtexas": 3402,
      "ov": 3403,
      "tá»": 3404,
      "váºŃy": 3405,
      "we": 3406,
      "Ġnob": 3407,
      "Ġlam": 3408,
      "ĠphÃ´ng": 3409,
      "Ġbá»ĥ": 3410,
      "Ġwar": 3411,
      "máº¹": 3412,
      "Ńng": 3413,
      "Ġcay": 3414,
      "Ġmy": 3415,
      "Ġhel": 3416,
      "ĠchÃªnh": 3417,
      "Ġxáº¿": 3418,
      "Ġchá»įc": 3419,
      "ĠcÃ¡p": 3420,
      "Ġinch": 3421,
      "ida": 3422,
      "Ġuá»ĳn": 3423,
      "Ġgra": 3424,
      "Ġnhá»§": 3425,
      "Ġtháº³m": 3426,
      "Ġcháº±m": 3427,
      "Ġ\".": 3428,
      "ĠnhÃłm": 3429,
      "ĠsÃ©t": 3430,
      "ester": 3431,
      "Ġag": 3432,
      "oth": 3433,
      "ĠmÃ£nh": 3434,
      "Ġgreen": 3435,
      "Ġwikipedia": 3436,
      "Ġcm": 3437,
      "ĠrÃ¬a": 3438,
      "ĠÄĳÃ£i": 3439,
      "ĠnghiÃªng": 3440,
      "ane": 3441,
      "Ġtrá»ħ": 3442,
      "Ġlui": 3443,
      "Ġrá»ī": 3444,
      "oster": 3445,
      "umb": 3446,
      "Ġmont": 3447,
      "Äĳá»«ng": 3448,
      "Ġhollywood": 3449,
      "mp": 3450,
      "xi": 3451,
      "Ġpan": 3452,
      "ĠxÃ¡ch": 3453,
      "Ġngá»¥c": 3454,
      "ĠgÃ¡c": 3455,
      "Ġ[\"": 3456,
      "Ġ1970": 3457,
      "uck": 3458,
      "Ġtáº©y": 3459,
      "ĠtrÃ¡ng": 3460,
      "Ġkhan": 3461,
      "Ġsoi": 3462,
      "acc": 3463,
      "Ġ2015": 3464,
      "Ġwilli": 3465,
      "pa": 3466,
      "sao": 3467,
      "Ġváº¯ng": 3468,
      "Ġbg": 3469,
      "Ġgps": 3470,
      "ĠÄĳÃ¨": 3471,
      "ĠhÆ°ng": 3472,
      "Ġrun": 3473,
      "Ġtá»Ł": 3474,
      "inc": 3475,
      "Ġrock": 3476,
      "Ġrobert": 3477,
      "tháºŃt": 3478,
      "ld": 3479,
      "ĠÄĳinh": 3480,
      "ĠlÃª": 3481,
      "Ġgr": 3482,
      "Ġdá»ĵn": 3483,
      "amin": 3484,
      "Ġ32": 3485,
      "Ġstan": 3486,
      "osh": 3487,
      "Ġmartin": 3488,
      "Ġmicros": 3489,
      "Ġ1960": 3490,
      "oh": 3491,
      "Ġmad": 3492,
      "Ġrá»Ļn": 3493,
      "Ġxá»Ļn": 3494,
      "ĠpháºŃt": 3495,
      "ĠlÃºa": 3496,
      "ĠrÃ¹a": 3497,
      "age": 3498,
      "Ġdá»ĭu": 3499,
      "ĠbÃ³p": 3500,
      "ĠbÆ°á»Ľm": 3501,
      "Ġlá»Ļt": 3502,
      "ĠnhÆ°á»Ŀng": 3503,
      "Ġque": 3504,
      "ĠÃ¢n": 3505,
      "ĠlÃ©o": 3506,
      "ĠtrÃ¹m": 3507,
      "ĠnÃ¢u": 3508,
      "ari": 3509,
      "ĠthoÃ¡ng": 3510,
      "ates": 3511,
      "Ġchip": 3512,
      "Ġex": 3513,
      "agen": 3514,
      "Ġnobel": 3515,
      "oph": 3516,
      "Ġni": 3517,
      "Ġnáº¡p": 3518,
      "ĠsÆ°á»Ľng": 3519,
      "Ġtre": 3520,
      "Ġngá»Ļ": 3521,
      "ĠgáºŃy": 3522,
      "Ġpe": 3523,
      "Ġdai": 3524,
      "ĠÄĳá»¥ng": 3525,
      "Ġtrá»įn": 3526,
      "ĠgÃ¬n": 3527,
      "Ġtá»ĳng": 3528,
      "Ġwor": 3529,
      "ĠÄĳá»ĳm": 3530,
      "Ġtá»Łm": 3531,
      "gen": 3532,
      "oft": 3533,
      "¡o": 3534,
      "ĠÄĳiá»ģn": 3535,
      "Ġleg": 3536,
      "ĠngÆ°": 3537,
      "Ġdáº¹p": 3538,
      "Ġdiá»ħu": 3539,
      "Ġcá»į": 3540,
      "Ġcáº£ng": 3541,
      "Ġjim": 3542,
      "ace": 3543,
      "opia": 3544,
      "Ġváº¥t": 3545,
      "Ġsand": 3546,
      "Ġtháº¯n": 3547,
      "ĠquáºŃn": 3548,
      "Ġkhen": 3549,
      "Ġká»ģ": 3550,
      "Æ°á»Łi": 3551,
      "Ġfor": 3552,
      "Ġjeff": 3553,
      "mm": 3554,
      "nhÃ": 3555,
      "rus": 3556,
      "Ġváº§n": 3557,
      "Ġbit": 3558,
      "Ġbáº§y": 3559,
      "Ġking": 3560,
      "Ġsal": 3561,
      "Ġghan": 3562,
      "Ġred": 3563,
      "ĠdáºŃp": 3564,
      "ĠthiÃªng": 3565,
      "ĠnhÃ³c": 3566,
      "ĠtrÃºng": 3567,
      "Ġ28": 3568,
      "Ġos": 3569,
      "ĠkÃ¬m": 3570,
      "idge": 3571,
      "ure": 3572,
      "Ġcarol": 3573,
      "Ġhacker": 3574,
      "Ġtel": 3575,
      "ĠláºŃn": 3576,
      "Ġgáº¡t": 3577,
      "ĠchÃły": 3578,
      "Ġquáº¥y": 3579,
      "ĠxÄĥm": 3580,
      "Ġchá»Ľp": 3581,
      "ani": 3582,
      "Ġbá»ĵi": 3583,
      "Ġhor": 3584,
      "Ġngá»¥": 3585,
      "ora": 3586,
      "eth": 3587,
      "ĠmÃ´t": 3588,
      "ĠhÃ¡i": 3589,
      "Ġwilliam": 3590,
      "Ġváº·t": 3591,
      "Ġráº·ng": 3592,
      "Ġthiá»ģn": 3593,
      "Ġhoan": 3594,
      "ĠphÃ¡o": 3595,
      "Ġjer": 3596,
      "Ġjack": 3597,
      "Ġir": 3598,
      "Ġ2005": 3599,
      "trong": 3600,
      "Ġ2011": 3601,
      "berg": 3602,
      "Ġadam": 3603,
      "cy": 3604,
      "ez": 3605,
      "ock": 3606,
      "ĠtÆ°á»Ľc": 3607,
      "Ġgai": 3608,
      "ĠxÆ°á»Ľng": 3609,
      "Ġchá»ķi": 3610,
      "Ġmá»¡": 3611,
      "ĠphÃ´": 3612,
      "Ġbá»ĵn": 3613,
      "Ġbas": 3614,
      "Ġwall": 3615,
      "Ġghana": 3616,
      ".)": 3617,
      "Ġtitan": 3618,
      "Ġláº¥n": 3619,
      "Ġmor": 3620,
      "Ġxi": 3621,
      "Ġbá»ī": 3622,
      "Ġdá»ĩt": 3623,
      "ĠxÃ©": 3624,
      "Ġfo": 3625,
      "Ġ1950": 3626,
      "oma": 3627,
      "Ġtivi": 3628,
      "Ġmicro": 3629,
      "Ġmicrosoft": 3630,
      "'.": 3631,
      "col": 3632,
      "Ġbuá»ĵng": 3633,
      "ĠtÃºng": 3634,
      "Ġbá»Ŀi": 3635,
      "ĠbÃºa": 3636,
      "ĠnÃ£y": 3637,
      "Ġngá»Ńi": 3638,
      "Ġrá»±c": 3639,
      "ĠÄĳÃ´la": 3640,
      "Ġ95": 3641,
      "Ġ1990": 3642,
      "Ġhenry": 3643,
      "Ġsahara": 3644,
      "mÃ¬nh": 3645,
      "Ġit": 3646,
      "Ġáº¿ch": 3647,
      "ĠÄĳáº¯m": 3648,
      "Ġmin": 3649,
      "Ġsáº¿p": 3650,
      "Ġgay": 3651,
      "Ġnhi": 3652,
      "Ġdel": 3653,
      "Ġtang": 3654,
      "ĠxÆ¡": 3655,
      "ĠvÃ²m": 3656,
      "Ġlab": 3657,
      "Ġstar": 3658,
      "Ġug": 3659,
      "Ġ2012": 3660,
      "attan": 3661,
      "Ġthuá»³": 3662,
      "ptop": 3663,
      "km": 3664,
      "Ġnuá»ĳt": 3665,
      "Ġbáº©m": 3666,
      "Ġthá»ĳt": 3667,
      "Ġchinh": 3668,
      "Ġgiáº·t": 3669,
      "Ġmá»Ľ": 3670,
      "Ġlou": 3671,
      "ĠvÃµng": 3672,
      "ali": 3673,
      "ota": 3674,
      "Ġnhiá»ħu": 3675,
      "ĠghÃ©": 3676,
      "Ġbá»ķng": 3677,
      "ĠsÃ´": 3678,
      "ĠtrÃªu": 3679,
      "Ġdáº¡i": 3680,
      "Ġná»©t": 3681,
      "Ġap": 3682,
      "Ġlaptop": 3683,
      "Ġnháº¡o": 3684,
      "Ġpound": 3685,
      "Ġrwanda": 3686,
      "bá»": 3687,
      "ou": 3688,
      "ĠÃło": 3689,
      "ĠvÃ¡y": 3690,
      "ĠÄĳÃ²n": 3691,
      "Ġrá»ĳt": 3692,
      "ĠkhoÃ¡n": 3693,
      "Ġfre": 3694,
      "ics": 3695,
      "itt": 3696,
      "Ġ85": 3697,
      "Ġste": 3698,
      "ny": 3699,
      "zan": 3700,
      "Æ¡c": 3701,
      "Ġmac": 3702,
      "Ġmos": 3703,
      "ĠtÃ¹ng": 3704,
      "ĠchÃ³c": 3705,
      "Ġchuá»ĵn": 3706,
      "Ġtháº¡o": 3707,
      "Ġnghiá»ģn": 3708,
      "ĠtrÃ¨o": 3709,
      "Ġphot": 3710,
      "ĠbÃ¡t": 3711,
      "Ġmáº¹o": 3712,
      "Ġmanhattan": 3713,
      "ib": 3714,
      "red": 3715,
      "Ġnáº¿p": 3716,
      "Ġbá»Ļc": 3717,
      "Ġhal": 3718,
      "Ġkhe": 3719,
      "ĠhoÃłnh": 3720,
      "inson": 3721,
      "Ġkhoai": 3722,
      "ĠngÃ¢y": 3723,
      "lie": 3724,
      "rian": 3725,
      "Ġpeter": 3726,
      "giá»": 3727,
      "ker": 3728,
      "½n": 3729,
      "ĠÆ°á»Ľt": 3730,
      "ĠchÃ¨o": 3731,
      "á»ĳp": 3732,
      "ĠchoÃ¡ng": 3733,
      "Ġháº£": 3734,
      "Ġwat": 3735,
      "Ġall": 3736,
      "Ġngháº½n": 3737,
      "Ġlaser": 3738,
      "Ġuganda": 3739,
      "500": 3740,
      "cin": 3741,
      "mi": 3742,
      "phÃ": 3743,
      "uth": 3744,
      "Ġná»Ļp": 3745,
      "Ġbob": 3746,
      "Ġsuá»ĳi": 3747,
      "Ġtro": 3748,
      "ĠchÆ°á»Ľng": 3749,
      "Ġnhá»ĵi": 3750,
      "ĠxÃ¡": 3751,
      "Ġlá»©a": 3752,
      "Ġdá»Ŀi": 3753,
      "Ġá»§i": 3754,
      "Ġstre": 3755,
      "Ġze": 3756,
      "Ġflorida": 3757,
      "ha": 3758,
      "nes": 3759,
      "Ġclip": 3760,
      "ĠlÆ°á»£n": 3761,
      "Ġbiáº¿m": 3762,
      "Ġvá»įt": 3763,
      "ĠhÃ¢m": 3764,
      "Ġkhoang": 3765,
      "Ġbá»ıng": 3766,
      "Ġrá»¡": 3767,
      "ille": 3768,
      "Ġsmith": 3769,
      "Ġlatin": 3770,
      "ki": 3771,
      "ling": 3772,
      "up": 3773,
      "Ġao": 3774,
      "Ġcy": 3775,
      "ĠÄĳáº§m": 3776,
      "ĠcÃ³c": 3777,
      "áº¥ng": 3778,
      "Ġgieo": 3779,
      "Ġair": 3780,
      "Ġ2050": 3781,
      "Ġscan": 3782,
      "Ġworld": 3783,
      "der": 3784,
      "ga": 3785,
      "via": 3786,
      "ĭt": 3787,
      "há»į": 3788,
      "ĠbÃ³n": 3789,
      "Ġkg": 3790,
      "Ġdis": 3791,
      "ĠÄĳá»¥c": 3792,
      "ĠkhÃ©p": 3793,
      "Ġxáº£": 3794,
      "ona": 3795,
      "ĠbÃ¹": 3796,
      "ĠÄĳá»ĵn": 3797,
      "ĠrÃ¢u": 3798,
      "Ġ191": 3799,
      "ĠlÃ¡ng": 3800,
      "beria": 3801,
      "Ġic": 3802,
      "Ġnit": 3803,
      "ĠlÆ°á»Ŀi": 3804,
      "Ġkil": 3805,
      "ĠchÃ¹m": 3806,
      "ĠthÃ¨m": 3807,
      "Ġbá»įt": 3808,
      "ĠkhoÃ¡c": 3809,
      "ial": 3810,
      "Ġ2004": 3811,
      "Ġ2006": 3812,
      "Ġcháº·ng": 3813,
      "zy": 3814,
      "Ġkáº¹p": 3815,
      "Ġgá»Ļp": 3816,
      "ĠvÃłnh": 3817,
      "áº¿m": 3818,
      "Ġnhá»¥c": 3819,
      "ĠphÃ´i": 3820,
      "ero": 3821,
      "ĠmÃ´ng": 3822,
      "Ġkhuáº¥t": 3823,
      "Ġ800": 3824,
      "Ġhigg": 3825,
      "Ġquá»µ": 3826,
      "low": 3827,
      "Ġ120": 3828,
      "Ġpalest": 3829,
      "Ġbush": 3830,
      "aa": 3831,
      "pu": 3832,
      "µm": 3833,
      "ĠvÆ°á»£n": 3834,
      "Ġtrá»Ļi": 3835,
      "ĠngÃ´": 3836,
      "Ġri": 3837,
      "Ġhon": 3838,
      "Ġfer": 3839,
      "lymp": 3840,
      "ĠÄĳá»ĩm": 3841,
      "pi": 3842,
      "rew": 3843,
      "ĠÄĳun": 3844,
      "Ġmau": 3845,
      "ĠsÆ°á»Ŀn": 3846,
      "Ġrio": 3847,
      "iá»ģng": 3848,
      "Ġlá»¥": 3849,
      "Ġkhinh": 3850,
      "ĠnhÃ©t": 3851,
      "Ġngá»£i": 3852,
      "Ġvá»ĭt": 3853,
      "Ġfi": 3854,
      "atch": 3855,
      "Ġ700": 3856,
      "Ġever": 3857,
      "ther": 3858,
      "eep": 3859,
      "Ġbrook": 3860,
      "Ġstanford": 3861,
      "Ġur": 3862,
      "Ġtes": 3863,
      "Ġnáº¡": 3864,
      "Ġmel": 3865,
      "Ġbáº¿": 3866,
      "ĠcháºŃt": 3867,
      "ĠnhÃ£": 3868,
      "alia": 3869,
      "Ġolymp": 3870,
      "Ġ2014": 3871,
      "Ġamy": 3872,
      "ella": 3873,
      "bs": 3874,
      "cuá»Ļc": 3875,
      "uel": 3876,
      "Ġná»Ļ": 3877,
      "Ġnet": 3878,
      "Ġnsa": 3879,
      "Ġváº«y": 3880,
      "Ġláº§y": 3881,
      "Ġblu": 3882,
      "Ġsim": 3883,
      "Ġngáº¯t": 3884,
      "ĠchÃ©o": 3885,
      "Ġnhá»ĳt": 3886,
      "que": 3887,
      "Ġsá»©a": 3888,
      "cho": 3889,
      "ĠnhÃ´": 3890,
      "int": 3891,
      "ĠdÃ¢ng": 3892,
      "Ġ3000": 3893,
      "Ġtur": 3894,
      "ĠhÃ¡n": 3895,
      "Ġatlan": 3896,
      "Ã©t": 3897,
      "Ġter": 3898,
      "Ġsing": 3899,
      "ĠtrÆ°Æ¡ng": 3900,
      "ĠthÃª": 3901,
      "Ġchá»ĳn": 3902,
      "Ġbá»Ľi": 3903,
      "ĠbÃ¹n": 3904,
      "ĠvÃ¡ch": 3905,
      "Ġ29": 3906,
      "Ġngoáº¡n": 3907,
      "Ġjaz": 3908,
      "Ġarist": 3909,
      "Ġoxford": 3910,
      "ĠnhÃ¡y": 3911,
      "Ġusd": 3912,
      "fe": 3913,
      "kh": 3914,
      "king": 3915,
      "pháº": 3916,
      "¢t": 3917,
      "Ġnick": 3918,
      "Ġvacc": 3919,
      "Ġled": 3920,
      "Ġmiss": 3921,
      "Ġbáº©y": 3922,
      "Ġgab": 3923,
      "Ġthá»ģ": 3924,
      "ĠdÃª": 3925,
      "Ġmá»³": 3926,
      "Ġphá»ĵng": 3927,
      "ĠsÃ¹ng": 3928,
      "Ġwho": 3929,
      "Ġshow": 3930,
      "ÄĳÃºng": 3931,
      "Ġgeorg": 3932,
      "od": 3933,
      "ue": 3934,
      "va": 3935,
      "Ġmri": 3936,
      "Ġkeo": 3937,
      "ĠgáºŃp": 3938,
      "ĠhÃ´ng": 3939,
      "ena": 3940,
      "Ġrá»ķ": 3941,
      "etro": 3942,
      "Ġghen": 3943,
      "Ġá»«m": 3944,
      "my": 3945,
      "ĠÆ°Æ¡ng": 3946,
      "Ġtrinh": 3947,
      "Ġpop": 3948,
      "Ġchay": 3949,
      "Ġquáº©n": 3950,
      "ĠkhÄĥng": 3951,
      "Ġloa": 3952,
      "Ġphiáº¿n": 3953,
      "ĠvÃ¹i": 3954,
      "ĠsÃºp": 3955,
      "Ġrá»ĩt": 3956,
      "Ġhiáº¿u": 3957,
      "Ġxen": 3958,
      "ĠrÃ²": 3959,
      "esia": 3960,
      "Ġ55": 3961,
      "Ġah": 3962,
      "Ġjenn": 3963,
      "iti": 3964,
      "Ġ2001": 3965,
      "Ġnhuá»Ļm": 3966,
      "ump": 3967,
      "Ġrá»ĵng": 3968,
      "Ġstudio": 3969,
      "cel": 3970,
      "ms": 3971,
      "ĠÄĳÃłng": 3972,
      "ĠlÃ³t": 3973,
      "Ġmem": 3974,
      "Ġsk": 3975,
      "ĠkhÃ¢u": 3976,
      "Ġtháº¯p": 3977,
      "ĠnÃ³n": 3978,
      "Ġpháº¿": 3979,
      "ĠcÃ¡n": 3980,
      "ĠphÃłn": 3981,
      "Ġ33": 3982,
      "ory": 3983,
      "Ġsom": 3984,
      "Ġgolf": 3985,
      "Ġscott": 3986,
      "ster": 3987,
      "Ġnáº¯p": 3988,
      "Ġváº·n": 3989,
      "Ġlay": 3990,
      "Ġbanh": 3991,
      "Ġbin": 3992,
      "ĠtrÃłng": 3993,
      "ĠvÃłn": 3994,
      "ĠÄĳÃŃnh": 3995,
      "Ġquáº¡t": 3996,
      "ann": 3997,
      "isa": 3998,
      "Ġ5000": 3999,
      "Ġtua": 4000,
      "trá»": 4001,
      "Ġjoe": 4002,
      "Ġtweet": 4003,
      "ĠbÃªnh": 4004,
      "gin": 4005,
      "ĠÄĳá»©t": 4006,
      "ĠchiÃªm": 4007,
      "ĠÄĳÃ³m": 4008,
      "Ġá»§": 4009,
      "Ġ37": 4010,
      "Ġjose": 4011,
      "old": 4012,
      "Ġib": 4013,
      "Ġ2003": 4014,
      "Ġshak": 4015,
      "Ġtá»¥i": 4016,
      "Ġblack": 4017,
      "Ġlouis": 4018,
      "eah": 4019,
      "lá»": 4020,
      "uc": 4021,
      "Ġnai": 4022,
      "Ġkar": 4023,
      "ĠkiÃªng": 4024,
      "Ġsn": 4025,
      "Ġchá»įi": 4026,
      "ant": 4027,
      "ĠlÃ¡ch": 4028,
      "ĠlÃ©n": 4029,
      "Ġrá»Ĺi": 4030,
      "Ġjane": 4031,
      "ardo": 4032,
      "igami": 4033,
      "Ġarg": 4034,
      "Ġháº»o": 4035,
      "\"]": 4036,
      "?'": 4037,
      "īa": 4038,
      "Ġmao": 4039,
      "ĠbÃłng": 4040,
      "Ġkáº½": 4041,
      "Ġgl": 4042,
      "Ġgates": 4043,
      "Ġthá»ı": 4044,
      "chÃł": 4045,
      "Ġtop": 4046,
      "Ġdom": 4047,
      "ima": 4048,
      "oran": 4049,
      "ison": 4050,
      "use": 4051,
      "unt": 4052,
      "Ġalb": 4053,
      "ĠhÃ¡o": 4054,
      "Ġethi": 4055,
      "Ġdisney": 4056,
      "Ġhiggs": 4057,
      "\"?": 4058,
      "dan": 4059,
      "ºm": 4060,
      "Ġgand": 4061,
      "Ġdr": 4062,
      "Ġnhá»įn": 4063,
      "Ġdá»ĵi": 4064,
      "Ġ31": 4065,
      "Ġip": 4066,
      "Ġmah": 4067,
      "lyn": 4068,
      "Ġbron": 4069,
      "Ġcongo": 4070,
      "Ġorigami": 4071,
      "Ġoxyto": 4072,
      "mar": 4073,
      "tt": 4074,
      "ven": 4075,
      "ville": 4076,
      "ĠÆ¡": 4077,
      "Ġent": 4078,
      "ĠÄĳáº¡m": 4079,
      "ĠláºŃu": 4080,
      "ĠcÃ´i": 4081,
      "Ġkiá»ģm": 4082,
      "ĠsÆ°Æ¡ng": 4083,
      "Ġha": 4084,
      "Ġgien": 4085,
      "ĠlÃ£i": 4086,
      "amine": 4087,
      "Ġwest": 4088,
      "Ġins": 4089,
      "Ġup": 4090,
      "entina": 4091,
      "Ġoxi": 4092,
      "Ġlogo": 4093,
      "Ġpoly": 4094,
      "Ġlego": 4095,
      "Ġsteph": 4096,
      "Ġstreet": 4097,
      "Ġvaccine": 4098,
      "Ġoxytocin": 4099,
      "ies": 4100,
      "ja": 4101,
      "táº¥t": 4102,
      "Ã¢y": 4103,
      "Ġcua": 4104,
      "Ġcáº±n": 4105,
      "ĠgÃ´": 4106,
      "Ġgiáº¿ng": 4107,
      "Ġhuá»": 4108,
      "ĠnhÆ°á»£c": 4109,
      "Ġran": 4110,
      "chia": 4111,
      "Ġphá»Ľt": 4112,
      "Ġindon": 4113,
      "Ġ2013": 4114,
      "Ġcarolina": 4115,
      "Ġethiopia": 4116,
      "well": 4117,
      "ze": 4118,
      "ĠcÃłnh": 4119,
      "Ġcáº¯n": 4120,
      "Ġcris": 4121,
      "Ġmer": 4122,
      "Ġmat": 4123,
      "Ġmus": 4124,
      "Ġmill": 4125,
      "Ġdere": 4126,
      "ĠkhÃ¹ng": 4127,
      "Ġchuá»ĳi": 4128,
      "ĠthiÃªu": 4129,
      "Ġtá»¥t": 4130,
      "Ġnháº¥c": 4131,
      "ini": 4132,
      "ĠvÃ£": 4133,
      "Ġá»Ľt": 4134,
      "Ġsoc": 4135,
      "Ġford": 4136,
      "Ġcoca": 4137,
      "ily": 4138,
      "thur": 4139,
      "ĠthÆ¡m": 4140,
      "Ġbrown": 4141,
      "ladesh": 4142,
      "dor": 4143,
      "vel": 4144,
      "Äĳi": 4145,
      "ĠliÃªng": 4146,
      "ĠngÆ¡i": 4147,
      "Ġgiá»ģng": 4148,
      "Ġpen": 4149,
      "Ġcá»Ńu": 4150,
      "Ġhá»©c": 4151,
      "Æ°á»£m": 4152,
      "Ġlá»Ńng": 4153,
      "ĠlÃŃt": 4154,
      "ĠmÃ©o": 4155,
      "Ġkhuáº¿ch": 4156,
      "Ġsouth": 4157,
      "...\"": 4158,
      "Ġ48": 4159,
      "ott": 4160,
      "ĠÄĳÃ´n": 4161,
      "Ġaristot": 4162,
      "Ġindonesia": 4163,
      "cáº£m": 4164,
      "dam": 4165,
      "go": 4166,
      "gra": 4167,
      "Ġáº¥p": 4168,
      "Ġtem": 4169,
      "Ġnáº¿n": 4170,
      "Ġmike": 4171,
      "ĠbÆ°u": 4172,
      "áº¡ng": 4173,
      "ĠnhÄĥn": 4174,
      "Ġvá»īa": 4175,
      "ĠchiÃªn": 4176,
      "Ġtá»Ľ": 4177,
      "Ġmá»įt": 4178,
      "Ġlá»į": 4179,
      "ĠnhÃło": 4180,
      "Ġluc": 4181,
      "Ġbangladesh": 4182,
      "Ġtá»¥ng": 4183,
      "burg": 4184,
      "Ġmá»īm": 4185,
      "Ġpalestine": 4186,
      "Ġargentina": 4187,
      "Ġcrispr": 4188,
      "Ġaristotle": 4189,
      ",...": 4190,
      "cáºŃu": 4191,
      "Ġten": 4192,
      "Ġtony": 4193,
      "Ġcá»Ļ": 4194,
      "Ġcáº©u": 4195,
      "Ġval": 4196,
      "Ġbáº¿n": 4197,
      "Ġbol": 4198,
      "Ġkat": 4199,
      "Ġhá»Ł": 4200,
      "Ġhoward": 4201,
      "Ġtoa": 4202,
      "ĠxÃŃt": 4203,
      "ence": 4204,
      "ĠÄĳom": 4205,
      "ĠbÃ¡ng": 4206,
      "itz": 4207,
      "Ġngá»§i": 4208,
      "Ġokay": 4209,
      "Ġbrun": 4210,
      "Ġlib": 4211,
      "Ġhorm": 4212,
      "',": 4213,
      ".,": 4214,
      "kho": 4215,
      "Ġcd": 4216,
      "Ġmt": 4217,
      "Ġmáº·n": 4218,
      "Ġbuá»ĵ": 4219,
      "Ġkev": 4220,
      "ĠtrÃ³i": 4221,
      "ĠhÄĥng": 4222,
      "Ġchá»ĳc": 4223,
      "Ġkhá»ĳc": 4224,
      "Ġsá»Ńng": 4225,
      "ĠÃ¡t": 4226,
      "Ġjord": 4227,
      "chÃºa": 4228,
      "Ġshe": 4229,
      "Ġleon": 4230,
      "bridge": 4231,
      "Ġbronx": 4232,
      "Ġhormone": 4233,
      "Ġbuá»ĵm": 4234,
      "cul": 4235,
      "gos": 4236,
      "jo": 4237,
      "kg": 4238,
      "kel": 4239,
      "Ġtest": 4240,
      "Ġcor": 4241,
      "Ġlh": 4242,
      "Ġlá»Ļi": 4243,
      "ĠlÆ°á»£m": 4244,
      "ĠbÃ¬": 4245,
      "Ġbrian": 4246,
      "Ġkoran": 4247,
      "ĠtÃŃt": 4248,
      "Ġgore": 4249,
      "ĠÄĳá»įng": 4250,
      "ĠchiÃªu": 4251,
      "Ġthen": 4252,
      "Ġthiáº¿p": 4253,
      "ĠchoÃłng": 4254,
      "ĠphÃ¡ch": 4255,
      "aine": 4256,
      "Ġngá»±": 4257,
      "Ġwatt": 4258,
      "Ġphá»ĳt": 4259,
      "eda": 4260,
      "Ġind": 4261,
      "Ġmag": 4262,
      "Ġ2016": 4263,
      "Ġcarl": 4264,
      "ĠhuÃ½t": 4265,
      "Ġdaniel": 4266,
      "bble": 4267,
      "Ġentrop": 4268,
      "Ġderek": 4269,
      "dá»": 4270,
      "¹o": 4271,
      "Ġmand": 4272,
      "Ġmatt": 4273,
      "Ġsen": 4274,
      "Ġhao": 4275,
      "Ġpiz": 4276,
      "Ġcá»ĵn": 4277,
      "Ġtháº¹n": 4278,
      "Ġtaxi": 4279,
      "ĠhÃ©": 4280,
      "Ġphiá»ĩn": 4281,
      "Ġdoll": 4282,
      "Ġá»ıi": 4283,
      "Ġthoa": 4284,
      "Ġak": 4285,
      "Ġ2030": 4286,
      "Ġ190": 4287,
      "rey": 4288,
      "own": 4289,
      "Ġberlin": 4290,
      "Ġmá»īa": 4291,
      "Ġjuli": 4292,
      "Ġhawai": 4293,
      "Ġtelom": 4294,
      "fi": 4295,
      "fo": 4296,
      "ves": 4297,
      "ĠÃªm": 4298,
      "ĠtÆ°á»Ľi": 4299,
      "ĠcÄĥm": 4300,
      "ĠsÃ³i": 4301,
      "Ġgram": 4302,
      "Ġdang": 4303,
      "ĠxÃ¡o": 4304,
      "Ġdá»¡": 4305,
      "Ġvit": 4306,
      "asi": 4307,
      "Ġlagos": 4308,
      "Ġvirgin": 4309,
      "Ġandrew": 4310,
      "Ġliberia": 4311,
      "Ġedward": 4312,
      "din": 4313,
      "har": 4314,
      "Ġts": 4315,
      "Ġtáº»": 4316,
      "Ġcn": 4317,
      "Ġlar": 4318,
      "Ġku": 4319,
      "ĠtrÃ¡": 4320,
      "Ġráº£i": 4321,
      "ĠdÃło": 4322,
      "Ġtali": 4323,
      "Ġquáº§y": 4324,
      "Ġkhiáº¿t": 4325,
      "Ġkhá»ĳn": 4326,
      "ĠmÃ¡c": 4327,
      "Ġfbi": 4328,
      "Ġear": 4329,
      "uri": 4330,
      "Ġnewton": 4331,
      "Ġarthur": 4332,
      "ever": 4333,
      "Ġ130": 4334,
      "Ġnguá»Ļi": 4335,
      "ctor": 4336,
      "Ġalexander": 4337,
      "Ġparkinson": 4338,
      "Ġdollar": 4339,
      "gar": 4340,
      "ks": 4341,
      "vis": 4342,
      "¡t": 4343,
      "ħu": 4344,
      "ĠÄĳáº¯p": 4345,
      "Ġváº©n": 4346,
      "Ġtrump": 4347,
      "ĠgÃło": 4348,
      "Ġthá»ĳn": 4349,
      "Ġpenn": 4350,
      "Ġvá»Ľ": 4351,
      "Ġhoi": 4352,
      "ĠsÃ²": 4353,
      "Ġngá»įc": 4354,
      "Ġ38": 4355,
      "ĠbÃ¡u": 4356,
      "espe": 4357,
      "Ġfda": 4358,
      "ato": 4359,
      "ita": 4360,
      "Ġcháº¡p": 4361,
      "Ġipo": 4362,
      "igan": 4363,
      "Ġcambridge": 4364,
      "ĠmuÃ´n": 4365,
      "Ġorg": 4366,
      "Ġchristoph": 4367,
      "Ġatlanta": 4368,
      "Ġtaliban": 4369,
      "25": 4370,
      "ĠnÃ´n": 4371,
      "Ġnáº¿m": 4372,
      "Ġve": 4373,
      "Ġvo": 4374,
      "ĠliÃªu": 4375,
      "Ġsáº¥u": 4376,
      "Ġngáº¡o": 4377,
      "ĠchÃŃch": 4378,
      "Ġnhá»©c": 4379,
      "ĠxÃ¬": 4380,
      "Ġxá»ĳp": 4381,
      "cha": 4382,
      "Ġkhoe": 4383,
      "Ġkhá»Ń": 4384,
      "Ġdop": 4385,
      "Ġgá»¥c": 4386,
      "Ġ2020": 4387,
      "une": 4388,
      "Ġenzy": 4389,
      "Ġjean": 4390,
      "Ġbrooklyn": 4391,
      "Ġshakespe": 4392,
      "Ġpizza": 4393,
      "10": 4394,
      "bal": 4395,
      "bor": 4396,
      "³t": 4397,
      "Å©a": 4398,
      "Ġáº¯c": 4399,
      "Ġtáº£n": 4400,
      "ĠcÆ°a": 4401,
      "Ġclin": 4402,
      "ĠvÆ°á»Ľng": 4403,
      "Ġnguyá»ĩt": 4404,
      "Ġglu": 4405,
      "Ġcher": 4406,
      "Ġnhá»Ļ": 4407,
      "Ġxay": 4408,
      "Ġhá»įng": 4409,
      "ĠhÃ¢n": 4410,
      "ene": 4411,
      "Ġ44": 4412,
      "Ġ46": 4413,
      "ollo": 4414,
      "ost": 4415,
      "phia": 4416,
      "ower": 4417,
      "Ġ1998": 4418,
      "Ġproton": 4419,
      "Ġjohnson": 4420,
      "má»įi": 4421,
      "nhÃ¬n": 4422,
      "zania": 4423,
      "Ġjazz": 4424,
      "Ġvitamin": 4425,
      "cÃ´ng": 4426,
      "vÃ¬": 4427,
      "á»«": 4428,
      "Ġmas": 4429,
      "Ġbh": 4430,
      "Ġbre": 4431,
      "Ġkb": 4432,
      "Ġsus": 4433,
      "Ġsky": 4434,
      "ĠsÆ°á»Łi": 4435,
      "ĠtrÆ¡n": 4436,
      "Ġgáº§y": 4437,
      "Ġhill": 4438,
      "Ġport": 4439,
      "ĠdÆ°a": 4440,
      "Ġvá»±ng": 4441,
      "Ġquáº¡": 4442,
      "Ġsá»¥t": 4443,
      "Ġlá»¥t": 4444,
      "Ġtoáº¡": 4445,
      "eton": 4446,
      "Ġwe": 4447,
      "Ġjosh": 4448,
      "Ġfar": 4449,
      "Ġcola": 4450,
      "edy": 4451,
      "Ġrome": 4452,
      "rah": 4453,
      "trÃłng": 4454,
      "attle": 4455,
      "Ġcoll": 4456,
      "Ġeric": 4457,
      "Ġseattle": 4458,
      "Ġnguá»µ": 4459,
      "coln": 4460,
      "Ġshakespeare": 4461,
      "bab": 4462,
      "yn": 4463,
      "ħn": 4464,
      "ĩch": 4465,
      "Ġcat": 4466,
      "ĠÄĳáº·n": 4467,
      "Ġváº§y": 4468,
      "Ġsáº£nh": 4469,
      "ĠngÃło": 4470,
      "Ġgar": 4471,
      "Ġhav": 4472,
      "Ġkhiáº¿u": 4473,
      "Ġxáº¥p": 4474,
      "ĠphÃŃch": 4475,
      "Ġlá»įt": 4476,
      "ĠmÃłi": 4477,
      "chÃło": 4478,
      "Ġtrá»Ľ": 4479,
      "ĠdÃ¢u": 4480,
      "Ġsol": 4481,
      "Ġwill": 4482,
      "Ġjers": 4483,
      "unds": 4484,
      "Ġeliz": 4485,
      "Ġcuba": 4486,
      "ansas": 4487,
      "Ġmichel": 4488,
      "Ġolympic": 4489,
      "Ġgeorgia": 4490,
      "Ġmandela": 4491,
      "Ġhawaii": 4492,
      "ium": 4493,
      "ys": 4494,
      "Ġeo": 4495,
      "Ġká»ģn": 4496,
      "Ġwol": 4497,
      "Ġav": 4498,
      "Ġfox": 4499,
      "Ġ47": 4500,
      "Ġoli": 4501,
      "Ġ72": 4502,
      "Ġalan": 4503,
      "ĠsuÃ½t": 4504,
      "eyn": 4505,
      "ĠnhÃ¡t": 4506,
      "chá»ī": 4507,
      "Ġlincoln": 4508,
      "ĠrÃ£nh": 4509,
      "Ġalbum": 4510,
      "Ġdopamine": 4511,
      "Ġjersey": 4512,
      "bÃł": 4513,
      "tÃ´": 4514,
      "xon": 4515,
      "yan": 4516,
      "Ġtenn": 4517,
      "Ġvon": 4518,
      "Ġbot": 4519,
      "Ġshi": 4520,
      "Ġtrans": 4521,
      "Ġgáº¡o": 4522,
      "Ġgall": 4523,
      "ĠÄĳÃª": 4524,
      "Ġthá»ī": 4525,
      "Ġrong": 4526,
      "Ġxáº£o": 4527,
      "Ġsáº¹o": 4528,
      "ĠÃ´n": 4529,
      "air": 4530,
      "Ġná»±c": 4531,
      "ĠloÃ": 4532,
      "eop": 4533,
      "ĠvÃŃt": 4534,
      "ĠsÃºt": 4535,
      "ĠnÃ©": 4536,
      "ĠnÃŃn": 4537,
      "Ġ350": 4538,
      "elt": 4539,
      "row": 4540,
      "Ġid": 4541,
      "chÃ¡": 4542,
      "abeth": 4543,
      "ulin": 4544,
      "Ġscotland": 4545,
      "Ġopera": 4546,
      "Ġapollo": 4547,
      "Ġiceland": 4548,
      "Ġstephen": 4549,
      "Ġhuá»³": 4550,
      "Ġkevin": 4551,
      "Ġjordan": 4552,
      "for": 4553,
      "ix": 4554,
      "lah": 4555,
      "wich": 4556,
      "Ãºt": 4557,
      "Ġest": 4558,
      "Ġver": 4559,
      "ĠcÃ²i": 4560,
      "Ġsun": 4561,
      "Ġnguyá»ģn": 4562,
      "Ġgg": 4563,
      "Ġhan": 4564,
      "ĠhiÃªn": 4565,
      "Ġnhai": 4566,
      "Ġreo": 4567,
      "Ġrem": 4568,
      "Ġdra": 4569,
      "Ġcá»Ľ": 4570,
      "Ġsá»ıi": 4571,
      "ĠthÃ©t": 4572,
      "chuyá»ĩn": 4573,
      "uyá»ħn": 4574,
      "Ġtrá»Ĺi": 4575,
      "Ġyeah": 4576,
      "ĠmÃ¡nh": 4577,
      "Ġgá»Ľm": 4578,
      "ĠkÃ©p": 4579,
      "aland": 4580,
      "ĠchÃŃp": 4581,
      "Ġjac": 4582,
      "ĠtÃ¡ng": 4583,
      "Ġchui": 4584,
      "ati": 4585,
      "Ġoz": 4586,
      "ilet": 4587,
      "Ġ192": 4588,
      "Ġalbert": 4589,
      "Ġtuá»µ": 4590,
      "ĠbuÃ´ng": 4591,
      "Ġabra": 4592,
      "Ġclick": 4593,
      "Ġwhit": 4594,
      "Ġlá»¥a": 4595,
      "Ġtesla": 4596,
      "Ġsingap": 4597,
      "Ġinsulin": 4598,
      "Ġhuá»³nh": 4599,
      "bá»ĳ": 4600,
      "cose": 4601,
      "del": 4602,
      "gb": 4603,
      "ko": 4604,
      "ĠÄĳáºŃy": 4605,
      "ĠÄĳáº¥ng": 4606,
      "Ġmeg": 4607,
      "ĠcÃºi": 4608,
      "Ġthá»§ng": 4609,
      "Ġtal": 4610,
      "Ġquáº¥n": 4611,
      "Ġxáº»": 4612,
      "Ġram": 4613,
      "ĠlÃ¹n": 4614,
      "Ġká»µ": 4615,
      "Ġ34": 4616,
      "ĠtÃ¡t": 4617,
      "Ġxá»ĭt": 4618,
      "Ġ193": 4619,
      "Ġiq": 4620,
      "Ġ2002": 4621,
      "aker": 4622,
      "Ġtanzania": 4623,
      "Ġgrand": 4624,
      "Ġwatson": 4625,
      "Ġvirginia": 4626,
      "Ġthá»īu": 4627,
      "chÃ¡u": 4628,
      "Ġsingapore": 4629,
      "sp": 4630,
      "way": 4631,
      "Ġcáº¡o": 4632,
      "ĠÄĳáº¯ng": 4633,
      "ĠÄĳáº¯c": 4634,
      "Ġviá»ģn": 4635,
      "Ġmur": 4636,
      "Ġmass": 4637,
      "ĠsáºŃp": 4638,
      "ĠgÃ¡n": 4639,
      "ĠgÄĥng": 4640,
      "Ġposter": 4641,
      "Ġtháº£y": 4642,
      "Ġpháº«n": 4643,
      "Ġrap": 4644,
      "Ġgiá»ħu": 4645,
      "Ġtrá»ĩ": 4646,
      "Ġtrá»įt": 4647,
      "erra": 4648,
      "Ġemma": 4649,
      "elson": 4650,
      "Ġrá»¥ng": 4651,
      "Ġ42": 4652,
      "ild": 4653,
      "ustin": 4654,
      "Ġep": 4655,
      "ĠÄĳá»ĳn": 4656,
      "ĠgÃ³t": 4657,
      "Ġ1999": 4658,
      "penh": 4659,
      "Ġsteven": 4660,
      "ĠnhÃ´m": 4661,
      "etroit": 4662,
      "Ġjoseph": 4663,
      "Ġbruno": 4664,
      "Ġipod": 4665,
      "Ġabraham": 4666,
      ",,": 4667,
      "bie": 4668,
      "ipp": 4669,
      "kins": 4670,
      "liá»ĩu": 4671,
      "las": 4672,
      "min": 4673,
      "ru": 4674,
      "val": 4675,
      "Ġnang": 4676,
      "Ġnáº¥c": 4677,
      "Ġnike": 4678,
      "Æ°Æ¡c": 4679,
      "Ġky": 4680,
      "ĠkiÃªu": 4681,
      "Ġsel": 4682,
      "ĠtÃº": 4683,
      "Ġgáº¯t": 4684,
      "ĠÄĳÃ¹i": 4685,
      "Ġhans": 4686,
      "Ġdiá»ģu": 4687,
      "Ġdetroit": 4688,
      "Ġcá»įc": 4689,
      "ĠquÄĥng": 4690,
      "Ġbá»ĩ": 4691,
      "Ġcháº¯t": 4692,
      "Ġbá»ĭt": 4693,
      "Ġbá»ĭch": 4694,
      "Ġphanh": 4695,
      "ĠbÃ©n": 4696,
      "oto": 4697,
      "aska": 4698,
      "Ġcoc": 4699,
      "Ġcopenh": 4700,
      "Ġcafe": 4701,
      "Ġ98": 4702,
      "Ġxoa": 4703,
      "ĠÃ´tÃ´": 4704,
      "ake": 4705,
      "Ġnháº§y": 4706,
      "Ġmichigan": 4707,
      "Ġireland": 4708,
      "Ġzealand": 4709,
      "Ġblue": 4710,
      "Ġsnow": 4711,
      "Ġtelomere": 4712,
      "Ġclinton": 4713,
      "Ġcopenhagen": 4714,
      "ble": 4715,
      "box": 4716,
      "cl": 4717,
      "com": 4718,
      "ric": 4719,
      "ux": 4720,
      "Ġcort": 4721,
      "ĠÄĥ": 4722,
      "Ġnelson": 4723,
      "Ġms": 4724,
      "Ġkn": 4725,
      "ĠdÆ°ng": 4726,
      "Ġchile": 4727,
      "ĠquáºŃt": 4728,
      "ĠnÃ³c": 4729,
      "Ġná»Ľi": 4730,
      "ĠbÃ´i": 4731,
      "Ġphu": 4732,
      "Ġwr": 4733,
      "Ġfan": 4734,
      "Ġchuá»Ļng": 4735,
      "Ġphilad": 4736,
      "hio": 4737,
      "Ġ900": 4738,
      "Ġarch": 4739,
      "ĠnÆ¡ron": 4740,
      "Ġmoore": 4741,
      "kyo": 4742,
      "Ġbitco": 4743,
      "Ġgabby": 4744,
      "trá»Ŀi": 4745,
      "Ġentropy": 4746,
      "mÃ¡y": 4747,
      "nghe": 4748,
      "ĠcÆ°ng": 4749,
      "Ġláº©n": 4750,
      "ĠcÃ¢m": 4751,
      "Ġkenn": 4752,
      "Ġngáº£": 4753,
      "Ġngáº·t": 4754,
      "Ġpu": 4755,
      "Ġdes": 4756,
      "ĠgiÃłn": 4757,
      "Ġmá»ĭ": 4758,
      "Ġtoilet": 4759,
      "Ġtokyo": 4760,
      "ĠbÃ£": 4761,
      "ĠsÃ¡p": 4762,
      "Ġluther": 4763,
      "eti": 4764,
      "Ġwow": 4765,
      "Ġwell": 4766,
      "Ġ1930": 4767,
      "pha": 4768,
      "ĠchÃ³i": 4769,
      "ifer": 4770,
      "Ġ1994": 4771,
      "Ġ1997": 4772,
      "vers": 4773,
      "tsd": 4774,
      "Ġnation": 4775,
      "Ġpms": 4776,
      "Ġgold": 4777,
      "Ġmarket": 4778,
      "Ġnguá»Ŀi": 4779,
      "Ġgreenland": 4780,
      "Ġgandhi": 4781,
      "Ġglucose": 4782,
      "bc": 4783,
      "bin": 4784,
      "nis": 4785,
      "pal": 4786,
      "ºn": 4787,
      "Ġtá»Ļt": 4788,
      "Ġcas": 4789,
      "Ġlung": 4790,
      "Ġbell": 4791,
      "Ġsáº¡c": 4792,
      "Ġger": 4793,
      "ĠrÃ¬": 4794,
      "ĠráºŃm": 4795,
      "Ġden": 4796,
      "Ġtháº¡c": 4797,
      "Ġdoug": 4798,
      "esa": 4799,
      "Ġ52": 4800,
      "Ġjh": 4801,
      "Ġ43": 4802,
      "Ġ1900": 4803,
      "ters": 4804,
      "Ġuc": 4805,
      "Ġcolum": 4806,
      "Ġdelhi": 4807,
      "Ġphoton": 4808,
      "Ġearth": 4809,
      "Ġphiladel": 4810,
      "bl": 4811,
      "bn": 4812,
      "sc": 4813,
      "sch": 4814,
      "xy": 4815,
      "ĠcÆ°á»¡i": 4816,
      "Ġbel": 4817,
      "Ġsá»Ļ": 4818,
      "Ġpic": 4819,
      "Ġdáº¥n": 4820,
      "Ġchiáº¿t": 4821,
      "Ġnhá»įc": 4822,
      "Ġsá»¥c": 4823,
      "aig": 4824,
      "ĠnhÃºng": 4825,
      "aus": 4826,
      "ame": 4827,
      "Ġjas": 4828,
      "Ġfred": 4829,
      "ican": 4830,
      "Ġohio": 4831,
      "robi": 4832,
      "Ġeng": 4833,
      "Ġuh": 4834,
      "Ġuber": 4835,
      "pper": 4836,
      "burgh": 4837,
      "Ġredwood": 4838,
      "Ġnairobi": 4839,
      "Ġleonardo": 4840,
      "Ġtestoster": 4841,
      "Ġelizabeth": 4842,
      "ĠÄĥng": 4843,
      "Ġbitcoin": 4844,
      "Ġphiladelphia": 4845,
      "fa": 4846,
      "fel": 4847,
      "ius": 4848,
      "mad": 4849,
      "rick": 4850,
      "©y": 4851,
      "Ġtuá»Ļc": 4852,
      "Ġtáº¡c": 4853,
      "Ġcity": 4854,
      "Ġvv": 4855,
      "ĠvÃ¡": 4856,
      "Ġlá»ĳ": 4857,
      "Ġlgb": 4858,
      "Ġmk": 4859,
      "Ġbiáº¿ng": 4860,
      "Ġkan": 4861,
      "Ġss": 4862,
      "Ġson": 4863,
      "nhÃł": 4864,
      "Ġge": 4865,
      "Ġthá»ĳi": 4866,
      "Ġptsd": 4867,
      "Ġdáº¥y": 4868,
      "ĠduyÃªn": 4869,
      "Ġduá»Ĺi": 4870,
      "Ġdáº³ng": 4871,
      "Ġgiun": 4872,
      "Ġgiá»¥c": 4873,
      "ons": 4874,
      "ĠquÃ¡ng": 4875,
      "Ġngoáº·t": 4876,
      "alem": 4877,
      "Ġvictor": 4878,
      "Ġjf": 4879,
      "oton": 4880,
      "Ġxá»ķ": 4881,
      "Ġstasi": 4882,
      "Ġalice": 4883,
      "Ġalaska": 4884,
      "Ġnews": 4885,
      "ings": 4886,
      "Ġzim": 4887,
      "Ġbrad": 4888,
      "Ġcolom": 4889,
      "Ġsierra": 4890,
      "Ġtestosterone": 4891,
      "cra": 4892,
      "du": 4893,
      "jamin": 4894,
      "tuyá»ĩt": 4895,
      "zz": 4896,
      "ĠĊ": 4897,
      "ĠÄĳáº¥m": 4898,
      "Ġmr": 4899,
      "Ġgk": 4900,
      "Ġrick": 4901,
      "ĠthÃł": 4902,
      "Ġxáº¯n": 4903,
      "ĠxÃ³t": 4904,
      "Ġyale": 4905,
      "Ġquad": 4906,
      "ĠnÃ´i": 4907,
      "ĠkÃ¨n": 4908,
      "Ġviol": 4909,
      "ese": 4910,
      "ise": 4911,
      "ĠgÃ²": 4912,
      "usalem": 4913,
      "Ġcap": 4914,
      "Ġ86": 4915,
      "Ġhyper": 4916,
      "Ġbeat": 4917,
      "Ġcharlie": 4918,
      "Ġnorth": 4919,
      "Ġjerusalem": 4920,
      "Ġfoot": 4921,
      "ĠthÃªu": 4922,
      "Ġibm": 4923,
      "graph": 4924,
      "keley": 4925,
      "Ġkennedy": 4926,
      "Ġcolumbia": 4927,
      "Ġlgbt": 4928,
      "cc": 4929,
      "ji": 4930,
      "pler": 4931,
      "tim": 4932,
      "tal": 4933,
      "tá»ĳt": 4934,
      "ĠÆ°ng": 4935,
      "Ġnap": 4936,
      "Ġkos": 4937,
      "Ġsne": 4938,
      "Ġgas": 4939,
      "Ġgáº·m": 4940,
      "Ġhun": 4941,
      "ĠchÃ©n": 4942,
      "Ġgiáº§y": 4943,
      "Ġxy": 4944,
      "ĠxÃłi": 4945,
      "Ġsá»Ŀ": 4946,
      "Ġpháº£": 4947,
      "ĠhÃ¨n": 4948,
      "ais": 4949,
      "chiáº¿n": 4950,
      "Ġconn": 4951,
      "ĠcÆ¡m": 4952,
      "Ġá»Ŀ": 4953,
      "Ġrá»Ľt": 4954,
      "Ġ54": 4955,
      "Ġath": 4956,
      "Ġfg": 4957,
      "Ġfort": 4958,
      "Ġfeyn": 4959,
      "ote": 4960,
      "Ġom": 4961,
      "ase": 4962,
      "Ġroy": 4963,
      "Ġig": 4964,
      "Ġtime": 4965,
      "tha": 4966,
      "lobal": 4967,
      "ardy": 4968,
      "aza": 4969,
      "obo": 4970,
      "Ġberkeley": 4971,
      "Ġpete": 4972,
      "ylon": 4973,
      "Ġbenjamin": 4974,
      "Ġsarah": 4975,
      "Ġpix": 4976,
      "Ġháº»m": 4977,
      "tá»«": 4978,
      "Ġsandwich": 4979,
      "af": 4980,
      "cor": 4981,
      "fl": 4982,
      "hen": 4983,
      "rat": 4984,
      "tu": 4985,
      "yd": 4986,
      "ngh": 4987,
      "ĠcÃły": 4988,
      "ĠÄĳiá»ĥu": 4989,
      "ĠÄĳiáº¿u": 4990,
      "Ġnl": 4991,
      "Ġmumb": 4992,
      "Ġbj": 4993,
      "Ġbung": 4994,
      "Ġko": 4995,
      "Ġseti": 4996,
      "ĠnhÆ°á»£ng": 4997,
      "Ġthá»«ng": 4998,
      "Ġnhá»ķ": 4999,
      "Ã¡u": 5000,
      "Ġtá»©": 5001,
      "ĠlÃºng": 5002,
      "Ġná»ĵi": 5003,
      "ĠbÃº": 5004,
      "ĠnÃ²ng": 5005,
      "Ġngá»£p": 5006,
      "Ġngá»©a": 5007,
      "Ġbab": 5008,
      "Ġ4000": 5009,
      "atar": 5010,
      "Ġol": 5011,
      "Ġ64": 5012,
      "Ġcape": 5013,
      "Ġiv": 5014,
      "Ġion": 5015,
      "ĠngÃ¡ch": 5016,
      "oom": 5017,
      "Ġsuper": 5018,
      "Ġsudan": 5019,
      "agan": 5020,
      "Ġbuff": 5021,
      "Ġdub": 5022,
      "Ġ180": 5023,
      "Ġtháº§u": 5024,
      "orden": 5025,
      "Ġ1995": 5026,
      "Ġcuáº£": 5027,
      "Ġmoz": 5028,
      "Äĳá»ĥ": 5029,
      "Ġnathan": 5030,
      "Ġlink": 5031,
      "Ġbali": 5032,
      "Ġkepler": 5033,
      "Ġmississ": 5034,
      "Ġmarketing": 5035,
      "Ġfeynman": 5036,
      "Ġmumbai": 5037,
      "\")": 5038,
      "bar": 5039,
      "cer": 5040,
      "lÃł": 5041,
      "nik": 5042,
      "ĠáºŃp": 5043,
      "Ġneo": 5044,
      "Ġváº¯t": 5045,
      "ĠvÄĥng": 5046,
      "ĠvÅ©ng": 5047,
      "Ġláº§u": 5048,
      "Ġlá»Ļng": 5049,
      "Ġláº«y": 5050,
      "Ġkiáº¿p": 5051,
      "Ġtru": 5052,
      "Ġngáº¥t": 5053,
      "ĠgáºŃt": 5054,
      "Ġhid": 5055,
      "Ġhad": 5056,
      "Ġpy": 5057,
      "Ġpower": 5058,
      "Ġdc": 5059,
      "Ġcá»§i": 5060,
      "Ġsá»¥n": 5061,
      "angel": 5062,
      "Ġcháº£i": 5063,
      "Ġcháºµn": 5064,
      "Ġbá»ĭa": 5065,
      "Ġkhoáº£": 5066,
      "Ġluáº©n": 5067,
      "Ġjc": 5068,
      "Ġjes": 5069,
      "Ġláº½o": 5070,
      "Ġladen": 5071,
      "rogen": 5072,
      "Ġivan": 5073,
      "Ġ97": 5074,
      "ider": 5075,
      "omet": 5076,
      "Ġmart": 5077,
      "utan": 5078,
      "Ġkhá»©u": 5079,
      "ĠvirÃºt": 5080,
      "Ġ140": 5081,
      "Ġblah": 5082,
      "Ġplato": 5083,
      "Ġross": 5084,
      "Ġmontana": 5085,
      "pháº£i": 5086,
      "Ġchristopher": 5087,
      "Ġnhá»Ļn": 5088,
      "ippi": 5089,
      "Ġsneaker": 5090,
      "aeda": 5091,
      "bot": 5092,
      "lÃ": 5093,
      "nt": 5094,
      "nia": 5095,
      "pl": 5096,
      "py": 5097,
      "Ġ,": 5098,
      "Ġtk": 5099,
      "Ġcp": 5100,
      "Ġcer": 5101,
      "Ġny": 5102,
      "Ġnáº¡t": 5103,
      "Ġles": 5104,
      "Ġkal": 5105,
      "Ġkur": 5106,
      "Ġkab": 5107,
      "ĠsÃªn": 5108,
      "Ġtháº£n": 5109,
      "ĠgiÃª": 5110,
      "Ġgiang": 5111,
      "Ġbá»«a": 5112,
      "ĠxÃ´ng": 5113,
      "Ġphao": 5114,
      "Ġrá»įi": 5115,
      "Ġ74": 5116,
      "Ġ96": 5117,
      "Ġuv": 5118,
      "Ġhubble": 5119,
      "Ġamer": 5120,
      "lint": 5121,
      "athon": 5122,
      "Ġqaeda": 5123,
      "Ġeuro": 5124,
      "Ġbass": 5125,
      "ĠnitÆ¡": 5126,
      "Ġipad": 5127,
      "Ġsocola": 5128,
      "Ġmississippi": 5129,
      "cm": 5130,
      "men": 5131,
      "med": 5132,
      "ná»": 5133,
      "neg": 5134,
      "nÃ³i": 5135,
      "ole": 5136,
      "phá»": 5137,
      "rd": 5138,
      "tic": 5139,
      "yte": 5140,
      "¥i": 5141,
      "Ġ.": 5142,
      "Ġtiá»ĩt": 5143,
      "ĠÄĳiáº¿c": 5144,
      "ĠÄĳÆ°Æ¡c": 5145,
      "Ġnic": 5146,
      "Ġvuá»ĳt": 5147,
      "Ġvol": 5148,
      "há»įc": 5149,
      "Ġlá»Ł": 5150,
      "Ġlim": 5151,
      "Ġtruá»": 5152,
      "Ġngáº§n": 5153,
      "Ġgá»ĳm": 5154,
      "Ġhit": 5155,
      "Ġpra": 5156,
      "Ġpri": 5157,
      "Ġpost": 5158,
      "Ġrá»Ļ": 5159,
      "ĠrÃłnh": 5160,
      "Ġdáº¡n": 5161,
      "ĠÃºt": 5162,
      "Ġhooc": 5163,
      "ines": 5164,
      "Æ°Æ¡u": 5165,
      "Ġtor": 5166,
      "ĠxÃ¢u": 5167,
      "ĠxÃ£y": 5168,
      "Ġgá»£n": 5169,
      "aron": 5170,
      "imet": 5171,
      "ĠrÃ¡ch": 5172,
      "ĠxuÃ´i": 5173,
      "Ġláº¡y": 5174,
      "etti": 5175,
      "ata": 5176,
      "leans": 5177,
      "Ġ91": 5178,
      "trÃ": 5179,
      "Ġjoel": 5180,
      "star": 5181,
      "Ġprinc": 5182,
      "ows": 5183,
      "Ġsher": 5184,
      "Ġcalor": 5185,
      "Ġgamma": 5186,
      "Ġ160": 5187,
      "Ġorleans": 5188,
      "Ġleone": 5189,
      "Ġcolumb": 5190,
      "Ġbeck": 5191,
      "Ġcomp": 5192,
      "Ġcraig": 5193,
      "ield": 5194,
      "Ġseroton": 5195,
      "Ġhercul": 5196,
      "Ġnorman": 5197,
      "Ġperu": 5198,
      "Ġjones": 5199,
      "Ġheli": 5200,
      "ĠrÃ¬u": 5201,
      "Ġserotonin": 5202,
      "Ġhercules": 5203,
      ",'": 5204,
      "fur": 5205,
      "jan": 5206,
      "tan": 5207,
      "vd": 5208,
      "zi": 5209,
      "£c": 5210,
      "Ġay": 5211,
      "Ġcass": 5212,
      "Ġnung": 5213,
      "Ġnáº·c": 5214,
      "ĠnÃ¡o": 5215,
      "Ġláº«m": 5216,
      "Ġliá»ħu": 5217,
      "Ġlester": 5218,
      "ĠmÄĥng": 5219,
      "ĠbÃłnh": 5220,
      "Ġbáº§n": 5221,
      "ĠcÃµi": 5222,
      "Ġkam": 5223,
      "Ġkansas": 5224,
      "Ġngáº§u": 5225,
      "ĠchÃ¨n": 5226,
      "Ġdm": 5227,
      "ĠÄĳá»Ĺi": 5228,
      "Ġxá»Ł": 5229,
      "Ġnháº¥m": 5230,
      "ĠkhoÃ©": 5231,
      "Ġká»ĭ": 5232,
      "ĠvÃ¡c": 5233,
      "aly": 5234,
      "Ġemily": 5235,
      "ism": 5236,
      "Ġwi": 5237,
      "Ġjs": 5238,
      "Ġfr": 5239,
      "Ġfri": 5240,
      "Ġcost": 5241,
      "Ġvá»ĩt": 5242,
      "Ġ68": 5243,
      "rom": 5244,
      "Ġ82": 5245,
      "read": 5246,
      "Ġ186": 5247,
      "Ġcalo": 5248,
      "Ġmonter": 5249,
      "Ġbern": 5250,
      "Ġvenez": 5251,
      "vania": 5252,
      "Ġacid": 5253,
      "ovo": 5254,
      "Ġallen": 5255,
      "Ġeverest": 5256,
      "Ġsimon": 5257,
      "Ġindus": 5258,
      "Ġcollagen": 5259,
      "Ġsnowden": 5260,
      "Ġnational": 5261,
      "angelo": 5262,
      "):": 5263,
      ".]": 5264,
      "19": 5265,
      "gan": 5266,
      "ment": 5267,
      "wow": 5268,
      "Ġáº£m": 5269,
      "ĠcÃło": 5270,
      "Ġváº¥p": 5271,
      "Ġmiá»ĩt": 5272,
      "Ġsr": 5273,
      "Ġtriá»ħn": 5274,
      "Ġpot": 5275,
      "Ġráº£nh": 5276,
      "Ġrna": 5277,
      "Ġdem": 5278,
      "Ġdri": 5279,
      "ĠÄĳá»±": 5280,
      "Ġchuá»ĵng": 5281,
      "Ġchá»ķ": 5282,
      "Ġchá»Ļ": 5283,
      "Ġhoáº¡n": 5284,
      "ĠcÃ¡u": 5285,
      "ĠloÃ©": 5286,
      "Ġynh": 5287,
      "eno": 5288,
      "Ġlaw": 5289,
      "Ġec": 5290,
      "ĠÃ´xy": 5291,
      "Ġhigh": 5292,
      "Ġ187": 5293,
      "Ġarn": 5294,
      "elly": 5295,
      "cou": 5296,
      "Ġharry": 5297,
      "cÃ²n": 5298,
      "ylvania": 5299,
      "Ġmcdon": 5300,
      "thá»±c": 5301,
      "Ġethan": 5302,
      "ĠbÆ°á»Ľu": 5303,
      "thÃ´i": 5304,
      "Ġmetan": 5305,
      "Ġpatrick": 5306,
      "Ġcyrus": 5307,
      "sterdam": 5308,
      "Ġwright": 5309,
      "Ġcolombia": 5310,
      "Ġkosovo": 5311,
      "Ġprinceton": 5312,
      "Ġvenezu": 5313,
      "ax": 5314,
      "buck": 5315,
      "ding": 5316,
      "dney": 5317,
      "lem": 5318,
      "vin": 5319,
      "Ã¨": 5320,
      "Ġcá»Ļi": 5321,
      "ĠÄĳuá»": 5322,
      "ĠÄĳÅ©a": 5323,
      "Ġnuá»ĳi": 5324,
      "Ġnáº§y": 5325,
      "Ġvinc": 5326,
      "Ġlee": 5327,
      "Ġsb": 5328,
      "ĠtrÄĥn": 5329,
      "Ġgáº§m": 5330,
      "Ġgaza": 5331,
      "Ġhum": 5332,
      "ĠhÆ°Æ¡u": 5333,
      "Ġris": 5334,
      "Ġráº¡ch": 5335,
      "Ġrica": 5336,
      "Ġdáº«u": 5337,
      "Ġvá»ĵng": 5338,
      "Ġsá»«ng": 5339,
      "Ġhomo": 5340,
      "ĠcháºŃu": 5341,
      "Ġtrá»ı": 5342,
      "Ġhá»Ļt": 5343,
      "ĠsÃ¢m": 5344,
      "ark": 5345,
      "Ġ53": 5346,
      "Ġflint": 5347,
      "Ġvá»¥ng": 5348,
      "Ġ41": 5349,
      "Ġphil": 5350,
      "Ġphilip": 5351,
      "Ġrow": 5352,
      "ĠnghÃªnh": 5353,
      "osev": 5354,
      "Ġalpha": 5355,
      "thÆ°a": 5356,
      "Ġmax": 5357,
      "lix": 5358,
      "aha": 5359,
      "aba": 5360,
      "Ġamsterdam": 5361,
      "Ġmail": 5362,
      "Ġblock": 5363,
      "ather": 5364,
      "ĠnhoÃ¡ng": 5365,
      "Ġvancou": 5366,
      "Ġnepal": 5367,
      "Ġaug": 5368,
      "chá»ĭ": 5369,
      "Ġghim": 5370,
      "Ġdonald": 5371,
      "Ġjefferson": 5372,
      "Ġstarbuck": 5373,
      "Ġhavard": 5374,
      "Ġwolf": 5375,
      "Ġcocaine": 5376,
      "Ġhidro": 5377,
      "Ġvenezuela": 5378,
      "Ġvancouver": 5379,
      "40": 5380,
      "field": 5381,
      "flix": 5382,
      "geria": 5383,
      "hr": 5384,
      "hu": 5385,
      "ira": 5386,
      "káº»": 5387,
      "mart": 5388,
      "ning": 5389,
      "sylvania": 5390,
      "ĠÆ°á»Ľp": 5391,
      "Ġtáº¥u": 5392,
      "Ġcen": 5393,
      "Ġnorden": 5394,
      "ĠvÃ¡ng": 5395,
      "Ġlt": 5396,
      "Ġlá»ĳc": 5397,
      "Ġline": 5398,
      "Ġbil": 5399,
      "ĠcÃºng": 5400,
      "Ġkiá»ģu": 5401,
      "nhÆ°": 5402,
      "ĠngÃł": 5403,
      "ĠngÃ¡p": 5404,
      "Ġgel": 5405,
      "Ġhim": 5406,
      "Ġhec": 5407,
      "ĠrÃł": 5408,
      "Ġruss": 5409,
      "Ġdeep": 5410,
      "ĠthuyÃªn": 5411,
      "ĠxÆ°ng": 5412,
      "ĠphÃ¬nh": 5413,
      "Ġbá»±": 5414,
      "Ġhop": 5415,
      "chn": 5416,
      "ĠnhÃŃm": 5417,
      "Ġ\",": 5418,
      "Æ°Æ¡m": 5419,
      "ĠtrÃ¹": 5420,
      "Ġthuá»Ł": 5421,
      "ello": 5422,
      "itar": 5423,
      "ush": 5424,
      "uset": 5425,
      "Ġrover": 5426,
      "Ġinst": 5427,
      "Ġ6000": 5428,
      "ĠsÆ°ng": 5429,
      "ĠngÃµ": 5430,
      "ĠngÃ¢m": 5431,
      "ĠngÃ²i": 5432,
      "ado": 5433,
      "Ġalab": 5434,
      "ĠsuÃ´n": 5435,
      "ome": 5436,
      "Ġuk": 5437,
      "Ġquá»³": 5438,
      "phim": 5439,
      "Ġ125": 5440,
      "Ġ189": 5441,
      "Ġisland": 5442,
      "Ġabed": 5443,
      "Ġbonobo": 5444,
      "asha": 5445,
      "Ġalexand": 5446,
      "Ġhungary": 5447,
      "Ġcairo": 5448,
      "Ġwhite": 5449,
      "Ġtroy": 5450,
      "Ġnetflix": 5451,
      "Ġsomalia": 5452,
      "Ġlibya": 5453,
      "Ġbhutan": 5454,
      "Ġjoshua": 5455,
      "Ġvictoria": 5456,
      "graphic": 5457,
      "Ġjesus": 5458,
      "Ġcosta": 5459,
      "Ġalabama": 5460,
      "200": 5461,
      "bÃ": 5462,
      "bá»Ļ": 5463,
      "hh": 5464,
      "rÃ´": 5465,
      "rina": 5466,
      "ÃŃt": 5467,
      "ngÃły": 5468,
      "Ġnico": 5469,
      "há»ĩ": 5470,
      "Ġmg": 5471,
      "Ġmid": 5472,
      "Ġbow": 5473,
      "Ġbeet": 5474,
      "Ġkle": 5475,
      "Ġsd": 5476,
      "ĠtÃ²i": 5477,
      "Ġgm": 5478,
      "ĠgÃ´n": 5479,
      "Ġgro": 5480,
      "Ġday": 5481,
      "Ġdáº¡t": 5482,
      "Ġdvd": 5483,
      "Ġcá»Ĺi": 5484,
      "ĠxÃª": 5485,
      "ĠÄĳÃ£ng": 5486,
      "chel": 5487,
      "Ġcháº£o": 5488,
      "ĠnhÃµm": 5489,
      "ĠloÃł": 5490,
      "ĠtrÃºt": 5491,
      "ĠvÃ£n": 5492,
      "Ġyáº¿n": 5493,
      "ĠmÃºt": 5494,
      "Ġ39": 5495,
      "alth": 5496,
      "Ġxuáº©n": 5497,
      "Ġthoi": 5498,
      "isol": 5499,
      "Ġ58": 5500,
      "Ġann": 5501,
      "Ġtá»īa": 5502,
      "Ġstart": 5503,
      "Ġcampu": 5504,
      "Ġmaria": 5505,
      "Ġmarathon": 5506,
      "agos": 5507,
      "Ġ2500": 5508,
      "ĠchÃ³p": 5509,
      "Ġisis": 5510,
      "hoven": 5511,
      "Ġfrancis": 5512,
      "Ġguine": 5513,
      "Ġlatinh": 5514,
      "Ġ360": 5515,
      "Ġwarren": 5516,
      "Ġmemes": 5517,
      "ĠloÃ£ng": 5518,
      "Ġmassach": 5519,
      "Ġzimbab": 5520,
      "Ġmonterey": 5521,
      "Ġcampuchia": 5522,
      "dd": 5523,
      "dÃ": 5524,
      "gu": 5525,
      "ier": 5526,
      "ken": 5527,
      "key": 5528,
      "lor": 5529,
      "par": 5530,
      "sáº½": 5531,
      "tá»±": 5532,
      "Ġviáº¿ng": 5533,
      "há»ģ": 5534,
      "Ġlev": 5535,
      "Ġbáº§m": 5536,
      "Ġker": 5537,
      "Ġhiá»ģn": 5538,
      "ĠchÃ²m": 5539,
      "Ġráº©y": 5540,
      "Ġchanh": 5541,
      "Ġxao": 5542,
      "Ġchá»ĵn": 5543,
      "Ġpháº©y": 5544,
      "inn": 5545,
      "Ġ(\"": 5546,
      "ĠbÃºp": 5547,
      "ĠvÃ²": 5548,
      "eron": 5549,
      "orado": 5550,
      "eta": 5551,
      "etta": 5552,
      "Ġjess": 5553,
      "Ġchuck": 5554,
      "ĠtuÃ´ng": 5555,
      "ileo": 5556,
      "edes": 5557,
      "Ġ93": 5558,
      "Ġmaya": 5559,
      "omon": 5560,
      "agh": 5561,
      "Ġsanta": 5562,
      "Ġjobs": 5563,
      "Ġzam": 5564,
      "ika": 5565,
      "Ġ1996": 5566,
      "Ġ1984": 5567,
      "Ġ1989": 5568,
      "izona": 5569,
      "Ġbarack": 5570,
      "Ġneu": 5571,
      "Ġaust": 5572,
      "Ġgreat": 5573,
      "Ġebay": 5574,
      "Ġhealth": 5575,
      "Ġ1945": 5576,
      "Ġcmu": 5577,
      "Ġmoses": 5578,
      "Ġpennsylvania": 5579,
      "lahoma": 5580,
      "Ġcortisol": 5581,
      "Ġcolumbus": 5582,
      "Ġstarbucks": 5583,
      "usetts": 5584,
      "Ġzimbabwe": 5585,
      "],": 5586,
      "hol": 5587,
      "len": 5588,
      "tÃ¬nh": 5589,
      "ten": 5590,
      "tes": 5591,
      "wa": 5592,
      "zo": 5593,
      "Ã£": 5594,
      "Ġ00": 5595,
      "Ġtb": 5596,
      "ĠcáºŃt": 5597,
      "Ġcorn": 5598,
      "Ġcáº©m": 5599,
      "Ġcpu": 5600,
      "ĠÄĳu": 5601,
      "ĠÄĳáº£": 5602,
      "ĠÄĳáº«m": 5603,
      "hÃ¡t": 5604,
      "Ġleb": 5605,
      "Ġlif": 5606,
      "Ġmedia": 5607,
      "Ġsat": 5608,
      "Ġsuyá»ħn": 5609,
      "Ġtráº·c": 5610,
      "ĠngÆ°á»Ľc": 5611,
      "ĠthÃ¬nh": 5612,
      "Ġholo": 5613,
      "ond": 5614,
      "Ġcháº±ng": 5615,
      "ĠvÃ´i": 5616,
      "Ġkhá»ĳng": 5617,
      "Ġngá»Ńa": 5618,
      "Ġngoáº·c": 5619,
      "ĠrÃ¢m": 5620,
      "ĠrÃ²ng": 5621,
      "ĠrÃ¨m": 5622,
      "Ġ56": 5623,
      "Ġwo": 5624,
      "Ġjust": 5625,
      "Ġjustin": 5626,
      "Ġphili": 5627,
      "Ġtunis": 5628,
      "itia": 5629,
      "Ġroosev": 5630,
      "Ġdave": 5631,
      "Ġlak": 5632,
      "Ġtrá»¥i": 5633,
      "Ġ78": 5634,
      "Ġix": 5635,
      "adi": 5636,
      "lock": 5637,
      "trÆ°á»Ľc": 5638,
      "Ġbuck": 5639,
      "Ġarizona": 5640,
      "Ġoklahoma": 5641,
      "Ġvirut": 5642,
      "egon": 5643,
      "ennial": 5644,
      "ÄĳÃ£": 5645,
      "Ġcolorado": 5646,
      "Ġhá»ĳc": 5647,
      "asso": 5648,
      "Ġbroad": 5649,
      "Ġneur": 5650,
      "Ġbosnia": 5651,
      "Ġkhuya": 5652,
      "Ġgalileo": 5653,
      "Ġtitanic": 5654,
      "Ġairbn": 5655,
      "Ġlarry": 5656,
      "Ġenzyme": 5657,
      "Ġmichelangelo": 5658,
      "Ġgallon": 5659,
      "Ġviolin": 5660,
      "Ġconnect": 5661,
      "Ġdrive": 5662,
      "ĠÄĳá»±Æ¡c": 5663,
      "Ġalexandria": 5664,
      "Ġbeethoven": 5665,
      "Ġguinea": 5666,
      "Ġroosevelt": 5667,
      "15": 5668,
      "báº±ng": 5669,
      "dur": 5670,
      "sm": 5671,
      "sá»": 5672,
      "viá»ĩc": 5673,
      "§m": 5674,
      "ĠÃª": 5675,
      "Ġáº¯p": 5676,
      "Ġnáº¥ng": 5677,
      "Ġlew": 5678,
      "Ġlisa": 5679,
      "ĠmÆ°á»Ŀng": 5680,
      "Ġmed": 5681,
      "Ġmola": 5682,
      "Ġby": 5683,
      "Ġbáº¡t": 5684,
      "Ġsáº¥m": 5685,
      "Ġsáº£i": 5686,
      "ĠngÃ³": 5687,
      "Ġngáº¡t": 5688,
      "ĠngÃ³c": 5689,
      "Ġngáº¥m": 5690,
      "ĠgÃłng": 5691,
      "Ġgá»Łi": 5692,
      "Ġnham": 5693,
      "Ġpc": 5694,
      "Ġpac": 5695,
      "ĠrÄĥn": 5696,
      "Ġráº¡c": 5697,
      "Ġchen": 5698,
      "Ġsá»ī": 5699,
      "Ġchá»Ńng": 5700,
      "Ġchá»ĩch": 5701,
      "Ġgiá»ı": 5702,
      "Ġná»įc": 5703,
      "Ġbá»ĭp": 5704,
      "Ġloan": 5705,
      "end": 5706,
      "enna": 5707,
      "ĠgÃ¢n": 5708,
      "Ġwind": 5709,
      "Ġfe": 5710,
      "ila": 5711,
      "Ġroi": 5712,
      "Ġlaze": 5713,
      "Ġnami": 5714,
      "ides": 5715,
      "oop": 5716,
      "Ġsul": 5717,
      "Ġ1500": 5718,
      "Ġtedx": 5719,
      "Ġmargar": 5720,
      "ĠdÄ©a": 5721,
      "Ġyorker": 5722,
      "Ġart": 5723,
      "ope": 5724,
      "ego": 5725,
      "Ġ1991": 5726,
      "apagos": 5727,
      "Ġyoga": 5728,
      "Ġoregon": 5729,
      "ĠmÃ¬n": 5730,
      "cÃ¡ch": 5731,
      "Ġsyl": 5732,
      "Ġcharl": 5733,
      "Ġpaulo": 5734,
      "Ġmilo": 5735,
      "Ġpounds": 5736,
      "Ġgalapagos": 5737,
      "Ġhawking": 5738,
      "Ġurani": 5739,
      "Ġrand": 5740,
      "Ġpenic": 5741,
      "Ġkatrina": 5742,
      "Ġestrogen": 5743,
      "Ġairbnb": 5744,
      "99": 5745,
      "ká»": 5746,
      "sy": 5747,
      "Ġ<": 5748,
      "Ġtc": 5749,
      "ngá»": 5750,
      "ĠÄĳong": 5751,
      "ĠnÃ¡u": 5752,
      "Ġlitt": 5753,
      "ĠmÃ³": 5754,
      "ĠmiÃªn": 5755,
      "Ġmot": 5756,
      "Ġpas": 5757,
      "Ġpap": 5758,
      "Ġrm": 5759,
      "Ġráº«y": 5760,
      "Ġdp": 5761,
      "Ġchang": 5762,
      "Ġsá»§a": 5763,
      "ĠthÃ²i": 5764,
      "Ġrao": 5765,
      "Ġlá»±": 5766,
      "Ġnháº½": 5767,
      "Ġhouse": 5768,
      "chiáº¿c": 5769,
      "Ġ\"\"": 5770,
      "Ġháº±n": 5771,
      "ince": 5772,
      "áº¹o": 5773,
      "Ġrá»§a": 5774,
      "Ġach": 5775,
      "Ġjr": 5776,
      "ical": 5777,
      "Ġstew": 5778,
      "Ġals": 5779,
      "thal": 5780,
      "Ġtedtal": 5781,
      "Ġ2017": 5782,
      "Ġzip": 5783,
      "ift": 5784,
      "Ġbrit": 5785,
      "Ġ1975": 5786,
      "Ġsydney": 5787,
      "ava": 5788,
      "Ġash": 5789,
      "bury": 5790,
      "Ġguitar": 5791,
      "Ġmiami": 5792,
      "Ġteen": 5793,
      "Ġkeith": 5794,
      "Ġturing": 5795,
      "eopardy": 5796,
      "Ġjason": 5797,
      "Ġbabylon": 5798,
      "ĠÄĳuá»£c": 5799,
      "Ġmassachusetts": 5800,
      "Ġnamibia": 5801,
      "12": 5802,
      "bá»Łi": 5803,
      "ku": 5804,
      "let": 5805,
      "ni": 5806,
      "rch": 5807,
      "rine": 5808,
      "Ġ>": 5809,
      "Ġáº§m": 5810,
      "Ġtáº·c": 5811,
      "Ġcáº·n": 5812,
      "ĠÄĳiá»ģm": 5813,
      "Ġnáº¥p": 5814,
      "Ġlanh": 5815,
      "Ġmob": 5816,
      "ĠcÃ¹a": 5817,
      "Ġkath": 5818,
      "Ġsiáº¿t": 5819,
      "ĠtrÃ¡o": 5820,
      "ĠtÃºp": 5821,
      "Ġgw": 5822,
      "Ġgran": 5823,
      "ĠchÃ©m": 5824,
      "Ġpao": 5825,
      "Ġpit": 5826,
      "Ġráº¡ng": 5827,
      "Ġtas": 5828,
      "Ġtá»ħ": 5829,
      "Ġhous": 5830,
      "chi": 5831,
      "cher": 5832,
      "ĠnhÃŃ": 5833,
      "ink": 5834,
      "ĠdÃ£n": 5835,
      "ema": 5836,
      "Ġphai": 5837,
      "Ġdown": 5838,
      "ĠkÃ´ng": 5839,
      "alay": 5840,
      "Ġviking": 5841,
      "iÃªt": 5842,
      "Ġaz": 5843,
      "Ġfile": 5844,
      "Ġ450": 5845,
      "Ġoak": 5846,
      "asma": 5847,
      "Ġcode": 5848,
      "Ġcopy": 5849,
      "Ġanna": 5850,
      "Ġroger": 5851,
      "Ġint": 5852,
      "Ġstate": 5853,
      "thÃłnh": 5854,
      "iguel": 5855,
      "Ġ185": 5856,
      "Ġ188": 5857,
      "Ġcarneg": 5858,
      "illin": 5859,
      "ecd": 5860,
      "allas": 5861,
      "Ġmuham": 5862,
      "Ġlyn": 5863,
      "Ġedin": 5864,
      "Ġasp": 5865,
      "Ġnatasha": 5866,
      "rence": 5867,
      "uddin": 5868,
      "thá»Ŀi": 5869,
      "Ġhero": 5870,
      "point": 5871,
      "Ġjerry": 5872,
      "Ġfreud": 5873,
      "Ġshir": 5874,
      "Ġmozart": 5875,
      "Ġmcdonald": 5876,
      "Ġwindows": 5877,
      "Ġsylvia": 5878,
      "Ġcarnegie": 5879,
      "Ġmuhammad": 5880,
      "bao": 5881,
      "báº£n": 5882,
      "bus": 5883,
      "get": 5884,
      "iri": 5885,
      "kt": 5886,
      "nÆ°á»Ľc": 5887,
      "nest": 5888,
      "pid": 5889,
      "rr": 5890,
      "ston": 5891,
      "uce": 5892,
      "yon": 5893,
      "£nh": 5894,
      "Ġcard": 5895,
      "Ġnik": 5896,
      "Ġváº¡t": 5897,
      "ĠvÃ³c": 5898,
      "Ġmá»Ļi": 5899,
      "Ġkr": 5900,
      "Ġkit": 5901,
      "Ġsin": 5902,
      "Ġsir": 5903,
      "ĠngÆ¡": 5904,
      "Ġhp": 5905,
      "Ġhem": 5906,
      "ĠhÃłu": 5907,
      "Ġpa": 5908,
      "Ġren": 5909,
      "ĠdiÃªm": 5910,
      "Ġdá»ĳt": 5911,
      "Ġdáº«m": 5912,
      "Ġdallas": 5913,
      "Ġhá»Ŀi": 5914,
      "Ġgiuss": 5915,
      "Ġsá»¡": 5916,
      "Ġnháº±n": 5917,
      "Ġbá»¥c": 5918,
      "Ġhood": 5919,
      "ĠnhÃºn": 5920,
      "Ġná»ĥ": 5921,
      "ĠdÃ¨": 5922,
      "á»ĵn": 5923,
      "Ġtoron": 5924,
      "Ġkhoanh": 5925,
      "ĠkhoÃ¡t": 5926,
      "emy": 5927,
      "emin": 5928,
      "Ġkhá»Ŀ": 5929,
      "ĠÄĳÃ¡i": 5930,
      "Ġkhuáº¥y": 5931,
      "etown": 5932,
      "Ġ59": 5933,
      "Ġwoo": 5934,
      "Ġjay": 5935,
      "athan": 5936,
      "Ġ1920": 5937,
      "lex": 5938,
      "Ġ84": 5939,
      "urt": 5940,
      "Ġ10000": 5941,
      "thew": 5942,
      "Ġrobin": 5943,
      "ington": 5944,
      "lian": 5945,
      "ager": 5946,
      "Ġbut": 5947,
      "Ġ1800": 5948,
      "ĠchÃ³t": 5949,
      "utnik": 5950,
      "Ġprince": 5951,
      "ops": 5952,
      "Ġ1993": 5953,
      "Ġgeographic": 5954,
      "Ġmount": 5955,
      "tech": 5956,
      "Ġjamai": 5957,
      "Ġdanny": 5958,
      "burger": 5959,
      "Ġwalmart": 5960,
      "Ġserg": 5961,
      "Ġmaryland": 5962,
      "Ġjonathan": 5963,
      "ough": 5964,
      "giá»Ŀ": 5965,
      "giá»įng": 5966,
      "Ġmeme": 5967,
      "Ġlhc": 5968,
      "Ġjacqu": 5969,
      "timore": 5970,
      "Ġpowerpoint": 5971,
      "Ġethanol": 5972,
      "Ġhecta": 5973,
      "Ġpenicillin": 5974,
      "Ġedinburgh": 5975,
      "Ġtoronto": 5976,
      "].": 5977,
      "bÃłi": 5978,
      "bÃ¢y": 5979,
      "cs": 5980,
      "can": 5981,
      "day": 5982,
      "fus": 5983,
      "gon": 5984,
      "ray": 5985,
      "str": 5986,
      "uh": 5987,
      "uz": 5988,
      "Ġard": 5989,
      "Ľc": 5990,
      "Ġtit": 5991,
      "ĠniÃªm": 5992,
      "Ġlit": 5993,
      "Ġláº±n": 5994,
      "Ġmck": 5995,
      "Ġmul": 5996,
      "Ġmoma": 5997,
      "Ġsá»Łi": 5998,
      "ĠtÃ©": 5999,
      "Ġglobal": 6000,
      "Ġthá»ģm": 6001,
      "Ġpor": 6002,
      "Ġnhá»ĳi": 6003,
      "ĠnÃłnh": 6004,
      "Ġxiáº¿c": 6005,
      "Ġrad": 6006,
      "Ġgiá»Ŀi": 6007,
      "ĠhoÃ³c": 6008,
      "ont": 6009,
      "ĠhÃ³t": 6010,
      "ĠcháºŃp": 6011,
      "ĠnhÃ¬": 6012,
      "ĠnhÃ£ng": 6013,
      "Ġháº¯t": 6014,
      "ĠphÃłm": 6015,
      "ĠkÃ©n": 6016,
      "Ġrá»¥i": 6017,
      "Ġax": 6018,
      "Ġjud": 6019,
      "Ġfed": 6020,
      "Ġdiego": 6021,
      "ital": 6022,
      "Ġoecd": 6023,
      "Ġcohen": 6024,
      "Ġ94": 6025,
      "Ġ88": 6026,
      "Äĳo": 6027,
      "Ġhipp": 6028,
      "ĠuÃ½": 6029,
      "iger": 6030,
      "Ġcamp": 6031,
      "tru": 6032,
      "agram": 6033,
      "abyte": 6034,
      "owan": 6035,
      "mann": 6036,
      "Ġandro": 6037,
      "Ġharri": 6038,
      "Ġjohnny": 6039,
      "Ġ1988": 6040,
      "Ġyou": 6041,
      "oko": 6042,
      "ĠxÃ³i": 6043,
      "Ġplasma": 6044,
      "thá»©": 6045,
      "Ġbaltimore": 6046,
      "ational": 6047,
      "Ġmatthew": 6048,
      "Ġmillennial": 6049,
      "Ġtenness": 6050,
      "Ġzambia": 6051,
      "Ġlewis": 6052,
      "Ġmargaret": 6053,
      "Ġstewart": 6054,
      "Ġgiussani": 6055,
      "100": 6056,
      "die": 6057,
      "ef": 6058,
      "gram": 6059,
      "hai": 6060,
      "ih": 6061,
      "iv": 6062,
      "kim": 6063,
      "mÃły": 6064,
      "ns": 6065,
      "nic": 6066,
      "national": 6067,
      "rá»ĵi": 6068,
      "tra": 6069,
      "zler": 6070,
      "Ġell": 6071,
      "Ġone": 6072,
      "áº©ng": 6073,
      "Ġct": 6074,
      "Ġlp": 6075,
      "Ġmm": 6076,
      "Ġmol": 6077,
      "Ġbor": 6078,
      "áº¡y": 6079,
      "ĠngÆ°á»£ng": 6080,
      "Ġngáº©ng": 6081,
      "Ġgáº·t": 6082,
      "Ġghá»ģ": 6083,
      "Ġpass": 6084,
      "Ġdj": 6085,
      "Ġdur": 6086,
      "Ġdáº·n": 6087,
      "Ġcá»ıi": 6088,
      "Æ¡m": 6089,
      "Ġtah": 6090,
      "Ġgiáº¥m": 6091,
      "ĠxÃło": 6092,
      "Ġchá»ı": 6093,
      "chu": 6094,
      "Ġcháº¯p": 6095,
      "Ġ\"(": 6096,
      "Ġtour": 6097,
      "ĠbÃŃp": 6098,
      "ĠbÃ¹m": 6099,
      "Ġthun": 6100,
      "ĠmÃ©p": 6101,
      "Ġgá»ī": 6102,
      "ĠnÃŃu": 6103,
      "ĠrÃ¹ng": 6104,
      "Ġvis": 6105,
      "Ġxua": 6106,
      "elle": 6107,
      "ister": 6108,
      "ette": 6109,
      "Ġ57": 6110,
      "Ġwin": 6111,
      "Ġfm": 6112,
      "Ġfutu": 6113,
      "ats": 6114,
      "Ġ62": 6115,
      "Ġ66": 6116,
      "Ġstein": 6117,
      "osph": 6118,
      "Ġsum": 6119,
      "omen": 6120,
      "real": 6121,
      "loid": 6122,
      "Ġmarsh": 6123,
      "ague": 6124,
      "Ġbud": 6125,
      "rich": 6126,
      "chÃº": 6127,
      "Ġjohan": 6128,
      "Ġbir": 6129,
      "Ġ1987": 6130,
      "Ġhamburger": 6131,
      "Ġblogger": 6132,
      "Ġneander": 6133,
      "Ġlinux": 6134,
      "Ġwilson": 6135,
      "Ġ1940": 6136,
      "cháº¯c": 6137,
      "Ġoscar": 6138,
      "Ġlá»¥i": 6139,
      "Ġskype": 6140,
      "Ġfried": 6141,
      "Ġhimalay": 6142,
      "Ġphilipp": 6143,
      "Ġlittle": 6144,
      "Ġharriet": 6145,
      "Ġtennessee": 6146,
      "Ġneanderthal": 6147,
      "bu": 6148,
      "ean": 6149,
      "iro": 6150,
      "rai": 6151,
      "uit": 6152,
      "xe": 6153,
      "xanh": 6154,
      "xem": 6155,
      "«m": 6156,
      "¹t": 6157,
      "Ġcro": 6158,
      "Ġnin": 6159,
      "Ġnáº·n": 6160,
      "Ġnoi": 6161,
      "há»Ļ": 6162,
      "ĠlÆ°": 6163,
      "Ġmath": 6164,
      "Ġmiguel": 6165,
      "Ġkelly": 6166,
      "Ġgor": 6167,
      "Ġgard": 6168,
      "Ġthá»¥c": 6169,
      "Ġpand": 6170,
      "Ġráº¯m": 6171,
      "Ġrec": 6172,
      "Ġdeb": 6173,
      "Ġdyl": 6174,
      "Ġdáº±n": 6175,
      "Ġhá»§": 6176,
      "Ġtá»ĥ": 6177,
      "Ġmá»¥n": 6178,
      "ano": 6179,
      "any": 6180,
      "anon": 6181,
      "Ġhot": 6182,
      "ĠhÃ©o": 6183,
      "ĠhÃ£nh": 6184,
      "chain": 6185,
      "ĠlÃµng": 6186,
      "Ġphá»ĵn": 6187,
      "eman": 6188,
      "Ġphiá»ĩt": 6189,
      "ering": 6190,
      "Ġdoaa": 6191,
      "ĠgiÃ²n": 6192,
      "ĠmÃº": 6193,
      "ĠsÃ©c": 6194,
      "ĠnÃ¨": 6195,
      "ars": 6196,
      "eline": 6197,
      "Ġrá»£": 6198,
      "ete": 6199,
      "Ġwk": 6200,
      "icut": 6201,
      "ĠtuÃ´n": 6202,
      "ator": 6203,
      "Ġoc": 6204,
      "Ġanth": 6205,
      "Ġrom": 6206,
      "Ġcapt": 6207,
      "Ġek": 6208,
      "Ġeve": 6209,
      "act": 6210,
      "Äĳáº§u": 6211,
      "adus": 6212,
      "Ġrobots": 6213,
      "trÃ¡i": 6214,
      "ifi": 6215,
      "Ġnháº¡i": 6216,
      "eller": 6217,
      "berry": 6218,
      "Ġcaltech": 6219,
      "ffiti": 6220,
      "Ġharlem": 6221,
      "nhá»ĭp": 6222,
      "Ġatm": 6223,
      "Ġdean": 6224,
      "Ġbeach": 6225,
      "Ġmcc": 6226,
      "Ġgod": 6227,
      "giÃ¡o": 6228,
      "Ġwiki": 6229,
      "Ġiii": 6230,
      "Ġnhá»ĭn": 6231,
      "Ġsars": 6232,
      "cá»§a": 6233,
      "ucker": 6234,
      "Ġwilliams": 6235,
      "Ġjackson": 6236,
      "Ġkilomet": 6237,
      "Ġamyloid": 6238,
      "celadus": 6239,
      "Ġdomitia": 6240,
      "Ġportland": 6241,
      "Ġmá»ĭn": 6242,
      "Ġpicasso": 6243,
      "phá»¥": 6244,
      "Ġinstagram": 6245,
      "Ġtunisia": 6246,
      "Ġconnecticut": 6247,
      "Ġjamaica": 6248,
      "Ġfutura": 6249,
      "Ġpandora": 6250,
      "Ġdylan": 6251,
      ",.": 6252,
      "24": 6253,
      "bul": 6254,
      "df": 6255,
      "dg": 6256,
      "dson": 6257,
      "lau": 6258,
      "sau": 6259,
      "siÃªu": 6260,
      "uino": 6261,
      "vo": 6262,
      "¡nh": 6263,
      "Ġtáº±m": 6264,
      "Ġcau": 6265,
      "Ġcuá»ĳng": 6266,
      "Ġvest": 6267,
      "Ġliá»ģm": 6268,
      "Ġkay": 6269,
      "Ġsex": 6270,
      "Ġgy": 6271,
      "Ġgara": 6272,
      "Ġhs": 6273,
      "Ġhind": 6274,
      "Ġpur": 6275,
      "Ġrg": 6276,
      "Ġreb": 6277,
      "ĠrÃ³t": 6278,
      "ĠrÆ°á»Łi": 6279,
      "Ġdh": 6280,
      "Ġdisco": 6281,
      "Ġtar": 6282,
      "Ġquáº³ng": 6283,
      "Ġkhuá»·": 6284,
      "Ġsáº¯n": 6285,
      "Ġlá»ıi": 6286,
      "Ġdá»«a": 6287,
      "Ġphá»ī": 6288,
      "Ġloren": 6289,
      "Ġpher": 6290,
      "ĠvÃµ": 6291,
      "Ġsaudi": 6292,
      "arch": 6293,
      "arus": 6294,
      "ĠviÃª": 6295,
      "Ġthoáº¡t": 6296,
      "ĠgÃ£i": 6297,
      "Ġwood": 6298,
      "Ġft": 6299,
      "Ġful": 6300,
      "Ġdiox": 6301,
      "Ġtuá»Ļt": 6302,
      "ilon": 6303,
      "hire": 6304,
      "hium": 6305,
      "hidi": 6306,
      "Ġdavis": 6307,
      "Ġindi": 6308,
      "Ġ61": 6309,
      "Ġ67": 6310,
      "Ġcad": 6311,
      "olis": 6312,
      "ĠngÃ¹ng": 6313,
      "Äĳá»ĵng": 6314,
      "Ġsty": 6315,
      "...,": 6316,
      "agas": 6317,
      "aho": 6318,
      "Ġjoan": 6319,
      "ĠprÃ´": 6320,
      "bera": 6321,
      "Ġadren": 6322,
      "ega": 6323,
      "Ġgames": 6324,
      "Ġyoung": 6325,
      "Ġspock": 6326,
      "awa": 6327,
      "awi": 6328,
      "Ġ1973": 6329,
      "cÃ¢u": 6330,
      "Ġ1968": 6331,
      "Ġbert": 6332,
      "Ġenceladus": 6333,
      "vÃ¹ng": 6334,
      "chá»§": 6335,
      "Ġbilly": 6336,
      "Ġnoah": 6337,
      "ropa": 6338,
      "Ġfranklin": 6339,
      "Ġngháº¹t": 6340,
      "Ġeuropa": 6341,
      "Ġhelen": 6342,
      "Ġmaur": 6343,
      "Ġteszler": 6344,
      "Ġenzym": 6345,
      "Ġcheryl": 6346,
      "Ġtennis": 6347,
      "Ġidaho": 6348,
      "Ġwhitopia": 6349,
      "Ġtalk": 6350,
      "Ġcalories": 6351,
      "Ġchá»Ļp": 6352,
      "Ġlawrence": 6353,
      "Ġblockchain": 6354,
      "Ġlebanon": 6355,
      "Ġoakland": 6356,
      "Ġlithium": 6357,
      "báº¥t": 6358,
      "bol": 6359,
      "bara": 6360,
      "cam": 6361,
      "dt": 6362,
      "dia": 6363,
      "des": 6364,
      "kinh": 6365,
      "kin": 6366,
      "mÃ": 6367,
      "ois": 6368,
      "oid": 6369,
      "rk": 6370,
      "tz": 6371,
      "tro": 6372,
      "¡i": 6373,
      "´m": 6374,
      "Ġill": 6375,
      "ĠtÃł": 6376,
      "Ġteo": 6377,
      "Ġcle": 6378,
      "Ġnuc": 6379,
      "Ġvr": 6380,
      "Ġlá»ĳp": 6381,
      "Ġmáº«n": 6382,
      "Ġmans": 6383,
      "Ġbáº¥p": 6384,
      "Ġbever": 6385,
      "ĠcÃºp": 6386,
      "ĠsÃłnh": 6387,
      "Ġsad": 6388,
      "Ġsri": 6389,
      "Ġtrau": 6390,
      "ĠtrÆ°á»Ľng": 6391,
      "ĠtÃ£": 6392,
      "ĠgÃ¡y": 6393,
      "Ġres": 6394,
      "Ġráº§y": 6395,
      "Ġduá»": 6396,
      "Ġdam": 6397,
      "Ġcá»«": 6398,
      "Ġcham": 6399,
      "ĠchÄ©a": 6400,
      "Ġther": 6401,
      "Ġquáº¥t": 6402,
      "Ġsá»¯ng": 6403,
      "Ġsá»įc": 6404,
      "ĠthÃ¢y": 6405,
      "ays": 6406,
      "Ġrang": 6407,
      "Ġnháº£m": 6408,
      "ĠÃºp": 6409,
      "ĠhoÃ¡n": 6410,
      "Ġ\"-": 6411,
      "inda": 6412,
      "ĠtrÃ²ng": 6413,
      "emala": 6414,
      "ery": 6415,
      "Ġluá»ĵn": 6416,
      "ĠkhÃ¡nh": 6417,
      "alo": 6418,
      "Ġrá»¯a": 6419,
      "Ġrá»£n": 6420,
      "ĠgÃ¹": 6421,
      "Ġwir": 6422,
      "Ġ49": 6423,
      "atin": 6424,
      "its": 6425,
      "ites": 6426,
      "otte": 6427,
      "Ġcoper": 6428,
      "Ġroman": 6429,
      "Ġ63": 6430,
      "olas": 6431,
      "Ġ76": 6432,
      "ads": 6433,
      "Ġstr": 6434,
      "urn": 6435,
      "ree": 6436,
      "Ġcameron": 6437,
      "Ġbruce": 6438,
      "Ġ1992": 6439,
      "Ġ170": 6440,
      "ĠnhÃ¡p": 6441,
      "Ġ1982": 6442,
      "Ġ1986": 6443,
      "Ġsputnik": 6444,
      "Ġedison": 6445,
      "Ġ1965": 6446,
      "Ġ1969": 6447,
      "Ġneil": 6448,
      "Ġmendel": 6449,
      "Ġguat": 6450,
      "Ġgogh": 6451,
      "Ġwales": 6452,
      "Ġrosetta": 6453,
      "Ġsamuel": 6454,
      "Ġsiberia": 6455,
      "Ġuni": 6456,
      "cháº³ng": 6457,
      "Ġeucl": 6458,
      "Ġgrace": 6459,
      "Ġgraffiti": 6460,
      "othy": 6461,
      "Ġmontreal": 6462,
      "oshop": 6463,
      "Ġtrek": 6464,
      "Ġpeps": 6465,
      "Ġphotoshop": 6466,
      "hahidi": 6467,
      "Ġeverg": 6468,
      "Ġpolymer": 6469,
      "khoáº£ng": 6470,
      "Ġlhq": 6471,
      "Ġcnn": 6472,
      "Ġkyoto": 6473,
      "Ġengland": 6474,
      "Ġaugust": 6475,
      "Ġwolfram": 6476,
      "Ġhouston": 6477,
      "eminist": 6478,
      "Ġarduino": 6479,
      "Ġandroid": 6480,
      "Ġadrenal": 6481,
      "Ġeuclid": 6482,
      "bÃ¡c": 6483,
      "cus": 6484,
      "cent": 6485,
      "eera": 6486,
      "hay": 6487,
      "hÃłnh": 6488,
      "ject": 6489,
      "lam": 6490,
      "more": 6491,
      "ool": 6492,
      "ouri": 6493,
      "ril": 6494,
      "sin": 6495,
      "she": 6496,
      "sky": 6497,
      "wh": 6498,
      "wai": 6499,
      "Ġella": 6500,
      "á»Ŀ": 6501,
      "Ġtkm": 6502,
      "Ġcs": 6503,
      "Ġnu": 6504,
      "Ġnáº¡i": 6505,
      "Ġnom": 6506,
      "Ġnev": 6507,
      "Ġnba": 6508,
      "ĠvÃª": 6509,
      "ĠvÆ¡": 6510,
      "Ġláº¡t": 6511,
      "Ġliáº¿c": 6512,
      "ĠmÆ°á»£t": 6513,
      "Ġks": 6514,
      "Ġkong": 6515,
      "Ġsáº§u": 6516,
      "Ġsáº£y": 6517,
      "Ġseb": 6518,
      "ĠtrÆ¡": 6519,
      "ĠÄĳÃºt": 6520,
      "Ġhas": 6521,
      "Ġrl": 6522,
      "ĠrÃ¡n": 6523,
      "Ġrum": 6524,
      "Ġdick": 6525,
      "Ġvá»ĥ": 6526,
      "Ġvá»Ľt": 6527,
      "Ġthiá»ĥn": 6528,
      "quy": 6529,
      "Ġkha": 6530,
      "Ġgiá»¡n": 6531,
      "Ġlá»¯": 6532,
      "Ġhome": 6533,
      "ĠhÃª": 6534,
      "Ġtrá»į": 6535,
      "ĠdÃ£i": 6536,
      "ĠtoÃ¡t": 6537,
      "ĠtrÃ¢u": 6538,
      "emen": 6539,
      "ĠvÃ©t": 6540,
      "Ġdor": 6541,
      "ĠmÃ¡ch": 6542,
      "ĠnÃ²i": 6543,
      "áº¹t": 6544,
      "etz": 6545,
      "Ġjul": 6546,
      "Ġjeopardy": 6547,
      "ater": 6548,
      "Ġcoke": 6549,
      "ili": 6550,
      "raz": 6551,
      "Ġ77": 6552,
      "Ġ83": 6553,
      "Ġeast": 6554,
      "unk": 6555,
      "thiáº¿t": 6556,
      "Ġnhuáº§n": 6557,
      "Ġut": 6558,
      "nett": 6559,
      "ineph": 6560,
      "rie": 6561,
      "Ġ2018": 6562,
      "Ġcarter": 6563,
      "abad": 6564,
      "Ġzero": 6565,
      "Ġruá»Ļng": 6566,
      "Ġgood": 6567,
      "Ġisiri": 6568,
      "Ġ1983": 6569,
      "eek": 6570,
      "irin": 6571,
      "Ġ1976": 6572,
      "Ġboong": 6573,
      "Ġmilimet": 6574,
      "Ġmcg": 6575,
      "Ġwalter": 6576,
      "Ġwalker": 6577,
      "Ġsmart": 6578,
      "Ġushahidi": 6579,
      "Ġvenice": 6580,
      "Ġreagan": 6581,
      "isha": 6582,
      "Ġqatar": 6583,
      "Ġkibera": 6584,
      "Ġschool": 6585,
      "Ġpanama": 6586,
      "Ġhondur": 6587,
      "Ġjennifer": 6588,
      "Ġsomali": 6589,
      "Ġoliver": 6590,
      "Ġfortune": 6591,
      "Ġpixar": 6592,
      "Ġneuron": 6593,
      "Ġcharlotte": 6594,
      "Ġtedtalk": 6595,
      "Ġpepsi": 6596,
      "inephrine": 6597,
      "Ġhonduras": 6598,
      "bÃ³ng": 6599,
      "cal": 6600,
      "cow": 6601,
      "flu": 6602,
      "gus": 6603,
      "hy": 6604,
      "khá»": 6605,
      "nie": 6606,
      "rl": 6607,
      "ror": 6608,
      "sw": 6609,
      "ty": 6610,
      "uba": 6611,
      "váº¥n": 6612,
      "vian": 6613,
      "ĠuyÃªn": 6614,
      "Ġil": 6615,
      "ĩp": 6616,
      "Ġcia": 6617,
      "Ġcast": 6618,
      "Ġnao": 6619,
      "Ġbeta": 6620,
      "ĠkiÃªm": 6621,
      "háº£": 6622,
      "Ġster": 6623,
      "Ġsur": 6624,
      "ĠtrÅ©ng": 6625,
      "ĠtÃ½": 6626,
      "Ġngháº¿": 6627,
      "Ġhw": 6628,
      "Ġhey": 6629,
      "Ġráº§m": 6630,
      "Ġreg": 6631,
      "Ġdáº¿": 6632,
      "Ġvá»¥t": 6633,
      "Ġnhá»Ń": 6634,
      "Ġkhay": 6635,
      "Ġsá»ĩt": 6636,
      "ĠthÃ¢u": 6637,
      "Ġchá»¯ng": 6638,
      "Ġchá»Ńi": 6639,
      "Ġcholes": 6640,
      "ĠhÃ¹m": 6641,
      "ĠlÃµm": 6642,
      "Ġtrá»ĵi": 6643,
      "ĠdÃ©p": 6644,
      "Ġtoy": 6645,
      "ĠtoÃ¡i": 6646,
      "Ġyah": 6647,
      "Ġkháº¯t": 6648,
      "ĠsÃ£o": 6649,
      "arr": 6650,
      "ĠrÃŃt": 6651,
      "alus": 6652,
      "Ġphá»¥ng": 6653,
      "Ġbabb": 6654,
      "Ġact": 6655,
      "Ġout": 6656,
      "Ġcook": 6657,
      "Ġanton": 6658,
      "vá»Ľi": 6659,
      "Ġlady": 6660,
      "terol": 6661,
      "Ġstory": 6662,
      "unch": 6663,
      "Ġquá»ĩ": 6664,
      "Ġmars": 6665,
      "aga": 6666,
      "Ġcanxi": 6667,
      "umann": 6668,
      "chÃŃnh": 6669,
      "rane": 6670,
      "Ġcarib": 6671,
      "Ġarab": 6672,
      "stan": 6673,
      "Ġvá»£t": 6674,
      "uten": 6675,
      "ecca": 6676,
      "egas": 6677,
      "Ġcup": 6678,
      "Ġ1985": 6679,
      "eech": 6680,
      "Ġnanop": 6681,
      "Ġorwell": 6682,
      "ĠhÃ²m": 6683,
      "Ġaur": 6684,
      "Ġnauy": 6685,
      "ĠgoÃ¡": 6686,
      "Ġplan": 6687,
      "Ġsamar": 6688,
      "inder": 6689,
      "má»Ĺi": 6690,
      "Ġpier": 6691,
      "Ġqueens": 6692,
      "Ġhormon": 6693,
      "Ġfergus": 6694,
      "Ġjazeera": 6695,
      "khu": 6696,
      "Ġwhoa": 6697,
      "mstrong": 6698,
      "Ġwei": 6699,
      "Ġhitler": 6700,
      "Ġcassini": 6701,
      "Ġecua": 6702,
      "Ġvinci": 6703,
      "Ġjesse": 6704,
      "Ġjustine": 6705,
      "Ġheroin": 6706,
      "Ġhindu": 6707,
      "Ġkhuá»·u": 6708,
      "ĠviÃªc": 6709,
      "Ġguatemala": 6710,
      "Ġeverglad": 6711,
      "Ġisirika": 6712,
      "Ġngháº¿ch": 6713,
      "Ġcholesterol": 6714,
      "Ġferguson": 6715,
      "bÃ¬nh": 6716,
      "ience": 6717,
      "kÃ": 6718,
      "ml": 6719,
      "máº¥t": 6720,
      "press": 6721,
      "ss": 6722,
      "tÃ": 6723,
      "tus": 6724,
      "Ġáº¡t": 6725,
      "Ġttt": 6726,
      "Ġliáº¿m": 6727,
      "Ġmáº§u": 6728,
      "ĠbiÃªt": 6729,
      "ĠcÃ²ng": 6730,
      "Ġkent": 6731,
      "ĠsÃ¡n": 6732,
      "Ġsony": 6733,
      "ĠhÅ©": 6734,
      "Ġhall": 6735,
      "ĠchÃ¨": 6736,
      "Ġrev": 6737,
      "ĠrÆ¡m": 6738,
      "Ġchuá»Ļc": 6739,
      "Ġhá»ĳt": 6740,
      "Äĥc": 6741,
      "Ġmá»¥": 6742,
      "Ġrachel": 6743,
      "Ġnháº£": 6744,
      "ĠmÃło": 6745,
      "Ġ-\"": 6746,
      "Ä©u": 6747,
      "onia": 6748,
      "ones": 6749,
      "chell": 6750,
      "Ã´c": 6751,
      "Ġtol": 6752,
      "ĠbÃŃch": 6753,
      "Ġlor": 6754,
      "ement": 6755,
      "Ġphiáº¿m": 6756,
      "Ġdodo": 6757,
      "arin": 6758,
      "alog": 6759,
      "esar": 6760,
      "eter": 6761,
      "Ġword": 6762,
      "Ġwifi": 6763,
      "Ġace": 6764,
      "Ġaaron": 6765,
      "Ġjl": 6766,
      "Ġchurch": 6767,
      "atma": 6768,
      "ition": 6769,
      "Ġow": 6770,
      "Ġike": 6771,
      "Ġ87": 6772,
      "Ġtá»ĩp": 6773,
      "Ġteddy": 6774,
      "Ġlanka": 6775,
      "ign": 6776,
      "igo": 6777,
      "Ġmario": 6778,
      "Ġhudson": 6779,
      "Ġarmstrong": 6780,
      "Ġ110": 6781,
      "illa": 6782,
      "iflu": 6783,
      "dives": 6784,
      "egal": 6785,
      "Ġisab": 6786,
      "Ġbá»ķn": 6787,
      "Ġ1600": 6788,
      "enny": 6789,
      "awatt": 6790,
      "Ġabu": 6791,
      "Ġaustr": 6792,
      "Ġmá»ĵm": 6793,
      "Ġváº¹t": 6794,
      "Ġflash": 6795,
      "Ġtamiflu": 6796,
      "Ġmaldives": 6797,
      "Ġplay": 6798,
      "bour": 6799,
      "Ġcents": 6800,
      "Ġburger": 6801,
      "cá»©": 6802,
      "Ġgraham": 6803,
      "Ġmadagas": 6804,
      "Ġjimmy": 6805,
      "Ġká»ģnh": 6806,
      "nhÃ¢n": 6807,
      "Ġfound": 6808,
      "Ġwater": 6809,
      "Ġmissouri": 6810,
      "Ġmahatma": 6811,
      "Ġvalley": 6812,
      "Ġbrexit": 6813,
      "ĠÄĳÃªn": 6814,
      "Ġmurray": 6815,
      "Ġnapole": 6816,
      "Ġathen": 6817,
      "Ġdublin": 6818,
      "Ġ747": 6819,
      "Ġlakota": 6820,
      "Ġuranium": 6821,
      "Ġtcn": 6822,
      "Ġmountain": 6823,
      "Ġjacques": 6824,
      "Ġtitus": 6825,
      "Ġnanopatch": 6826,
      "Ġtttm": 6827,
      "Ġmadagascar": 6828,
      "Ġnapoleon": 6829,
      "11": 6830,
      "báº¯t": 6831,
      "bes": 6832,
      "cas": 6833,
      "mes": 6834,
      "oy": 6835,
      "tiáº¿n": 6836,
      "ura": 6837,
      "wal": 6838,
      "word": 6839,
      "xote": 6840,
      "zÆ¡": 6841,
      "zÃ´n": 6842,
      "ĠÆ°Æ¡i": 6843,
      "ķng": 6844,
      "Ŀng": 6845,
      "ngo": 6846,
      "Ġcáº±m": 6847,
      "Ġcur": 6848,
      "ĠÄĳÆ°á»Ŀi": 6849,
      "Ġnáº§n": 6850,
      "ĠnÆ°Æ¡ng": 6851,
      "Ġnar": 6852,
      "Ġnot": 6853,
      "Ġvegas": 6854,
      "hÃ´m": 6855,
      "Ġláº¹": 6856,
      "Ġluyáº¿n": 6857,
      "Ġmáº¯ng": 6858,
      "ĠbáºŃp": 6859,
      "Ġbest": 6860,
      "Ġbbc": 6861,
      "Ġkara": 6862,
      "Ġtron": 6863,
      "Ġgary": 6864,
      "ĠÄĳÃ¹ng": 6865,
      "Ġhong": 6866,
      "Ġnhung": 6867,
      "Ġthá»¥t": 6868,
      "Ġpre": 6869,
      "Ġpros": 6870,
      "Ġpdf": 6871,
      "Ġryan": 6872,
      "ĠkhÃŃt": 6873,
      "Ġchao": 6874,
      "ĠchÆ°á»Ŀng": 6875,
      "Ġchat": 6876,
      "Ã¬m": 6877,
      "Ġmá»©t": 6878,
      "anie": 6879,
      "Ġnháº¹n": 6880,
      "Ġbá»«ng": 6881,
      "ange": 6882,
      "ĠnhÃ²m": 6883,
      "aurus": 6884,
      "iness": 6885,
      "Ġlov": 6886,
      "Ġloanh": 6887,
      "eral": 6888,
      "enix": 6889,
      "ĠgiÃ´ng": 6890,
      "Ġluke": 6891,
      "ĠnÃºm": 6892,
      "Ġbaker": 6893,
      "Ġjih": 6894,
      "Ġfeminist": 6895,
      "atbox": 6896,
      "Ġoff": 6897,
      "Ġroll": 6898,
      "robot": 6899,
      "ĠchÃ¡o": 6900,
      "ĠÃ´zÃ´n": 6901,
      "phin": 6902,
      "tral": 6903,
      "Ġcanyon": 6904,
      "Ġbul": 6905,
      "able": 6906,
      "Ġbren": 6907,
      "Ġelon": 6908,
      "Ġandes": 6909,
      "Ġandre": 6910,
      "ape": 6911,
      "Ġspe": 6912,
      "beatbox": 6913,
      "Ġbarbie": 6914,
      "Ġboul": 6915,
      "Ġdarfur": 6916,
      "Ġguard": 6917,
      "Ġnoel": 6918,
      "Ġquixote": 6919,
      "astian": 6920,
      "Ġbalk": 6921,
      "inois": 6922,
      "thÃ¬": 6923,
      "Ġparker": 6924,
      "Ġchristian": 6925,
      "Ġdonna": 6926,
      "ween": 6927,
      "Ġagnes": 6928,
      "Ġmorgan": 6929,
      "Ġminnes": 6930,
      "Ġolympics": 6931,
      "Ġlucifer": 6932,
      "Ġsenegal": 6933,
      "Ġsusan": 6934,
      "Ġucla": 6935,
      "Ġomega": 6936,
      "Ġarnold": 6937,
      "Ġnicole": 6938,
      "Ġpitts": 6939,
      "Ġcaptcha": 6940,
      "Ġbabbage": 6941,
      "Ġeverglades": 6942,
      "Ġikea": 6943,
      "Ġminnesota": 6944,
      "600": 6945,
      ":\"": 6946,
      "app": 6947,
      "cr": 6948,
      "cá»ĳ": 6949,
      "hran": 6950,
      "káº¿t": 6951,
      "mÃł": 6952,
      "met": 6953,
      "mee": 6954,
      "nÃ": 6955,
      "nÆ¡i": 6956,
      "nÄĥm": 6957,
      "ráº¥t": 6958,
      "sÃ": 6959,
      "sinh": 6960,
      "tn": 6961,
      "tw": 6962,
      "tor": 6963,
      "tá»Ļi": 6964,
      "vir": 6965,
      "yÃªu": 6966,
      "yeah": 6967,
      "·c": 6968,
      "Ġot": 6969,
      "ĠÄĳÃły": 6970,
      "ĠnÄ©a": 6971,
      "Ġvel": 6972,
      "Ġbáº¡": 6973,
      "Ġbart": 6974,
      "ĠcÃ²": 6975,
      "Ġsem": 6976,
      "Ġslo": 6977,
      "ĠtÃºm": 6978,
      "Ġgord": 6979,
      "Ġgoth": 6980,
      "Ġnhen": 6981,
      "ĠchÃ¹i": 6982,
      "Ġthá»±": 6983,
      "Ġráº§u": 6984,
      "ĠdÆ¡": 6985,
      "Ġder": 6986,
      "Ġdun": 6987,
      "Ġdrey": 6988,
      "Ġcá»£t": 6989,
      "Ġvá»¯a": 6990,
      "Ġchild": 6991,
      "Ġnhá»¡": 6992,
      "Ġtháº±n": 6993,
      "Ġquáº·ng": 6994,
      "Ġchocol": 6995,
      "Ġrais": 6996,
      "Ġdá»ĥ": 6997,
      "chs": 6998,
      "chan": 6999,
      "Ġ\"]": 7000,
      "Ġtrá»Ŀ": 7001,
      "aust": 7002,
      "Ġná»ī": 7003,
      "ĠxÃ¹": 7004,
      "ĠphÆ°á»Ľc": 7005,
      "ĠthÃ¬a": 7006,
      "enos": 7007,
      "Ġdol": 7008,
      "ias": 7009,
      "Ġngá»£m": 7010,
      "ĠkÃŃp": 7011,
      "Ġtaylor": 7012,
      "ors": 7013,
      "esp": 7014,
      "Ġrá»ĩp": 7015,
      "Ġfu": 7016,
      "itch": 7017,
      "ĠoÃł": 7018,
      "Ġody": 7019,
      "Ġooh": 7020,
      "ashi": 7021,
      "Ġcoop": 7022,
      "edalus": 7023,
      "Ġdaedalus": 7024,
      "Ġ71": 7025,
      "Ġ73": 7026,
      "Ġ92": 7027,
      "Ġ89": 7028,
      "Ġ8000": 7029,
      "Ġev": 7030,
      "Ġbanjo": 7031,
      "Äĳá»ĳi": 7032,
      "Ġstock": 7033,
      "Ġhip": 7034,
      "oman": 7035,
      "Ġum": 7036,
      "ĠmÃªnh": 7037,
      "trung": 7038,
      "rib": 7039,
      "Ġlá»ĵi": 7040,
      "Ġark": 7041,
      "Ġamin": 7042,
      "Ġshock": 7043,
      "ulu": 7044,
      "Ġlive": 7045,
      "Ġimf": 7046,
      "Ġbomb": 7047,
      "Ġnancy": 7048,
      "Ġspr": 7049,
      "Ġgeoff": 7050,
      "ĠtuÃ½p": 7051,
      "Ġ1979": 7052,
      "Ġedi": 7053,
      "Ġpetri": 7054,
      "Ġbond": 7055,
      "Ġasl": 7056,
      "Ġasper": 7057,
      "Ġmalays": 7058,
      "Ġsms": 7059,
      "Ġvenus": 7060,
      "Ġventer": 7061,
      "Ġrosling": 7062,
      "Ġproust": 7063,
      "Ġrep": 7064,
      "Ġluá»µ": 7065,
      "ĠqÃ": 7066,
      "Ġngá»«Æ¡i": 7067,
      "Ġxá»īn": 7068,
      "Ġsalad": 7069,
      "Ġmoscow": 7070,
      "Ġatlantic": 7071,
      "Ġgabri": 7072,
      "Ġwhole": 7073,
      "Ġcdc": 7074,
      "Ġchern": 7075,
      "Ġhillary": 7076,
      "Ġjacob": 7077,
      "feld": 7078,
      "craft": 7079,
      "Ġfgm": 7080,
      "Ġpyth": 7081,
      "Ġcern": 7082,
      "Ġamerican": 7083,
      "Ġpotter": 7084,
      "atherine": 7085,
      "Ġholoc": 7086,
      "osphere": 7087,
      "Ġjohannes": 7088,
      "Ġillinois": 7089,
      "Ġduá»ĩ": 7090,
      "Ġcopernic": 7091,
      "Ġstorycor": 7092,
      "Ġfoundation": 7093,
      "Ġjihad": 7094,
      "Ġguardian": 7095,
      "Ġchocolate": 7096,
      "Ġmalaysia": 7097,
      ")\"": 7098,
      "45": 7099,
      "80": 7100,
      "aff": 7101,
      "bra": 7102,
      "gre": 7103,
      "hd": 7104,
      "ht": 7105,
      "láº¡y": 7106,
      "máº·t": 7107,
      "mÃ´n": 7108,
      "ming": 7109,
      "och": 7110,
      "pro": 7111,
      "pton": 7112,
      "so": 7113,
      "tÃªn": 7114,
      "tos": 7115,
      "tail": 7116,
      "ui": 7117,
      "vÃ´": 7118,
      "vÃło": 7119,
      "wor": 7120,
      "yo": 7121,
      "zim": 7122,
      "Ġáº¯t": 7123,
      "Ġistan": 7124,
      "Ļng": 7125,
      "Ġtg": 7126,
      "Ġton": 7127,
      "ngÃłi": 7128,
      "Ġcot": 7129,
      "ĠÄĳh": 7130,
      "ĠÄĳÃłnh": 7131,
      "ĠÄĳáº§n": 7132,
      "Ġnich": 7133,
      "Ġnilon": 7134,
      "ĠlÃ¬nh": 7135,
      "Ġláº·t": 7136,
      "ĠlÄĥm": 7137,
      "ĠlÃ³c": 7138,
      "Ġmp": 7139,
      "ĠmáºŃu": 7140,
      "Ġmik": 7141,
      "Ġmall": 7142,
      "Ġbá»Ł": 7143,
      "Ġbai": 7144,
      "Ġka": 7145,
      "Ġsáº¥y": 7146,
      "Ġsac": 7147,
      "Ġsna": 7148,
      "Ġtrin": 7149,
      "ĠngÃ¡y": 7150,
      "Ġganh": 7151,
      "Ġgáº«u": 7152,
      "ĠhÆ¡": 7153,
      "Ġhin": 7154,
      "Ġnhoi": 7155,
      "Ġdim": 7156,
      "ĠÄĳá»Ŀ": 7157,
      "ĠÄĳá»¥n": 7158,
      "ĠquÄ©": 7159,
      "Ġxl": 7160,
      "Ġxuyáº¿n": 7161,
      "ĠthÃ£i": 7162,
      "Ġmá»ĭt": 7163,
      "antha": 7164,
      "ĠhÃ£n": 7165,
      "Ġcháº¥u": 7166,
      "ĠnhÃ³t": 7167,
      "Ġ\"...": 7168,
      "Ġtrá»ģ": 7169,
      "Ġháº¡c": 7170,
      "inter": 7171,
      "ĠbÃ¹a": 7172,
      "ĠxÃ©n": 7173,
      "ĠphÃło": 7174,
      "amer": 7175,
      "ames": 7176,
      "Ġbá»Ļn": 7177,
      "iat": 7178,
      "Ġngá»¡": 7179,
      "Ġngá»ı": 7180,
      "Ġngá»Ŀi": 7181,
      "imp": 7182,
      "Ġvá»ĭn": 7183,
      "alore": 7184,
      "ele": 7185,
      "esco": 7186,
      "Ġsofa": 7187,
      "Ġbaham": 7188,
      "ĠbazÆ¡": 7189,
      "Ġrá»ĥ": 7190,
      "Ġ51": 7191,
      "Ġwis": 7192,
      "Ġfis": 7193,
      "Ġfax": 7194,
      "ĠquÃ¢y": 7195,
      "uste": 7196,
      "Ġrod": 7197,
      "Ġecon": 7198,
      "ĠchÃ¡nh": 7199,
      "ÄĳÆ°a": 7200,
      "eber": 7201,
      "Ġnhá»Ŀn": 7202,
      "Ġali": 7203,
      "...]": 7204,
      "tho": 7205,
      "thu": 7206,
      "ĠmÃ£ng": 7207,
      "ream": 7208,
      "Ġbangalore": 7209,
      "like": 7210,
      "trÃªn": 7211,
      "Ġmarie": 7212,
      "rir": 7213,
      "ahu": 7214,
      "Ġ401": 7215,
      "umen": 7216,
      "chÃºc": 7217,
      "start": 7218,
      "aka": 7219,
      "eva": 7220,
      "Ġsapi": 7221,
      "Ġisa": 7222,
      "ryst": 7223,
      "Ġronald": 7224,
      "oker": 7225,
      "bean": 7226,
      "Ġmoham": 7227,
      "Ġlear": 7228,
      "Ġcolle": 7229,
      "Ġbarbara": 7230,
      "Ġatraz": 7231,
      "Ġnight": 7232,
      "Ġbonica": 7233,
      "Ġneumann": 7234,
      "Ġboy": 7235,
      "Ġdarpa": 7236,
      "Ġmilan": 7237,
      "Ġeth": 7238,
      "Ġprogeria": 7239,
      "Ġlaura": 7240,
      "Ġsiri": 7241,
      "mond": 7242,
      "Ġmethan": 7243,
      "Ġtehran": 7244,
      "Ġ1957": 7245,
      "ucky": 7246,
      "itius": 7247,
      "Ġcorona": 7248,
      "Ġcarlos": 7249,
      "Ġsushi": 7250,
      "Ġdrake": 7251,
      "Ġmegawatt": 7252,
      "Ġuhm": 7253,
      "Ġkanzi": 7254,
      "Ġpixel": 7255,
      "Ġnathaniel": 7256,
      "Ġprize": 7257,
      "Ġneutron": 7258,
      "Ġlife": 7259,
      "Ġaspirin": 7260,
      "Äĳoáº¡n": 7261,
      "Ġtahrir": 7262,
      "Ġphilippines": 7263,
      "Ġanthony": 7264,
      "Ġwired": 7265,
      "Ġadrenaline": 7266,
      "Ġnevada": 7267,
      "Ġtoyota": 7268,
      "Ġecuador": 7269,
      "Ġkentucky": 7270,
      "Ġdreyfus": 7271,
      "Ġraisuddin": 7272,
      "Ġasperger": 7273,
      "Ġistanbul": 7274,
      "Ġatrazine": 7275,
      "60": 7276,
      "bet": 7277,
      "bro": 7278,
      "cast": 7279,
      "dul": 7280,
      "ep": 7281,
      "een": 7282,
      "fred": 7283,
      "gs": 7284,
      "gy": 7285,
      "ghi": 7286,
      "ju": 7287,
      "mand": 7288,
      "mins": 7289,
      "mÃ©t": 7290,
      "nor": 7291,
      "nica": 7292,
      "rit": 7293,
      "tÃª": 7294,
      "táº¡m": 7295,
      "vÄĥn": 7296,
      "yager": 7297,
      "Ã¶": 7298,
      "ĠÂ": 7299,
      "Ġtm": 7300,
      "Ġtt": 7301,
      "Ġclo": 7302,
      "Ġnash": 7303,
      "ĠvÃ³i": 7304,
      "Ġlem": 7305,
      "Ġmiáº¿n": 7306,
      "Ġmuá»": 7307,
      "Ġbm": 7308,
      "Ġbmi": 7309,
      "ĠcÃ¹": 7310,
      "ĠcÃ¹i": 7311,
      "Ġkrist": 7312,
      "Ġsara": 7313,
      "ĠtrÆ°á»Ŀn": 7314,
      "Ġhg": 7315,
      "ĠhuyÃªn": 7316,
      "Ġhil": 7317,
      "Ġhaz": 7318,
      "Ġnheo": 7319,
      "ĠchÃ¹ng": 7320,
      "ĠchÃŃt": 7321,
      "Ġpil": 7322,
      "Ġple": 7323,
      "Ġput": 7324,
      "Ġrh": 7325,
      "ĠrÆ°Æ¡ng": 7326,
      "ĠrÃ¡o": 7327,
      "Ġdáº»": 7328,
      "Ġdev": 7329,
      "Ġdec": 7330,
      "ĠcÃ³ng": 7331,
      "Ġcá»ĵng": 7332,
      "Ġchad": 7333,
      "Ġthon": 7334,
      "Ġnhá»©ng": 7335,
      "quez": 7336,
      "ĠnÃłi": 7337,
      "Ġgig": 7338,
      "Ġgil": 7339,
      "ĠxÃ¡t": 7340,
      "Ġrain": 7341,
      "anc": 7342,
      "Ġlá»ķ": 7343,
      "chester": 7344,
      "ĠnhÃºt": 7345,
      "ĠlÃºn": 7346,
      "Ġná»ĩ": 7347,
      "Ġháº¯c": 7348,
      "Ġconc": 7349,
      "Ġtod": 7350,
      "Ġbá»ĭu": 7351,
      "Ġdot": 7352,
      "ĠnÃ¡ch": 7353,
      "aro": 7354,
      "Ġailen": 7355,
      "imedes": 7356,
      "alie": 7357,
      "Ġvienna": 7358,
      "Ġquyá»ĩn": 7359,
      "Ġláº¡ch": 7360,
      "Ġbach": 7361,
      "Ġfat": 7362,
      "Ġfuk": 7363,
      "Ġdiana": 7364,
      "itic": 7365,
      "ited": 7366,
      "Ġ202": 7367,
      "ots": 7368,
      "Ġcock": 7369,
      "Ġanne": 7370,
      "Ġ101": 7371,
      "Ġromo": 7372,
      "?\".": 7373,
      "Ġlake": 7374,
      "Ġsaint": 7375,
      "Ġeh": 7376,
      "Ġevan": 7377,
      "Ġbank": 7378,
      "idad": 7379,
      "Ġtracy": 7380,
      "acy": 7381,
      "ÄĳÃłn": 7382,
      "Ġstal": 7383,
      "oss": 7384,
      "Ġsufi": 7385,
      "Ġhiros": 7386,
      "Ġ1200": 7387,
      "Ġduke": 7388,
      "ahili": 7389,
      "uma": 7390,
      "Ġ1850": 7391,
      "Ġhugh": 7392,
      "Ġjoy": 7393,
      "ute": 7394,
      "aki": 7395,
      "Ġsaf": 7396,
      "ellul": 7397,
      "Ġ''.": 7398,
      "Ġadhd": 7399,
      "Ġbrand": 7400,
      "Ġbroth": 7401,
      "Ġcura": 7402,
      "ffe": 7403,
      "essa": 7404,
      "Ġláº»o": 7405,
      "house": 7406,
      "aws": 7407,
      "Ġleague": 7408,
      "Ġ1978": 7409,
      "cÃ¢y": 7410,
      "Ġenzim": 7411,
      "Ġnato": 7412,
      "Ġflick": 7413,
      "rene": 7414,
      "issa": 7415,
      "Ġgreg": 7416,
      "Ġmalawi": 7417,
      "Ġhead": 7418,
      "Ġsamantha": 7419,
      "Ġ1947": 7420,
      "Ġjuan": 7421,
      "Ġjulie": 7422,
      "Ġswahili": 7423,
      "Ġphoenix": 7424,
      "Ġtech": 7425,
      "etty": 7426,
      "Ġflorence": 7427,
      "uki": 7428,
      "Ġinches": 7429,
      "Ġforbes": 7430,
      "bá»ĩnh": 7431,
      "Ġallah": 7432,
      "ĠkilÃ´": 7433,
      "Ġpalestin": 7434,
      "Ġjennie": 7435,
      "Ġkarl": 7436,
      "Ġkáº½m": 7437,
      "Ġglenn": 7438,
      "Ġmusu": 7439,
      "Ġjuliet": 7440,
      "Ġjulius": 7441,
      "Ġfoxo": 7442,
      "Ġepinephrine": 7443,
      "Ġarchimedes": 7444,
      "Ġfreder": 7445,
      "Ġbuffalo": 7446,
      "Ġdubai": 7447,
      "Ġamerica": 7448,
      "Ġrisd": 7449,
      "Ġbroadway": 7450,
      "Ġintel": 7451,
      "Ġsergio": 7452,
      "Ġmarshall": 7453,
      "Ġfriedman": 7454,
      "Ġninja": 7455,
      "Ġdiscover": 7456,
      "Ġdioxide": 7457,
      "Ġindiana": 7458,
      "Ġunivers": 7459,
      "Ġsebastian": 7460,
      "Ġutah": 7461,
      "Ġsmartphone": 7462,
      "Ġboulder": 7463,
      "Ġcopernicus": 7464,
      "Ġstorycorps": 7465,
      "Ġcotton": 7466,
      "Ġbahamas": 7467,
      "Ġisaac": 7468,
      "\":": 7469,
      "70": 7470,
      "ben": 7471,
      "coma": 7472,
      "fr": 7473,
      "gá»": 7474,
      "hmm": 7475,
      "ibe": 7476,
      "kar": 7477,
      "kat": 7478,
      "mir": 7479,
      "nam": 7480,
      "nÃło": 7481,
      "piano": 7482,
      "su": 7483,
      "sen": 7484,
      "tanh": 7485,
      "tÃ¬m": 7486,
      "work": 7487,
      "ÃŃ": 7488,
      "ĠÆ°Æ¡m": 7489,
      "Ġtáº¥p": 7490,
      "nghá»ĩ": 7491,
      "Ġcli": 7492,
      "ĠÄĳung": 7493,
      "Ġnm": 7494,
      "Ġneg": 7495,
      "Ġnfl": 7496,
      "ĠvÆ¡i": 7497,
      "Ġvas": 7498,
      "Ġln": 7499,
      "ĠlÃ³ng": 7500,
      "Ġmoi": 7501,
      "Ġbp": 7502,
      "Ġball": 7503,
      "Ġkah": 7504,
      "Ġkash": 7505,
      "Ġkate": 7506,
      "Ġsj": 7507,
      "Ġsqu": 7508,
      "Ġtruá»ĵng": 7509,
      "Ġgul": 7510,
      "Ġguá»ĵng": 7511,
      "ĠnhÃłn": 7512,
      "ĠchÃª": 7513,
      "ĠchÃ²i": 7514,
      "Ġthá»ĩ": 7515,
      "Ġpam": 7516,
      "Ġpack": 7517,
      "Ġpisa": 7518,
      "Ġrot": 7519,
      "Ġrá»ĳn": 7520,
      "Ġrho": 7521,
      "Ġdy": 7522,
      "ĠÄĳá»ħ": 7523,
      "Ġthor": 7524,
      "Ġhá»¡i": 7525,
      "Ġkhal": 7526,
      "Ġchá»ĵi": 7527,
      "Ġnghiáº¿n": 7528,
      "Ġgiá»Ł": 7529,
      "ance": 7530,
      "chÆ°a": 7531,
      "ĠlÃŃu": 7532,
      "aul": 7533,
      "inia": 7534,
      "Ġtoáº¡c": 7535,
      "Ġlol": 7536,
      "Ġlove": 7537,
      "Ġye": 7538,
      "Ġyá»": 7539,
      "Ġyel": 7540,
      "Ġyemen": 7541,
      "enberg": 7542,
      "ĠmÃŃ": 7543,
      "ĠmÃºi": 7544,
      "Ġlucy": 7545,
      "Ġngá»Ĺng": 7546,
      "Ġaimee": 7547,
      "imÃ©t": 7548,
      "Ġsolo": 7549,
      "Ġsook": 7550,
      "Ġjune": 7551,
      "Ġfir": 7552,
      "atl": 7553,
      "itri": 7554,
      "uaz": 7555,
      "Ġxá»ı": 7556,
      "vá»ģ": 7557,
      "ĠthÆ°c": 7558,
      "rabb": 7559,
      "Ġ7000": 7560,
      "Ġeeg": 7561,
      "ÄĳÃ´i": 7562,
      "ĠxoÄĥn": 7563,
      "Ġsue": 7564,
      "ĠsuÃ´ng": 7565,
      "Ġhij": 7566,
      "Ġá»ķng": 7567,
      "than": 7568,
      "then": 7569,
      "Ġká»īnh": 7570,
      "ingo": 7571,
      "pher": 7572,
      "istine": 7573,
      "trÆ°á»Ŀng": 7574,
      "riz": 7575,
      "Ġwebcam": 7576,
      "Ġcarro": 7577,
      "abi": 7578,
      "Ġamanda": 7579,
      "Ġzika": 7580,
      "Ġzucker": 7581,
      "eca": 7582,
      "ific": 7583,
      "bonacc": 7584,
      "mania": 7585,
      "manuel": 7586,
      "Ġandy": 7587,
      "ions": 7588,
      "Ġharold": 7589,
      "Ġjohns": 7590,
      "Ġspace": 7591,
      "pse": 7592,
      "Ġmog": 7593,
      "Ġmicror": 7594,
      "Ġ1962": 7595,
      "ĠnhoÃł": 7596,
      "Ġmann": 7597,
      "asht": 7598,
      "vÃ²ng": 7599,
      "Ġclark": 7600,
      "giáº£i": 7601,
      "icef": 7602,
      "Ġnov": 7603,
      "Ġseries": 7604,
      "Ġgalois": 7605,
      "Ġbusiness": 7606,
      "Ġacumen": 7607,
      "banisha": 7608,
      "Ġeskim": 7609,
      "Ġunicef": 7610,
      "ogy": 7611,
      "Ġsahar": 7612,
      "Ġwars": 7613,
      "Ġwarcraft": 7614,
      "Ġpanbanisha": 7615,
      "Ġmini": 7616,
      "pire": 7617,
      "Ġfibonacc": 7618,
      "pháº§n": 7619,
      "Ġjenny": 7620,
      "Ġlucas": 7621,
      "dá»«ng": 7622,
      "Ġjulian": 7623,
      "Ġvoyager": 7624,
      "Ġsolomon": 7625,
      "form": 7626,
      "Ġbeatles": 7627,
      "Ġbassem": 7628,
      "Ġlesterland": 7629,
      "Ġcentral": 7630,
      "Ġrussell": 7631,
      "Ġausten": 7632,
      "holm": 7633,
      "Ġpapua": 7634,
      "Ġbritish": 7635,
      "Ġradar": 7636,
      "há»Ļi": 7637,
      "Ġjulia": 7638,
      "Ġmcgowan": 7639,
      "Ġyahoo": 7640,
      "Ġaustralia": 7641,
      "Ġcooper": 7642,
      "Ġarkansas": 7643,
      "Ġholocaust": 7644,
      "Ġeconom": 7645,
      "minster": 7646,
      "Ġcocktail": 7647,
      "ellulose": 7648,
      "Ġflickr": 7649,
      "Ġmicrorna": 7650,
      "Ġfibonacci": 7651,
      "800": 7652,
      "92": 7653,
      "?)": 7654,
      "dit": 7655,
      "ea": 7656,
      "flow": 7657,
      "ient": 7658,
      "lia": 7659,
      "mat": 7660,
      "no": 7661,
      "niá»ģm": 7662,
      "pris": 7663,
      "sol": 7664,
      "tar": 7665,
      "ugh": 7666,
      "vet": 7667,
      "ving": 7668,
      "vent": 7669,
      "xo": 7670,
      "zen": 7671,
      "Ġott": 7672,
      "Ġtáº¿t": 7673,
      "nguá»ĵn": 7674,
      "Ġcra": 7675,
      "ĠÄ©": 7676,
      "ĠÄĳÆ¡": 7677,
      "Ġnáº¥y": 7678,
      "Ġnem": 7679,
      "Ġváº¿": 7680,
      "ĠvÃ´n": 7681,
      "Ġváº±n": 7682,
      "Ġls": 7683,
      "Ġláº£ng": 7684,
      "ĠlÃ¬a": 7685,
      "Ġlike": 7686,
      "ĠbÃ´": 7687,
      "ĠbÃ¡i": 7688,
      "Ġbáº½": 7689,
      "Ġkir": 7690,
      "háº¡nh": 7691,
      "Ġsid": 7692,
      "Ġsab": 7693,
      "Ġsio": 7694,
      "Ġsale": 7695,
      "Ġngai": 7696,
      "ĠngÃ¡n": 7697,
      "Ġgb": 7698,
      "Ġgháº": 7699,
      "Ġheb": 7700,
      "ĠchÃ¹n": 7701,
      "Ġpoker": 7702,
      "ĠrÃ¬nh": 7703,
      "ĠrÆ°á»£t": 7704,
      "Ġrice": 7705,
      "Ġdl": 7706,
      "ĠdÃ³": 7707,
      "ĠkhÃ©t": 7708,
      "Ġchan": 7709,
      "Ġchuá»ĳt": 7710,
      "Ġhá»Ŀ": 7711,
      "Æ¡ng": 7712,
      "quÃ¡": 7713,
      "ĠkhÆ°á»Ľc": 7714,
      "Ġsá»ĵi": 7715,
      "ĠnghÃłnh": 7716,
      "Ġpháº©u": 7717,
      "Ġsáº·c": 7718,
      "anistan": 7719,
      "Ġnháº©m": 7720,
      "Ġhomer": 7721,
      "ĠhÃ³i": 7722,
      "che": 7723,
      "Ġcháº§m": 7724,
      "ĠnhÃºm": 7725,
      "ĠlÃ©t": 7726,
      "ĠnghÄ©nh": 7727,
      "Ġná»©c": 7728,
      "Ġtown": 7729,
      "Ġloang": 7730,
      "ĠvÃ¹": 7731,
      "ĠmÃ¡ng": 7732,
      "ĠmÃŃt": 7733,
      "iá»ħm": 7734,
      "imi": 7735,
      "ĠrÃ¢t": 7736,
      "Ġwang": 7737,
      "Ġjm": 7738,
      "Ġjen": 7739,
      "Ġjill": 7740,
      "Ġfel": 7741,
      "Ġdiet": 7742,
      "aser": 7743,
      "hip": 7744,
      "Ġxá»Ńa": 7745,
      "Ġanony": 7746,
      "Ġ105": 7747,
      "Ġvun": 7748,
      "Ġ'\"": 7749,
      "Ġ'.": 7750,
      "Ġ81": 7751,
      "Ġevel": 7752,
      "Äĳáº¡i": 7753,
      "ÄĳÃ¡ng": 7754,
      "oods": 7755,
      "ade": 7756,
      "Ġstir": 7757,
      "Ġchap": 7758,
      "uru": 7759,
      "Ġalgeria": 7760,
      "Ġalfred": 7761,
      "thiÃªn": 7762,
      "omone": 7763,
      "loween": 7764,
      "tráº»": 7765,
      "Ġmarian": 7766,
      "Ġsant": 7767,
      "Ġcaribe": 7768,
      "Ġamino": 7769,
      "Ġzara": 7770,
      "Ġ09": 7771,
      "Ġchechn": 7772,
      "Ġlipid": 7773,
      "Ġscand": 7774,
      "cept": 7775,
      "Ġspagh": 7776,
      "lins": 7777,
      "pshire": 7778,
      "Ġ1971": 7779,
      "Ġ1974": 7780,
      "Ġ1977": 7781,
      "ĠmicrÃ´": 7782,
      "Ġdeah": 7783,
      "Ġbonnet": 7784,
      "Ġass": 7785,
      "Ġmilk": 7786,
      "Ġpalm": 7787,
      "Ġmali": 7788,
      "Ġbenki": 7789,
      "mous": 7790,
      "insky": 7791,
      "Ġreed": 7792,
      "cÃ´la": 7793,
      "Ġwhis": 7794,
      "Ġ1953": 7795,
      "Ġnih": 7796,
      "Ġsandy": 7797,
      "Ġosama": 7798,
      "ĠsÃ´cÃ´la": 7799,
      "bá»įn": 7800,
      "Ġhalloween": 7801,
      "Ġ1918": 7802,
      "Ġnitric": 7803,
      "Ġblackberry": 7804,
      "Ġdomin": 7805,
      "Ġmerc": 7806,
      "á»«m": 7807,
      "Ġoliu": 7808,
      "Ġozone": 7809,
      "Ġ1929": 7810,
      "sche": 7811,
      "Ġkamen": 7812,
      "dinger": 7813,
      "ushima": 7814,
      "Ġaustin": 7815,
      "Ġachill": 7816,
      "Ġzipcar": 7817,
      "Ġgwen": 7818,
      "Ġhpv": 7819,
      "Ġhoodie": 7820,
      "ĠaxÃŃt": 7821,
      "Ġpassword": 7822,
      "Ġbertie": 7823,
      "Ġtheresa": 7824,
      "Ġcaribbean": 7825,
      "Ġpittsburgh": 7826,
      "Ġgordon": 7827,
      "Ġstockholm": 7828,
      "Ġgabriel": 7829,
      "ĠhÆ¡p": 7830,
      "rystal": 7831,
      "Ġmuá»Ĺng": 7832,
      "Ġstalin": 7833,
      "Ġfrederick": 7834,
      "Ġyá»ĥ": 7835,
      "Ġanonymous": 7836,
      "Ġchechnya": 7837,
      "Ġspaghetti": 7838,
      "300": 7839,
      "48": 7840,
      "84": 7841,
      "biáº¿n": 7842,
      "ball": 7843,
      "bunt": 7844,
      "clo": 7845,
      "cÃ¡m": 7846,
      "dal": 7847,
      "dad": 7848,
      "dom": 7849,
      "ek": 7850,
      "gers": 7851,
      "global": 7852,
      "hey": 7853,
      "ii": 7854,
      "ios": 7855,
      "ivia": 7856,
      "kee": 7857,
      "leo": 7858,
      "lash": 7859,
      "pan": 7860,
      "ret": 7861,
      "ratch": 7862,
      "raine": 7863,
      "sá»ĳ": 7864,
      "tÃ¡n": 7865,
      "tom": 7866,
      "vÅ©": 7867,
      "women": 7868,
      "Ã§": 7869,
      "Ġáº¯ng": 7870,
      "Ġuyá»ĥn": 7871,
      "Ġáº£i": 7872,
      "Ġess": 7873,
      "ĭnh": 7874,
      "Ġtáº¡t": 7875,
      "ĠcÆ°á»Ľc": 7876,
      "Ġcir": 7877,
      "ĠÄĳay": 7878,
      "ĠÄĳÆ°á»Ľc": 7879,
      "Ġnk": 7880,
      "Ġnr": 7881,
      "Ġnim": 7882,
      "Ġnáº¯n": 7883,
      "Ġnok": 7884,
      "Ġvung": 7885,
      "Ġvlad": 7886,
      "Ġvod": 7887,
      "Ġlm": 7888,
      "Ġlá»Ļc": 7889,
      "Ġláº·c": 7890,
      "ĠlÆ°Æ¡n": 7891,
      "Ġmoo": 7892,
      "Ġmáº£i": 7893,
      "Ġmut": 7894,
      "Ġmell": 7895,
      "Ġmba": 7896,
      "Ġbam": 7897,
      "Ġbáº·m": 7898,
      "Ġbina": 7899,
      "Ġboom": 7900,
      "Ġkw": 7901,
      "Ġsáº£o": 7902,
      "Ġsáº§m": 7903,
      "Ġsey": 7904,
      "Ġside": 7905,
      "Ġsift": 7906,
      "Ġtric": 7907,
      "ĠtrÃ¡t": 7908,
      "Ġngáº¡ch": 7909,
      "Ġngá»ĳn": 7910,
      "Ġgap": 7911,
      "Ġgaga": 7912,
      "Ġhc": 7913,
      "Ġhuss": 7914,
      "Ġnhan": 7915,
      "Ġthá»Ľ": 7916,
      "Ġpip": 7917,
      "Ġpitt": 7918,
      "ĠrÃªu": 7919,
      "Ġdb": 7920,
      "Ġdáº·t": 7921,
      "Ġdá»Ļng": 7922,
      "ĠchÆ°ng": 7923,
      "ĠchÅ©ng": 7924,
      "quer": 7925,
      "ĠcÃ¡cbon": 7926,
      "Ġgirl": 7927,
      "anin": 7928,
      "Ġlá»£p": 7929,
      "Ġbá»ıi": 7930,
      "Ġhoo": 7931,
      "chat": 7932,
      "chuyáº¿n": 7933,
      "Ġcháº§n": 7934,
      "ĠnÄĥn": 7935,
      "ĠnhÃ´ng": 7936,
      "Ġlock": 7937,
      "Ġyu": 7938,
      "erto": 7939,
      "Ġkhá»ĳ": 7940,
      "endo": 7941,
      "Ġdoo": 7942,
      "Ġtina": 7943,
      "ĠnÃŃt": 7944,
      "aren": 7945,
      "Ġá»£": 7946,
      "Ġngoáº¡c": 7947,
      "ĠthÃ¡n": 7948,
      "Ġxui": 7949,
      "oria": 7950,
      "Ġemmanuel": 7951,
      "ĠkhuÃ´ng": 7952,
      "elli": 7953,
      "Ġbagh": 7954,
      "etas": 7955,
      "Ġway": 7956,
      "Ġwins": 7957,
      "Ġaqu": 7958,
      "Ġast": 7959,
      "Ġjan": 7960,
      "Ġjab": 7961,
      "Ġjeep": 7962,
      "Ġfai": 7963,
      "Ġfin": 7964,
      "Ġfra": 7965,
      "ito": 7966,
      "Ġ2025": 7967,
      "Ġ2040": 7968,
      "asil": 7969,
      "aster": 7970,
      "Ġcod": 7971,
      "Ġcoch": 7972,
      "Ġanas": 7973,
      "Ġ650": 7974,
      "Ġcaesar": 7975,
      "rak": 7976,
      "raft": 7977,
      "Ġ79": 7978,
      "Ġing": 7979,
      "Ġiow": 7980,
      "Ġect": 7981,
      "Äĳá»ĵ": 7982,
      "ader": 7983,
      "adda": 7984,
      "adish": 7985,
      "Ġstand": 7986,
      "una": 7987,
      "osome": 7988,
      "Ġalber": 7989,
      "Ġinternational": 7990,
      "phones": 7991,
      "load": 7992,
      "loyd": 7993,
      "Ġmak": 7994,
      "Ġmap": 7995,
      "Ġmaas": 7996,
      "ckey": 7997,
      "Ġzeno": 7998,
      "Ġrubi": 7999,
      "Ġmaine": 8000,
      "Ġbrasil": 8001,
      "Ġislam": 8002,
      "Ġ175": 8003,
      "Ġ1700": 8004,
      "fford": 8005,
      "Ġscience": 8006,
      "Ġscratch": 8007,
      "Ġyour": 8008,
      "Ġbrah": 8009,
      "Ġspot": 8010,
      "consin": 8011,
      "Ġafganistan": 8012,
      "luáºŃt": 8013,
      "Ġmouaz": 8014,
      "ize": 8015,
      "Ġlangley": 8016,
      "Ġabc": 8017,
      "Ġhampshire": 8018,
      "ious": 8019,
      "Ġbono": 8020,
      "oxet": 8021,
      "Ġjamie": 8022,
      "Ġbloom": 8023,
      "Ġauto": 8024,
      "Ġpoe": 8025,
      "Ġpoint": 8026,
      "meer": 8027,
      "Ġmitchell": 8028,
      "Ġlinda": 8029,
      "Ġusb": 8030,
      "moud": 8031,
      "Ġerica": 8032,
      "Ġhefor": 8033,
      "Ġrosie": 8034,
      "Ġproject": 8035,
      "Ġ1948": 8036,
      "Ġ1949": 8037,
      "thÃ´ng": 8038,
      "Ġtechn": 8039,
      "Ġ365": 8040,
      "seus": 8041,
      "cháº¥t": 8042,
      "Ġ1956": 8043,
      "ĠdÃ¬m": 8044,
      "Ġoprah": 8045,
      "ector": 8046,
      "cá»ķ": 8047,
      "Ġpanthe": 8048,
      "ĠlÃªnh": 8049,
      "Ġmadison": 8050,
      "Ġiráº¯c": 8051,
      "ocks": 8052,
      "Ġitaly": 8053,
      "bá»ĭ": 8054,
      "phÃ¡t": 8055,
      "Ġaires": 8056,
      "Ġfern": 8057,
      "Ġmelinda": 8058,
      "Ġturk": 8059,
      "Ġgeorgetown": 8060,
      "Ġahmed": 8061,
      "Ġgando": 8062,
      "Ġupstart": 8063,
      "Ġmusk": 8064,
      "Ġbolivia": 8065,
      "Ġsheila": 8066,
      "Ġorgan": 8067,
      "Ġnhá»Ļng": 8068,
      "Ġvermeer": 8069,
      "Ġkanner": 8070,
      "Ġlinked": 8071,
      "Ġkabul": 8072,
      "Ġkabuki": 8073,
      "Ġtruá»Ľc": 8074,
      "trÃ²": 8075,
      "huÃ½t": 8076,
      "Ġhopkins": 8077,
      "Ġukraine": 8078,
      "Ġklein": 8079,
      "Ġtasmania": 8080,
      "stone": 8081,
      "Ġfmri": 8082,
      "Ġhimalayas": 8083,
      "Ġgarden": 8084,
      "Ġlorenz": 8085,
      "Ġmauritius": 8086,
      "wait": 8087,
      "Ġdorothy": 8088,
      "Ġweibo": 8089,
      "Ġprosper": 8090,
      "Ġgothic": 8091,
      "espeech": 8092,
      "Ġgeoffrey": 8093,
      "Ġná»ĩm": 8094,
      "rabbit": 8095,
      "Ġmogadish": 8096,
      "Ġeskimo": 8097,
      "Ġsioux": 8098,
      "Ġstirling": 8099,
      "buntu": 8100,
      "Ġhussein": 8101,
      "Ġiowa": 8102,
      "Ġheforshe": 8103,
      "Ġmogadishu": 8104,
      "29": 8105,
      "32": 8106,
      "33": 8107,
      "87": 8108,
      "bÄĥng": 8109,
      "báº£o": 8110,
      "bee": 8111,
      "cáº£": 8112,
      "cÆ¡": 8113,
      "cÃ¡": 8114,
      "dra": 8115,
      "dá»±": 8116,
      "face": 8117,
      "hiá»ĩn": 8118,
      "hiá»ĩu": 8119,
      "hic": 8120,
      "hry": 8121,
      "hima": 8122,
      "je": 8123,
      "jev": 8124,
      "lk": 8125,
      "mine": 8126,
      "nat": 8127,
      "ness": 8128,
      "pin": 8129,
      "pus": 8130,
      "pson": 8131,
      "rid": 8132,
      "sá»ĳng": 8133,
      "uay": 8134,
      "war": 8135,
      "ych": 8136,
      "¥y": 8137,
      "áºµng": 8138,
      "nger": 8139,
      "ngá»ĵi": 8140,
      "ĠcÃłn": 8141,
      "Ġcáº¡m": 8142,
      "Ġcatherine": 8143,
      "Ġnáº¹p": 8144,
      "Ġnua": 8145,
      "Ġnol": 8146,
      "Ġvent": 8147,
      "Ġvali": 8148,
      "ĠlÃ¬": 8149,
      "Ġland": 8150,
      "Ġligo": 8151,
      "Ġmáº©n": 8152,
      "Ġmá»ĳt": 8153,
      "Ġmir": 8154,
      "Ġbf": 8155,
      "Ġbora": 8156,
      "Ġkang": 8157,
      "Ġkid": 8158,
      "Ġkey": 8159,
      "Ġkali": 8160,
      "ĠsÃłi": 8161,
      "Ġseo": 8162,
      "nhe": 8163,
      "ĠngÃłng": 8164,
      "Ġgá»Ł": 8165,
      "Ġgott": 8166,
      "Ġhmm": 8167,
      "ĠnhÆ¡": 8168,
      "Ġthá»Ľt": 8169,
      "Ġpos": 8170,
      "Ġpul": 8171,
      "Ġrng": 8172,
      "Ġráº¯ng": 8173,
      "Ġretro": 8174,
      "Ġdáº§m": 8175,
      "Ġddt": 8176,
      "Ġcá»Ł": 8177,
      "Ġtarah": 8178,
      "Ġgiáº«m": 8179,
      "ĠxÆ°á»Ľc": 8180,
      "Ġxáº¯c": 8181,
      "Ġxáº»o": 8182,
      "Ġchá»«": 8183,
      "Ġchá»«a": 8184,
      "Ġpháº¿t": 8185,
      "Ġmá»Ńa": 8186,
      "ĠnháºŃm": 8187,
      "Ġbá»Ľ": 8188,
      "Ġbá»©t": 8189,
      "ango": 8190,
      "oney": 8191,
      "ĠhÃ©c": 8192,
      "chin": 8193,
      "chÆ¡i": 8194,
      "ĠlÃºt": 8195,
      "ĠdÃŃ": 8196,
      "Ġphá»Ļng": 8197,
      "Ġtoo": 8198,
      "Ġlord": 8199,
      "eme": 8200,
      "Ġyar": 8201,
      "Ġyor": 8202,
      "ams": 8203,
      "Ġkháº½": 8204,
      "ime": 8205,
      "ĠkÃ¨": 8206,
      "ĠkÃ©t": 8207,
      "Ġngoi": 8208,
      "Ġsopa": 8209,
      "Ġbat": 8210,
      "iÃªc": 8211,
      "ets": 8212,
      "Ġaki": 8213,
      "Ġjd": 8214,
      "Ġfil": 8215,
      "Ġfro": 8216,
      "Ġfont": 8217,
      "ĠvÃŃu": 8218,
      "itor": 8219,
      "itra": 8220,
      "ilton": 8221,
      "illi": 8222,
      "edi": 8223,
      "?\",": 8224,
      "Ġdaf": 8225,
      "Ġinuit": 8226,
      "ĠnghÃ©n": 8227,
      "olf": 8228,
      "olo": 8229,
      "Ġ750": 8230,
      "Ġea": 8231,
      "Ġepa": 8232,
      "Ġhyun": 8233,
      "ÄĳÆ°á»Ŀng": 8234,
      "ando": 8235,
      "adore": 8236,
      "Ġstem": 8237,
      "Ġrobinson": 8238,
      "Ġul": 8239,
      "Ġtedwomen": 8240,
      "phal": 8241,
      "ards": 8242,
      "Ġmach": 8243,
      "Ġmaps": 8244,
      "istor": 8245,
      "tonia": 8246,
      "Ġcamero": 8247,
      "Ġmarl": 8248,
      "Ġbuenos": 8249,
      "rix": 8250,
      "umara": 8251,
      "sonian": 8252,
      "extin": 8253,
      "Ġariel": 8254,
      "Ġzk": 8255,
      "ento": 8256,
      "iff": 8257,
      "Ġshah": 8258,
      "Ġbihar": 8259,
      "uld": 8260,
      "Ġadrian": 8261,
      "Ġtá»ĭt": 8262,
      "ĠcÃºn": 8263,
      "Ġoxide": 8264,
      "Ġeli": 8265,
      "Ġelam": 8266,
      "Ġelip": 8267,
      "Ġelvis": 8268,
      "Ġ177": 8269,
      "Ġmuá»Ļi": 8270,
      "obyl": 8271,
      "Ġafr": 8272,
      "Ġláº»n": 8273,
      "Ġ2100": 8274,
      "lux": 8275,
      "head": 8276,
      "Ġleah": 8277,
      "Ġmonro": 8278,
      "Ġ1963": 8279,
      "Ġ1964": 8280,
      "Ġ1966": 8281,
      "Ġ1967": 8282,
      "Äĳá»£i": 8283,
      "Ġbeau": 8284,
      "Ġangola": 8285,
      "Ġcacao": 8286,
      "Ġirag": 8287,
      "ross": 8288,
      "chá»Ŀ": 8289,
      "Ġclau": 8290,
      "Ġpalextin": 8291,
      "Ġcrick": 8292,
      "vius": 8293,
      "Ġalexis": 8294,
      "Ġerect": 8295,
      "insey": 8296,
      "Ġharvey": 8297,
      "sha": 8298,
      "Ġkiva": 8299,
      "Ġkirib": 8300,
      "má»¹": 8301,
      "mont": 8302,
      "Ġesg": 8303,
      "Ġesther": 8304,
      "Ġngháº¹n": 8305,
      "Ġstux": 8306,
      "Ġstuart": 8307,
      "Ġunesco": 8308,
      "Ġopec": 8309,
      "Ġmyria": 8310,
      "Ġstanley": 8311,
      "Ġexxon": 8312,
      "Ġjeremy": 8313,
      "Ġfreespeech": 8314,
      "phÃ¹": 8315,
      "Ġrivers": 8316,
      "Ġmelbour": 8317,
      "Ġsimpson": 8318,
      "Ġmahmoud": 8319,
      "Ġlucius": 8320,
      "ĠlibÄĥng": 8321,
      "Ġleonard": 8322,
      "Ġchristophe": 8323,
      "Ġmaslow": 8324,
      "undsen": 8325,
      "Ġbotsw": 8326,
      "Ġarchie": 8327,
      "Ġwells": 8328,
      "Ġgoldil": 8329,
      "Ġgehry": 8330,
      "nghiÃªn": 8331,
      "Ġkofi": 8332,
      "Ġhadron": 8333,
      "Ġtruá»µ": 8334,
      "Ġbilbao": 8335,
      "Ġbuckminster": 8336,
      "Ġlá»±u": 8337,
      "Ġshirley": 8338,
      "Ġbutler": 8339,
      "Ġhippoc": 8340,
      "eanor": 8341,
      "Ġpheromone": 8342,
      "Ġsaddam": 8343,
      "Ġaurora": 8344,
      "Ġhormones": 8345,
      "Ġchernobyl": 8346,
      "Ġnicholas": 8347,
      "Ġtrinidad": 8348,
      "Ġsapiens": 8349,
      "Ġttnt": 8350,
      "Ġfukushima": 8351,
      "Ġdiscovery": 8352,
      "Ġzuckerberg": 8353,
      "ashtag": 8354,
      "Ġsaleem": 8355,
      "Ġwhiskey": 8356,
      "Ġnokia": 8357,
      "Ġvladim": 8358,
      "Ġvodka": 8359,
      "Ġmellon": 8360,
      "querque": 8361,
      "Ġbaghdad": 8362,
      "Ġcochrane": 8363,
      "oxetine": 8364,
      "Ġlorenzetti": 8365,
      "Ġprospero": 8366,
      "Ġnollywood": 8367,
      "Ġtarahumara": 8368,
      "Ġcameroon": 8369,
      "Ġerectus": 8370,
      "Ġkiribati": 8371,
      "Ġmelbourne": 8372,
      "35": 8373,
      "95": 8374,
      "?]": 8375,
      "bell": 8376,
      "bian": 8377,
      "cia": 8378,
      "cope": 8379,
      "eu": 8380,
      "eka": 8381,
      "fri": 8382,
      "gia": 8383,
      "hyd": 8384,
      "ive": 8385,
      "lv": 8386,
      "lÃ½": 8387,
      "lass": 8388,
      "mich": 8389,
      "pur": 8390,
      "pers": 8391,
      "rates": 8392,
      "rÃ¶": 8393,
      "sáº¯p": 8394,
      "sseus": 8395,
      "tb": 8396,
      "tre": 8397,
      "tein": 8398,
      "vish": 8399,
      "veland": 8400,
      "wer": 8401,
      "wel": 8402,
      "yph": 8403,
      "zero": 8404,
      "·ng": 8405,
      "Ġ...": 8406,
      "ģu": 8407,
      "Ġtáº±n": 8408,
      "Ġtáº¹o": 8409,
      "ngay": 8410,
      "Ġcf": 8411,
      "Ġcord": 8412,
      "Ġcath": 8413,
      "Ġcello": 8414,
      "ĠÄĳuá»ĳc": 8415,
      "Ġnong": 8416,
      "Ġnáº¡o": 8417,
      "Ġváº£y": 8418,
      "ĠvÃ¡t": 8419,
      "hÃ¬nh": 8420,
      "Ġlight": 8421,
      "Ġmáº£y": 8422,
      "Ġmick": 8423,
      "Ġmore": 8424,
      "Ġmáº«m": 8425,
      "Ġbc": 8426,
      "Ġbáº£nh": 8427,
      "Ġboo": 8428,
      "Ġbeep": 8429,
      "Ġbella": 8430,
      "Ġkt": 8431,
      "Ġkaz": 8432,
      "Ġkap": 8433,
      "Ġkumb": 8434,
      "Ġsis": 8435,
      "ĠngáºŃm": 8436,
      "ĠngÃ³i": 8437,
      "Ġgang": 8438,
      "Ġgphin": 8439,
      "Ġhiá»ģu": 8440,
      "Ġhashtag": 8441,
      "ĠchÃ¹a": 8442,
      "Ġpp": 8443,
      "Ġpt": 8444,
      "ĠrÃªn": 8445,
      "Ġric": 8446,
      "Ġrift": 8447,
      "Ġdata": 8448,
      "Ġches": 8449,
      "Ġchev": 8450,
      "ĠthÃłng": 8451,
      "Ġtá»£n": 8452,
      "Ġquai": 8453,
      "Ġgiáº±ng": 8454,
      "Ġxtanh": 8455,
      "Ġsá»įt": 8456,
      "ĠthÃ²": 8457,
      "ĠthÃ³c": 8458,
      "Ġpháº§m": 8459,
      "aya": 8460,
      "Ġral": 8461,
      "anes": 8462,
      "Ġnháº±ng": 8463,
      "Ġbá»ĵng": 8464,
      "ĠÃ¹n": 8465,
      "Ġdá»©a": 8466,
      "Ġhoc": 8467,
      "Ġhoriz": 8468,
      "Æ°á»Ľn": 8469,
      "onte": 8470,
      "ĠhÃºp": 8471,
      "aid": 8472,
      "Ġtrá»ĩt": 8473,
      "audio": 8474,
      "Ġtoi": 8475,
      "ĠbÃŃt": 8476,
      "ĠkhoÃ©t": 8477,
      "Ġlot": 8478,
      "ĠtrÃ£i": 8479,
      "ĠphÃł": 8480,
      "ĠphÅ©": 8481,
      "ĠvÃºt": 8482,
      "Ġyan": 8483,
      "Ġyáº¿m": 8484,
      "Ġyves": 8485,
      "erat": 8486,
      "ĠÄĳÃ¡t": 8487,
      "Ġquark": 8488,
      "ĠgiÃ¹m": 8489,
      "ĠmÃ¨": 8490,
      "ĠmÃ¹ng": 8491,
      "ĠmÃ²ng": 8492,
      "ĠmÃŃa": 8493,
      "Ġá»ī": 8494,
      "als": 8495,
      "alle": 8496,
      "Ġempire": 8497,
      "els": 8498,
      "elin": 8499,
      "esel": 8500,
      "Ġbaby": 8501,
      "Ġwy": 8502,
      "Ġwester": 8503,
      "Ġagi": 8504,
      "Ġavi": 8505,
      "Ġaaa": 8506,
      "Ġjpl": 8507,
      "Ġfol": 8508,
      "Ġfair": 8509,
      "aton": 8510,
      "Ġoan": 8511,
      "Ġomar": 8512,
      "iley": 8513,
      "usa": 8514,
      "Ġbayes": 8515,
      "ĠnghÃª": 8516,
      "Ġlaz": 8517,
      "oll": 8518,
      "Ġeif": 8519,
      "idi": 8520,
      "Äĳáº¿m": 8521,
      "Ġstro": 8522,
      "Ġstone": 8523,
      "osthen": 8524,
      "Ġ20000": 8525,
      "Ġchak": 8526,
      "Ġhir": 8527,
      "tham": 8528,
      "omy": 8529,
      "Ġtedster": 8530,
      "Ġtedglobal": 8531,
      "ineering": 8532,
      "pho": 8533,
      "Ġ404": 8534,
      "cker": 8535,
      "Ġ25000": 8536,
      "ables": 8537,
      "Ġarr": 8538,
      "Ġamundsen": 8539,
      "Ġprism": 8540,
      "akh": 8541,
      "ecraft": 8542,
      "Ġsav": 8543,
      "Ġsaxon": 8544,
      "ikh": 8545,
      "Ġshar": 8546,
      "Ġshop": 8547,
      "Ġshaw": 8548,
      "Ġ01": 8549,
      "Ġcali": 8550,
      "Ġbrent": 8551,
      "Ġbrain": 8552,
      "Ġoxit": 8553,
      "Ġelvish": 8554,
      "Ġparab": 8555,
      "obe": 8556,
      "obi": 8557,
      "api": 8558,
      "Ġtwain": 8559,
      "Ġspac": 8560,
      "Ġ240": 8561,
      "Ġ1972": 8562,
      "Ġmicron": 8563,
      "Ġatlas": 8564,
      "Ġvanessa": 8565,
      "Ġdana": 8566,
      "Ġbog": 8567,
      "Ġmili": 8568,
      "Ġnaj": 8569,
      "Ġjeans": 8570,
      "Ġlind": 8571,
      "Ġlinus": 8572,
      "Ġgoering": 8573,
      "Ġwalt": 8574,
      "Ġusda": 8575,
      "Ġsilic": 8576,
      "Ġsilver": 8577,
      "Ġerik": 8578,
      "Ġserbia": 8579,
      "Ġserena": 8580,
      "Ġrose": 8581,
      "Ġ1941": 8582,
      "ights": 8583,
      "Ġschul": 8584,
      "ĠschrÃ¶": 8585,
      "Ġmeth": 8586,
      "carbon": 8587,
      "cháº¡": 8588,
      "Ġmead": 8589,
      "Ġ1954": 8590,
      "Ġ1955": 8591,
      "Ġ1959": 8592,
      "tá»ķng": 8593,
      "weil": 8594,
      "Ġagf": 8595,
      "Ġnixon": 8596,
      "ureka": 8597,
      "Ġdelta": 8598,
      "bá»©c": 8599,
      "phÃ²ng": 8600,
      "Ġbobby": 8601,
      "Ġsmithsonian": 8602,
      "Ġfire": 8603,
      "atcher": 8604,
      "Ġnetra": 8605,
      "Ġkaren": 8606,
      "mark": 8607,
      "chiavel": 8608,
      "ĠvÃ£nh": 8609,
      "Ġvalent": 8610,
      "khoa": 8611,
      "dá»¯": 8612,
      "Ġkuwait": 8613,
      "Ġdollars": 8614,
      "boro": 8615,
      "Ġsolly": 8616,
      "Ġengineering": 8617,
      "esearch": 8618,
      "Ġbuffett": 8619,
      "Ġkurd": 8620,
      "ná»ģn": 8621,
      "Ġ911": 8622,
      "trÃŃ": 8623,
      "Ġvincent": 8624,
      "Ġbowl": 8625,
      "Ġcornell": 8626,
      "Ġmobile": 8627,
      "Ġjudy": 8628,
      "Ġmccain": 8629,
      "Ġfuller": 8630,
      "Ġstyro": 8631,
      "Ġnucle": 8632,
      "khá»§ng": 8633,
      "Ġantonio": 8634,
      "Ġpierre": 8635,
      "Ġodysseus": 8636,
      "mingham": 8637,
      "Ġwisconsin": 8638,
      "Ġlearning": 8639,
      "Ġputin": 8640,
      "Ġhiroshima": 8641,
      "Ġkahn": 8642,
      "Ġkashmir": 8643,
      "Ġeconomist": 8644,
      "Ġyá»ĥm": 8645,
      "Ġessex": 8646,
      "Ġpantheon": 8647,
      "jevo": 8648,
      "Ġstuxnet": 8649,
      "Ġmyriad": 8650,
      "Ġbotswana": 8651,
      "Ġgoldilocks": 8652,
      "Ġvladimir": 8653,
      "Ġeiffel": 8654,
      "osthenes": 8655,
      "ĠschrÃ¶dinger": 8656,
      ")...": 8657,
      "14": 8658,
      "400": 8659,
      "66": 8660,
      "bil": 8661,
      "bri": 8662,
      "bits": 8663,
      "cÆ¡n": 8664,
      "cot": 8665,
      "cle": 8666,
      "dr": 8667,
      "dis": 8668,
      "dala": 8669,
      "dale": 8670,
      "gÃ¬": 8671,
      "gáº§n": 8672,
      "goo": 8673,
      "gom": 8674,
      "hin": 8675,
      "ij": 8676,
      "jad": 8677,
      "kiáº¿n": 8678,
      "kháº£": 8679,
      "lar": 8680,
      "lab": 8681,
      "máº¥y": 8682,
      "mel": 8683,
      "map": 8684,
      "minder": 8685,
      "nick": 8686,
      "nÃ¨": 8687,
      "oac": 8688,
      "ple": 8689,
      "rá»": 8690,
      "res": 8691,
      "rate": 8692,
      "si": 8693,
      "sk": 8694,
      "ser": 8695,
      "sil": 8696,
      "tai": 8697,
      "tlin": 8698,
      "uquerque": 8699,
      "váºŃt": 8700,
      "vui": 8701,
      "wau": 8702,
      "west": 8703,
      "you": 8704,
      "zac": 8705,
      "¢p": 8706,
      "ĠÃ¬": 8707,
      "Ġua": 8708,
      "Ġáº©u": 8709,
      "Ġice": 8710,
      "Ġtong": 8711,
      "Ġtuyá»ģn": 8712,
      "Ġtet": 8713,
      "Ġtuá»ĳt": 8714,
      "Ġce": 8715,
      "Ġcq": 8716,
      "Ġcla": 8717,
      "Ġcrystal": 8718,
      "Ġnylon": 8719,
      "Ġvia": 8720,
      "Ġvac": 8721,
      "Ġvander": 8722,
      "Ġmá»ĳng": 8723,
      "Ġmbi": 8724,
      "Ġbau": 8725,
      "Ġbed": 8726,
      "ĠbáºŃy": 8727,
      "Ġbla": 8728,
      "Ġbess": 8729,
      "Ġkik": 8730,
      "Ġkris": 8731,
      "Ġkick": 8732,
      "ĠsÆ°a": 8733,
      "Ġsáº£ng": 8734,
      "Ġsund": 8735,
      "Ġseth": 8736,
      "Ġsagan": 8737,
      "Ġsistine": 8738,
      "Ġtráº§y": 8739,
      "Ġtráº¡ch": 8740,
      "nhiá»ģu": 8741,
      "ĠtÃŃp": 8742,
      "Ġngáº¥u": 8743,
      "ĠngÃ³ng": 8744,
      "Ġgáº¯m": 8745,
      "ĠgÆ°Æ¡m": 8746,
      "Ġhuyá»ĩn": 8747,
      "ĠhÄĥm": 8748,
      "Ġhann": 8749,
      "Ġhardy": 8750,
      "Ġhlv": 8751,
      "Ġpun": 8752,
      "Ġpav": 8753,
      "Ġpage": 8754,
      "Ġrs": 8755,
      "Ġrik": 8756,
      "Ġruá»ĵng": 8757,
      "Ġroth": 8758,
      "Ġresearch": 8759,
      "Ġdg": 8760,
      "Ġdong": 8761,
      "ĠdáºŃt": 8762,
      "Ġdia": 8763,
      "Ãªt": 8764,
      "Ãªng": 8765,
      "Ġcá»įng": 8766,
      "Ġvá»ĵ": 8767,
      "Ġchand": 8768,
      "Ġhá»£t": 8769,
      "Ġtháº·ng": 8770,
      "quiat": 8771,
      "ĠquáºŃy": 8772,
      "Ġxá»ĳt": 8773,
      "ĠthÃ¢t": 8774,
      "Ġchá»±c": 8775,
      "Äĥt": 8776,
      "Ġmá»§": 8777,
      "Ġmá»ģn": 8778,
      "Ġrah": 8779,
      "Ġlá»Ľi": 8780,
      "Ġ-,": 8781,
      "ĠhÃ£o": 8782,
      "aids": 8783,
      "chen": 8784,
      "chim": 8785,
      "chev": 8786,
      "Ġcháº»": 8787,
      "ĠnhÃ³i": 8788,
      "ĠnhÃ¢t": 8789,
      "Ġtrá»įc": 8790,
      "Æ°á»Ŀm": 8791,
      "aux": 8792,
      "Ġháº¥n": 8793,
      "Ġlovel": 8794,
      "emat": 8795,
      "ĠvÃ£ng": 8796,
      "Ġyus": 8797,
      "amo": 8798,
      "Ġkháº£i": 8799,
      "Ġgá»Ŀ": 8800,
      "Ġgá»«ng": 8801,
      "Ġgá»įt": 8802,
      "iago": 8803,
      "iá»ħng": 8804,
      "ĠÃ¡ng": 8805,
      "ĠrÃ´i": 8806,
      "Ġrá»¥t": 8807,
      "eto": 8808,
      "Ġww": 8809,
      "Ġwan": 8810,
      "Ġwag": 8811,
      "Ġwide": 8812,
      "Ġwith": 8813,
      "Ġaw": 8814,
      "Ġaer": 8815,
      "Ġaed": 8816,
      "Ġjk": 8817,
      "Ġjor": 8818,
      "Ġjol": 8819,
      "Ġjarr": 8820,
      "Ġfb": 8821,
      "Ġfish": 8822,
      "ĠdÃ¹i": 8823,
      "Ġdir": 8824,
      "Ġdiesel": 8825,
      "Ġtub": 8826,
      "atz": 8827,
      "atra": 8828,
      "atol": 8829,
      "iter": 8830,
      "vá»«a": 8831,
      "Ġtyler": 8832,
      "Ġdaw": 8833,
      "Ġincra": 8834,
      "ology": 8835,
      "Äĳáº¿n": 8836,
      "Ġgeneral": 8837,
      "urf": 8838,
      "Ġallan": 8839,
      "thia": 8840,
      "thuyáº¿t": 8841,
      "thuá»ĳc": 8842,
      "omo": 8843,
      "phÆ°Æ¡ng": 8844,
      "phua": 8845,
      "ista": 8846,
      "Ġmarc": 8847,
      "Ġmarx": 8848,
      "Ġmartha": 8849,
      "eyer": 8850,
      "Ġbá»ģnh": 8851,
      "Ġ184": 8852,
      "stoy": 8853,
      "Ġamira": 8854,
      "Ġzetas": 8855,
      "aks": 8856,
      "Ġokav": 8857,
      "Ġsharon": 8858,
      "Ġshaba": 8859,
      "ĠcÃłm": 8860,
      "estra": 8861,
      "Ġcalais": 8862,
      "Ġbrig": 8863,
      "Ġeleanor": 8864,
      "Ġiss": 8865,
      "Ġ1400": 8866,
      "ppist": 8867,
      "Ġ137": 8868,
      "Ġlip": 8869,
      "Ġimp": 8870,
      "Ġharris": 8871,
      "hoan": 8872,
      "ĠnhÃ¡i": 8873,
      "Ġspec": 8874,
      "Ġmoon": 8875,
      "Ġmodel": 8876,
      "Ġleads": 8877,
      "Ġsynest": 8878,
      "Ġmichoac": 8879,
      "ĠtÃŃc": 8880,
      "Ġbear": 8881,
      "Ġmanchester": 8882,
      "under": 8883,
      "Ġenter": 8884,
      "Ġboe": 8885,
      "Ġgrey": 8886,
      "Ġcru": 8887,
      "Ġcruz": 8888,
      "Ġangela": 8889,
      "Ġhend": 8890,
      "moor": 8891,
      "Ġernest": 8892,
      "Ġcaitlin": 8893,
      "Ġheather": 8894,
      "Ġholly": 8895,
      "Ġholmes": 8896,
      "vantes": 8897,
      "Ġjura": 8898,
      "Ġreal": 8899,
      "Ġlauran": 8900,
      "Ġsarcoma": 8901,
      "ations": 8902,
      "Ġnguá»ĩch": 8903,
      "Ġburma": 8904,
      "Ġwarner": 8905,
      "Ġexcel": 8906,
      "Ġexosome": 8907,
      "ophanes": 8908,
      "Ġreddit": 8909,
      "Ġ280": 8910,
      "Ġoslo": 8911,
      "Ġbasquiat": 8912,
      "Ġmoroc": 8913,
      "Ġfreeman": 8914,
      "Ġwaters": 8915,
      "phÃ¢n": 8916,
      "Ġicarus": 8917,
      "Ġriver": 8918,
      "Ġaristophanes": 8919,
      "pháº£n": 8920,
      "celona": 8921,
      "Ġskid": 8922,
      "Ġtweets": 8923,
      "Ġalbuquerque": 8924,
      "Ġpolyme": 8925,
      "Ġhuá»ĩ": 8926,
      "Ġmiller": 8927,
      "Ġbolt": 8928,
      "Ġbollywood": 8929,
      "Ġshea": 8930,
      "john": 8931,
      "dá»ħ": 8932,
      "Ġ1908": 8933,
      "Ġtso": 8934,
      "urios": 8935,
      "Ġfarmer": 8936,
      "Ġcollider": 8937,
      "Ġgallup": 8938,
      "ative": 8939,
      "Ġwhitney": 8940,
      "Ġdenver": 8941,
      "auss": 8942,
      "Ġbeatbox": 8943,
      "Ġathens": 8944,
      "Ġigbo": 8945,
      "tuáº§n": 8946,
      "Ġivy": 8947,
      "lÃ²ng": 8948,
      "Ġcervantes": 8949,
      "Ġhoocmon": 8950,
      "bÃŃp": 8951,
      "Ġsdr": 8952,
      "dÃ¹": 8953,
      "Ġixaren": 8954,
      "Ġbroadmoor": 8955,
      "Ġsulf": 8956,
      "Ġgrant": 8957,
      "Ġwoods": 8958,
      "Ġbudrus": 8959,
      "Ġhimalaya": 8960,
      "raina": 8961,
      "Ġmathemat": 8962,
      "Ġocta": 8963,
      "Ġwoody": 8964,
      "Ġcleveland": 8965,
      "Ġbeveridge": 8966,
      "urnal": 8967,
      "ĠvÃªnh": 8968,
      "Ġplanet": 8969,
      "Ġqueensland": 8970,
      "Ġchurchill": 8971,
      "Ġlovecraft": 8972,
      "virus": 8973,
      "Ġbombay": 8974,
      "Ġreport": 8975,
      "ĠqÃºi": 8976,
      "Ġdimitri": 8977,
      "Ġsarajevo": 8978,
      "Ġrhino": 8979,
      "Ġbrothers": 8980,
      "ĠkilÃ´mÃ©t": 8981,
      "Ġuniversity": 8982,
      "Ġsquare": 8983,
      "Ġyellow": 8984,
      "Ġhijab": 8985,
      "Ġottoman": 8986,
      "Ġscandina": 8987,
      "Ġtricerat": 8988,
      "Ġwinston": 8989,
      "Ġriverside": 8990,
      "Ġralph": 8991,
      "Ġaviv": 8992,
      "Ġlovelace": 8993,
      "Ġyusor": 8994,
      "Ġokavango": 8995,
      "Ġsynestia": 8996,
      "Ġmathematica": 8997,
      "Ġtriceratops": 8998,
      ":...": 8999,
      "??": 9000,
      "book": 9001,
      "cháº¿": 9002,
      "desh": 9003,
      "fu": 9004,
      "far": 9005,
      "gr": 9006,
      "hack": 9007,
      "horn": 9008,
      "haus": 9009,
      "ior": 9010,
      "ire": 9011,
      "ipher": 9012,
      "jaws": 9013,
      "krabbit": 9014,
      "led": 9015,
      "leton": 9016,
      "mail": 9017,
      "mary": 9018,
      "non": 9019,
      "nell": 9020,
      "nough": 9021,
      "oit": 9022,
      "ozo": 9023,
      "pol": 9024,
      "qchin": 9025,
      "rÃ©": 9026,
      "tao": 9027,
      "tÆ°Æ¡ng": 9028,
      "tiáº¿p": 9029,
      "tec": 9030,
      "uch": 9031,
      "von": 9032,
      "vao": 9033,
      "who": 9034,
      "witz": 9035,
      "water": 9036,
      "xter": 9037,
      "yana": 9038,
      "Ã§a": 9039,
      "ĠÃ³": 9040,
      "Ġá»ĳt": 9041,
      "ım": 9042,
      "Ńc": 9043,
      "á»§a": 9044,
      "Ġtd": 9045,
      "Ġtuá»ĳi": 9046,
      "Ġtec": 9047,
      "Ġtera": 9048,
      "Ġtáº©m": 9049,
      "ngÃ´i": 9050,
      "Ġcuá»ĳc": 9051,
      "Ġcáº³ng": 9052,
      "Ġciv": 9053,
      "Ġcellulose": 9054,
      "Ġcurios": 9055,
      "ĠÄĳáº£n": 9056,
      "ĠÄĳrÃ´": 9057,
      "Ġniáº¿t": 9058,
      "ĠnÃ¡p": 9059,
      "Ġnino": 9060,
      "Ġnagh": 9061,
      "Ġváº©y": 9062,
      "há»¥t": 9063,
      "Ġláº£": 9064,
      "Ġlis": 9065,
      "Ġláº©m": 9066,
      "Ġml": 9067,
      "Ġmw": 9068,
      "Ġmard": 9069,
      "Ġmess": 9070,
      "Ġmasa": 9071,
      "Ġmatch": 9072,
      "Ġbn": 9073,
      "Ġbey": 9074,
      "Ġbetty": 9075,
      "ĠcÃºt": 9076,
      "Ġkard": 9077,
      "Ġsor": 9078,
      "ĠsiÃªng": 9079,
      "Ġsig": 9080,
      "Ġslow": 9081,
      "ĠtrÄ©u": 9082,
      "ĠgÆ°á»£ng": 9083,
      "Ġgiáº¿m": 9084,
      "Ġglo": 9085,
      "Ġht": 9086,
      "Ġhand": 9087,
      "Ġnhuyá»ħn": 9088,
      "Ġpay": 9089,
      "Ġped": 9090,
      "Ġrus": 9091,
      "Ġrex": 9092,
      "ĠrÃ¡m": 9093,
      "Ġrip": 9094,
      "Ġdá»Ļt": 9095,
      "Ġdiá»ĩp": 9096,
      "Ġdiáº¿p": 9097,
      "Ġchy": 9098,
      "Ġchau": 9099,
      "ĠchÃłi": 9100,
      "Ġchem": 9101,
      "ĠchiÃªc": 9102,
      "Ġthiáº¿c": 9103,
      "Ġthatcher": 9104,
      "Ġhá»Łi": 9105,
      "Ġtaj": 9106,
      "Ġtá»µ": 9107,
      "Ġtá»§i": 9108,
      "quá»": 9109,
      "ĠkhÆ¡": 9110,
      "ĠkhiÃªn": 9111,
      "ĠkhÄĥm": 9112,
      "Ġgit": 9113,
      "Ġxiáº¿t": 9114,
      "Ġpháº¥t": 9115,
      "Ġlá»įi": 9116,
      "Ġbá»£": 9117,
      "Ġbá»ĩn": 9118,
      "ĠÄĳá»ĥn": 9119,
      "ĠÃŃn": 9120,
      "Ġhom": 9121,
      "onew": 9122,
      "chai": 9123,
      "char": 9124,
      "ĠnhÃŃch": 9125,
      "ĠlÃ¢ng": 9126,
      "Ġná»Ľt": 9127,
      "Ġconor": 9128,
      "ĠdÃ©": 9129,
      "Ġtoan": 9130,
      "Ġtoken": 9131,
      "ĠbÃ©t": 9132,
      "Ġlois": 9133,
      "ĠloÃ¡t": 9134,
      "ĠloÃ¡ng": 9135,
      "ĠphÃłng": 9136,
      "Ġphung": 9137,
      "uá»Ľc": 9138,
      "Ġyos": 9139,
      "ambi": 9140,
      "erabad": 9141,
      "encer": 9142,
      "Ġdoha": 9143,
      "iar": 9144,
      "Ġngá»¥m": 9145,
      "Ġháº¡m": 9146,
      "ĠrÃ²i": 9147,
      "Ġvisa": 9148,
      "Ġvill": 9149,
      "Ġxuá»ĵng": 9150,
      "Ġemeka": 9151,
      "ĠkhuÃ¢y": 9152,
      "ely": 9153,
      "elic": 9154,
      "elop": 9155,
      "esi": 9156,
      "eston": 9157,
      "Ġbaxter": 9158,
      "Ġwhi": 9159,
      "Ġwitt": 9160,
      "Ġjn": 9161,
      "Ġjung": 9162,
      "Ġjet": 9163,
      "Ġjit": 9164,
      "Ġjun": 9165,
      "Ġjav": 9166,
      "Ġjake": 9167,
      "ict": 9168,
      "Ġdiy": 9169,
      "Ġdich": 9170,
      "Ġdiam": 9171,
      "Ġ204": 9172,
      "Ġover": 9173,
      "Ġobi": 9174,
      "Ġcoach": 9175,
      "Ġlaika": 9176,
      "Ġdak": 9177,
      "leigh": 9178,
      "Ġcaffe": 9179,
      "Ġiron": 9180,
      "Ġpháº¡n": 9181,
      "Ġ9000": 9182,
      "ids": 9183,
      "aca": 9184,
      "Ġstonew": 9185,
      "Ġgenes": 9186,
      "Ġgeneva": 9187,
      "ury": 9188,
      "Ġale": 9189,
      "ĠnghiÃ£": 9190,
      "inger": 9191,
      "Ġubuntu": 9192,
      "phis": 9193,
      "loe": 9194,
      "log": 9195,
      "lov": 9196,
      "lobin": 9197,
      "Ġmachiavel": 9198,
      "ĠmÃªtan": 9199,
      "try": 9200,
      "Ġmarily": 9201,
      "Ġbull": 9202,
      "rier": 9203,
      "cky": 9204,
      "Ġcarson": 9205,
      "Ġhux": 9206,
      "Ġhulk": 9207,
      "Ġjournal": 9208,
      "stem": 9209,
      "Ġamel": 9210,
      "Ġamber": 9211,
      "Ġ1100": 9212,
      "owitz": 9213,
      "Ġrupi": 9214,
      "Ġsachs": 9215,
      "Ġshack": 9216,
      "Ġshadi": 9217,
      "Ġbieber": 9218,
      "ula": 9219,
      "Ġvá»ın": 9220,
      "Ġada": 9221,
      "cock": 9222,
      "Ġanders": 9223,
      "iana": 9224,
      "Ġharyana": 9225,
      "Ġtibet": 9226,
      "Ġ1981": 9227,
      "erset": 9228,
      "ersburg": 9229,
      "ĠbÃ³i": 9230,
      "Ġspencer": 9231,
      "ÄĳÃ¢u": 9232,
      "ization": 9233,
      "Ġbarcelona": 9234,
      "Äĳá»§": 9235,
      "Äĳá»Ŀi": 9236,
      "tive": 9237,
      "Ġpetersburg": 9238,
      "Ġeno": 9239,
      "Ġblair": 9240,
      "Ġmilwau": 9241,
      "burn": 9242,
      "Ġváº¹o": 9243,
      "Ġclar": 9244,
      "Ġpalo": 9245,
      "Ġcritic": 9246,
      "Ġmalta": 9247,
      "Ġcacbonic": 9248,
      "mour": 9249,
      "boy": 9250,
      "Ġappala": 9251,
      "Ġ1944": 9252,
      "Ġgalton": 9253,
      "Ġgalvao": 9254,
      "Ġmix": 9255,
      "pool": 9256,
      "Ġhyderabad": 9257,
      "Ġesp": 9258,
      "Ġestonia": 9259,
      "Ġsari": 9260,
      "Ġchristine": 9261,
      "Ġ1952": 9262,
      "Ġ1958": 9263,
      "oglobin": 9264,
      "Ġagile": 9265,
      "Ġrockett": 9266,
      "Ġpear": 9267,
      "Ġpeace": 9268,
      "mmm": 9269,
      "nhÃ³m": 9270,
      "Ġmicrophone": 9271,
      "bá»ı": 9272,
      "Ġcyril": 9273,
      "Ġ1912": 9274,
      "Ġfermi": 9275,
      "Ġpope": 9276,
      "Ġsomerset": 9277,
      "Ġjaneiro": 9278,
      "Ġtemes": 9279,
      "Ġmagell": 9280,
      "Ġentropica": 9281,
      "Ġtelomer": 9282,
      "foam": 9283,
      "foot": 9284,
      "Ġskycar": 9285,
      "Ġcatalog": 9286,
      "Ġcatadore": 9287,
      "Ġremix": 9288,
      "Ġstevenson": 9289,
      "Ġself": 9290,
      "Ġjasmine": 9291,
      "Ġhyperbol": 9292,
      "Ġhunter": 9293,
      "Ġroyal": 9294,
      "Ġmozambi": 9295,
      "ĠgiÃªng": 9296,
      "ná»Ĺi": 9297,
      "Ġnicot": 9298,
      "Ġcomplex": 9299,
      "readnough": 9300,
      "Ġbernard": 9301,
      "Ġkerry": 9302,
      "omones": 9303,
      "Ġmedic": 9304,
      "ká»ĥ": 9305,
      "Ġtaskrabbit": 9306,
      "Ġbirmingham": 9307,
      "Ġpheromones": 9308,
      "ĠprÃ´tein": 9309,
      "Ġnucleo": 9310,
      "Ġbeverly": 9311,
      "Ġaugustus": 9312,
      "Ġdolly": 9313,
      "Ġsnap": 9314,
      "Ġhindi": 9315,
      "Ġfischer": 9316,
      "Ġmohamed": 9317,
      "Ġbmw": 9318,
      "Ġtodai": 9319,
      "Ġnegrop": 9320,
      "ĠcarroÃ§a": 9321,
      "Ġjenipher": 9322,
      "Ġdominica": 9323,
      "Ġachilles": 9324,
      "Ġgapminder": 9325,
      "Ġpipa": 9326,
      "Ġyuval": 9327,
      "Ġlinkedin": 9328,
      "Ġboraqchin": 9329,
      "Ġseoul": 9330,
      "Ġkumbh": 9331,
      "Ġlazarus": 9332,
      "Ġstyrofoam": 9333,
      "Ġnucleic": 9334,
      "Ġtubman": 9335,
      "Ġshabaab": 9336,
      "Ġboeing": 9337,
      "Ġmorocco": 9338,
      "Ġcivic": 9339,
      "Ġnaghma": 9340,
      "Ġcaffeine": 9341,
      "Ġmarilyn": 9342,
      "Ġmilwaukee": 9343,
      "Ġmozambique": 9344,
      "readnoughtus": 9345,
      "!!": 9346,
      ",..": 9347,
      "700": 9348,
      "93": 9349,
      "bÃªn": 9350,
      "bit": 9351,
      "bing": 9352,
      "born": 9353,
      "card": 9354,
      "cop": 9355,
      "gt": 9356,
      "geo": 9357,
      "gill": 9358,
      "gie": 9359,
      "gdala": 9360,
      "her": 9361,
      "jon": 9362,
      "jim": 9363,
      "kn": 9364,
      "kok": 9365,
      "kash": 9366,
      "ls": 9367,
      "lang": 9368,
      "lett": 9369,
      "mu": 9370,
      "má»Ł": 9371,
      "mit": 9372,
      "muddin": 9373,
      "nd": 9374,
      "not": 9375,
      "ovan": 9376,
      "reo": 9377,
      "rass": 9378,
      "sl": 9379,
      "sai": 9380,
      "táº¯t": 9381,
      "uj": 9382,
      "vey": 9383,
      "wne": 9384,
      "xá»": 9385,
      "§y": 9386,
      "Ã¢t": 9387,
      "ĠÃ³ng": 9388,
      "ĭa": 9389,
      "Ġtq": 9390,
      "Ġtiá»ģu": 9391,
      "ĠtÃłnh": 9392,
      "ĠtÃło": 9393,
      "Ġcc": 9394,
      "Ġcv": 9395,
      "Ġced": 9396,
      "Ġcre": 9397,
      "Ġclu": 9398,
      "Ġcelt": 9399,
      "Ġceline": 9400,
      "ĠÄĳáº·ng": 9401,
      "Ġnanh": 9402,
      "Ġnag": 9403,
      "Ġnav": 9404,
      "Ġnbc": 9405,
      "Ġvs": 9406,
      "Ġluá»Ļc": 9407,
      "Ġlid": 9408,
      "Ġlist": 9409,
      "Ġlatt": 9410,
      "Ġmj": 9411,
      "Ġmis": 9412,
      "Ġmash": 9413,
      "Ġmind": 9414,
      "Ġmela": 9415,
      "Ġmeyer": 9416,
      "ĠbÃªu": 9417,
      "Ġbáº¹": 9418,
      "Ġbis": 9419,
      "Ġbáº¹p": 9420,
      "Ġbun": 9421,
      "Ġbing": 9422,
      "Ġborn": 9423,
      "Ġbook": 9424,
      "Ġbeth": 9425,
      "Ġboko": 9426,
      "Ġkas": 9427,
      "Ġkaf": 9428,
      "Ġsáº¡t": 9429,
      "ĠsÃło": 9430,
      "Ġsard": 9431,
      "Ġsister": 9432,
      "Ġtry": 9433,
      "Ġtriá»ģn": 9434,
      "Ġngáº¡n": 9435,
      "Ġngáº¥y": 9436,
      "ĠgÃłn": 9437,
      "ĠgÃłi": 9438,
      "Ġgáº«y": 9439,
      "Ġgowan": 9440,
      "Ġgadda": 9441,
      "Ġhau": 9442,
      "Ġhard": 9443,
      "Ġhass": 9444,
      "Ġhurt": 9445,
      "Ġpai": 9446,
      "Ġpew": 9447,
      "Ġpad": 9448,
      "Ġpent": 9449,
      "Ġria": 9450,
      "ĠrÃ¡ng": 9451,
      "Ġrush": 9452,
      "Ġriley": 9453,
      "Ġdk": 9454,
      "Ġdáº£": 9455,
      "ĠdÆ°á»£ng": 9456,
      "Ġdal": 9457,
      "Ġdew": 9458,
      "ĠdÅ©a": 9459,
      "Ġchk": 9460,
      "Ġhá»§i": 9461,
      "Ġhá»£m": 9462,
      "Ġtháº©n": 9463,
      "Ġtá»ģ": 9464,
      "Ġkhiá»ħng": 9465,
      "Ġgic": 9466,
      "Ġgin": 9467,
      "Ġgiga": 9468,
      "ĠxÃ³c": 9469,
      "Ġnghiá»ħm": 9470,
      "Ġraj": 9471,
[...]
