{
  "version": "1.0",
  "truncation": null,
  "padding": null,
  "added_tokens": [
    {
      "id": 0,
      "content": "<pad>",
      "single_word": false,
      "lstrip": false,
      "rstrip": false,
      "normalized": false,
      "special": true
    },
    {
      "id": 1,
      "content": "<unk>",
      "single_word": false,
      "lstrip": false,
      "rstrip": false,
      "normalized": false,
      "special": true
    },
    {
      "id": 2,
      "content": "<sos>",
      "single_word": false,
      "lstrip": false,
      "rstrip": false,
      "normalized": false,
      "special": true
    },
    {
      "id": 3,
      "content": "<eos>",
      "single_word": false,
      "lstrip": false,
      "rstrip": false,
      "normalized": false,
      "special": true
    }
  ],
  "normalizer": null,
  "pre_tokenizer": {
    "type": "ByteLevel",
    "add_prefix_space": true,
    "trim_offsets": true,
    "use_regex": true
  },
  "post_processor": null,
  "decoder": {
    "type": "ByteLevel",
    "add_prefix_space": true,
    "trim_offsets": true,
    "use_regex": true
  },
  "model": {
    "type": "BPE",
    "dropout": null,
    "unk_token": null,
    "continuing_subword_prefix": null,
    "end_of_word_suffix": null,
    "fuse_unk": false,
    "byte_fallback": false,
    "ignore_merges": false,
    "vocab": {
      "<pad>": 0,
      "<unk>": 1,
      "<sos>": 2,
      "<eos>": 3,
      "!": 4,
      "\"": 5,
      "'": 6,
      "(": 7,
      ")": 8,
      ",": 9,
      "-": 10,
      ".": 11,
      "0": 12,
      "1": 13,
      "2": 14,
      "3": 15,
      "4": 16,
      "5": 17,
      "6": 18,
      "7": 19,
      "8": 20,
      "9": 21,
      ":": 22,
      ";": 23,
      "<": 24,
      ">": 25,
      "?": 26,
      "[": 27,
      "]": 28,
      "_": 29,
      "a": 30,
      "b": 31,
      "c": 32,
      "d": 33,
      "e": 34,
      "f": 35,
      "g": 36,
      "h": 37,
      "i": 38,
      "j": 39,
      "k": 40,
      "l": 41,
      "m": 42,
      "n": 43,
      "o": 44,
      "p": 45,
      "q": 46,
      "r": 47,
      "s": 48,
      "t": 49,
      "u": 50,
      "v": 51,
      "w": 52,
      "x": 53,
      "y": 54,
      "z": 55,
      "¡": 56,
      "¢": 57,
      "£": 58,
      "¤": 59,
      "¥": 60,
      "¦": 61,
      "§": 62,
      "¨": 63,
      "©": 64,
      "ª": 65,
      "«": 66,
      "¬": 67,
      "®": 68,
      "¯": 69,
      "°": 70,
      "±": 71,
      "²": 72,
      "³": 73,
      "´": 74,
      "¶": 75,
      "¸": 76,
      "¹": 77,
      "º": 78,
      "»": 79,
      "¼": 80,
      "½": 81,
      "¾": 82,
      "Â": 83,
      "Ã": 84,
      "Ä": 85,
      "Å": 86,
      "Ç": 87,
      "Ê": 88,
      "Ï": 89,
      "Ð": 90,
      "Ñ": 91,
      "à": 92,
      "á": 93,
      "â": 94,
      "ä": 95,
      "å": 96,
      "æ": 97,
      "è": 98,
      "Ċ": 99,
      "Ġ": 100,
      "Ģ": 101,
      "ģ": 102,
      "ĥ": 103,
      "Ħ": 104,
      "ĩ": 105,
      "ĭ": 106,
      "į": 107,
      "Ĳ": 108,
      "Ĵ": 109,
      "ĵ": 110,
      "Ķ": 111,
      "ĸ": 112,
      "Ĺ": 113,
      "ĺ": 114,
      "ļ": 115,
      "Ľ": 116,
      "Ł": 117,
      "ł": 118,
      "Ń": 119,
      "Ġt": 120,
      "Ġa": 121,
      "Ġth": 122,
      "Ġi": 123,
      "Ġw": 124,
      "Ġthe": 125,
      "Ġs": 126,
      "re": 127,
      "Ġo": 128,
      "in": 129,
      "at": 130,
      "er": 131,
      "nd": 132,
      "ou": 133,
      "Ġc": 134,
      "Ġb": 135,
      "Ġh": 136,
      "Ġm": 137,
      "ing": 138,
      "en": 139,
      "Ġand": 140,
      "Ġto": 141,
      "Ġp": 142,
      "Ġf": 143,
      "on": 144,
      "es": 145,
      "Ġd": 146,
      "an": 147,
      "or": 148,
      "Ġof": 149,
      "al": 150,
      "Ġin": 151,
      "Ġl": 152,
      "Ġn": 153,
      "ed": 154,
      "Ġis": 155,
      "is": 156,
      "it": 157,
      "ar": 158,
      "Ġy": 159,
      "Ġthat": 160,
      "Ġwe": 161,
      "Ġg": 162,
      "om": 163,
      "as": 164,
      "Ġyou": 165,
      "ic": 166,
      "Ġwh": 167,
      "le": 168,
      "Ġe": 169,
      "ve": 170,
      "Ġit": 171,
      "us": 172,
      "ll": 173,
      "Ġbe": 174,
      "ly": 175,
      "ow": 176,
      "ut": 177,
      "ion": 178,
      "Ġha": 179,
      "ot": 180,
      "Ġre": 181,
      "et": 182,
      "ent": 183,
      "ld": 184,
      "Ġon": 185,
      "ct": 186,
      "ver": 187,
      "Ġare": 188,
      "Ġthis": 189,
      "gh": 190,
      "ay": 191,
      "se": 192,
      "Ġso": 193,
      "Ġst": 194,
      "ur": 195,
      "Ġ-": 196,
      "st": 197,
      "id": 198,
      "ro": 199,
      "Ġdo": 200,
      "ch": 201,
      "ke": 202,
      "Ġhave": 203,
      "Ġfor": 204,
      "Ġhe": 205,
      "ce": 206,
      "Ġli": 207,
      "ra": 208,
      "ght": 209,
      "Ġthey": 210,
      "Ġwas": 211,
      "Ġan": 212,
      "ir": 213,
      "im": 214,
      "ith": 215,
      "op": 216,
      "th": 217,
      "Ġu": 218,
      "Ġwith": 219,
      "am": 220,
      "Ġbut": 221,
      "oo": 222,
      "Ġse": 223,
      "ally": 224,
      "Ġk": 225,
      "Ġas": 226,
      "ri": 227,
      "Ġab": 228,
      "Ġmo": 229,
      "ould": 230,
      "Ġwhat": 231,
      "ation": 232,
      "ill": 233,
      "Ġsh": 234,
      "Ġj": 235,
      "Ġne": 236,
      "Ġwor": 237,
      "Ġcan": 238,
      "la": 239,
      "out": 240,
      "Ġme": 241,
      "Ġcom": 242,
      "Ġat": 243,
      "Ġch": 244,
      "'t": 245,
      "Ġgo": 246,
      "ad": 247,
      "ere": 248,
      "Ġnot": 249,
      "ol": 250,
      "Ġus": 251,
      "ers": 252,
      "Ġ--": 253,
      "ant": 254,
      "Ġ\"": 255,
      "ge": 256,
      "very": 257,
      "Ġabout": 258,
      "Ġall": 259,
      "Ġmy": 260,
      "ul": 261,
      "Ġthere": 262,
      "ust": 263,
      "Ġex": 264,
      "il": 265,
      "Ġde": 266,
      "Ġsom": 267,
      "Ġor": 268,
      "pp": 269,
      "ter": 270,
      "Ġpro": 271,
      "Ġpe": 272,
      "Ġfr": 273,
      "Ġcon": 274,
      "um": 275,
      "Ġlike": 276,
      "Ġone": 277,
      "art": 278,
      "ople": 279,
      "Ġpeople": 280,
      "ess": 281,
      "ear": 282,
      "ck": 283,
      "Ġour": 284,
      "use": 285,
      "Ġbec": 286,
      "ate": 287,
      "est": 288,
      "ure": 289,
      "ity": 290,
      "Ġma": 291,
      "Ġam": 292,
      "Ġfrom": 293,
      "Ġal": 294,
      "Ġif": 295,
      "ig": 296,
      "ist": 297,
      "Ġv": 298,
      "nt": 299,
      "ive": 300,
      "qu": 301,
      "ble": 302,
      "Ġkn": 303,
      "if": 304,
      "ies": 305,
      "Ġte": 306,
      "rou": 307,
      "ect": 308,
      "Ġjust": 309,
      "Ġsp": 310,
      "Ġwhen": 311,
      "all": 312,
      "Ġwould": 313,
      "Ġnow": 314,
      "king": 315,
      "Ġout": 316,
      "Ġint": 317,
      "ind": 318,
      "un": 319,
      "Ġthese": 320,
      "ause": 321,
      "os": 322,
      "Ġbecause": 323,
      "Ġ(": 324,
      "Ġr": 325,
      "Ġknow": 326,
      "Ġthem": 327,
      "Ġwho": 328,
      "Ġby": 329,
      "em": 330,
      "ort": 331,
      "Ġup": 332,
      "Ġthing": 333,
      "Ġwill": 334,
      "Ġthin": 335,
      "Ġhow": 336,
      "Ġyour": 337,
      "her": 338,
      "ci": 339,
      "Ġsome": 340,
      "Ġget": 341,
      "Ġim": 342,
      "Ġmore": 343,
      "el": 344,
      "one": 345,
      "Ġtim": 346,
      "Ġtheir": 347,
      "Ġyear": 348,
      "Ġhad": 349,
      "ich": 350,
      "Ġ1": 351,
      "Ġsee": 352,
      "Ġact": 353,
      "and": 354,
      "Ġsu": 355,
      "Ġvery": 356,
      "Ġwere": 357,
      "Ġgoing": 358,
      "Ġtr": 359,
      "Ġen": 360,
      "ook": 361,
      "Ġsa": 362,
      "ment": 363,
      "ine": 364,
      "Ġthink": 365,
      "ain": 366,
      "Ġta": 367,
      "ie": 368,
      "og": 369,
      "ast": 370,
      "ame": 371,
      "iv": 372,
      "Ġcomp": 373,
      "ught": 374,
      "Ġle": 375,
      "our": 376,
      "act": 377,
      "ous": 378,
      "Ġwhich": 379,
      "Ġca": 380,
      "ard": 381,
      "ood": 382,
      "Ġwant": 383,
      "iz": 384,
      "Ġevery": 385,
      "Ġev": 386,
      "00": 387,
      "Ġworld": 388,
      "ose": 389,
      "Ġreally": 390,
      "reat": 391,
      "Ġtime": 392,
      "res": 393,
      "'s": 394,
      "Ġway": 395,
      "Ġman": 396,
      "ughter": 397,
      "Ġhere": 398,
      "ight": 399,
      "Ġun": 400,
      "ually": 401,
      "Ġoth": 402,
      "hing": 403,
      "Ġpl": 404,
      "Ġthen": 405,
      "Ġper": 406,
      "Ġexp": 407,
      "ans": 408,
      "ions": 409,
      "od": 410,
      "red": 411,
      "Ġfe": 412,
      "Ġhas": 413,
      "laughter": 414,
      "ide": 415,
      "Ġcould": 416,
      "ag": 417,
      "Ġqu": 418,
      "ab": 419,
      "ack": 420,
      "ong": 421,
      "Ġinto": 422,
      "pt": 423,
      "ud": 424,
      "Ġno": 425,
      "ence": 426,
      "Ġwork": 427,
      "Ġwhere": 428,
      "ild": 429,
      "Ġag": 430,
      "Ġthan": 431,
      "Ġri": 432,
      "Ġother": 433,
      "Ġsay": 434,
      "Ġdid": 435,
      "Ġlook": 436,
      "Ġyears": 437,
      "age": 438,
      "ore": 439,
      "Ġshe": 440,
      "ical": 441,
      "Ġtw": 442,
      "Ġactually": 443,
      "nder": 444,
      "ach": 445,
      "Ġsomet": 446,
      "Ġaf": 447,
      "Ġthings": 448,
      "Ġany": 449,
      "iff": 450,
      "Ġcl": 451,
      "itt": 452,
      "Ġco": 453,
      "Ġneed": 454,
      "Ġnew": 455,
      "Ġdis": 456,
      "Ġmake": 457,
      "Ġbeen": 458,
      "so": 459,
      "Ġdiff": 460,
      ".\"": 461,
      "Ġar": 462,
      "fe": 463,
      "Ġover": 464,
      "ap": 465,
      "Ġright": 466,
      "Ġro": 467,
      "Ġfir": 468,
      "Ġpo": 469,
      "Ġimp": 470,
      "Ġ2": 471,
      "Ġstart": 472,
      "Ġpart": 473,
      "Ġthose": 474,
      "Ġlo": 475,
      "Ġhapp": 476,
      "Ġfirst": 477,
      "Ġtwo": 478,
      "ice": 479,
      "round": 480,
      "Ġchan": 481,
      "ite": 482,
      "ry": 483,
      "ree": 484,
      "Ġbu": 485,
      "ory": 486,
      "Ġwell": 487,
      "orm": 488,
      "Ġsomething": 489,
      "Ġeven": 490,
      "ount": 491,
      "own": 492,
      "Ġcall": 493,
      "Ġac": 494,
      "Ġspe": 495,
      "Ġback": 496,
      "sel": 497,
      "Ġpr": 498,
      "ia": 499,
      "Ġmost": 500,
      "Ġalso": 501,
      "ens": 502,
      "ass": 503,
      "ves": 504,
      "Ġsaid": 505,
      "ound": 506,
      "ater": 507,
      "Ġdiffere": 508,
      "ber": 509,
      "Ġher": 510,
      "ving": 511,
      "ult": 512,
      "olog": 513,
      "ces": 514,
      "Ġph": 515,
      "Ġcont": 516,
      "Ġad": 517,
      "Ġhis": 518,
      "ip": 519,
      "are": 520,
      "ep": 521,
      "ign": 522,
      "Ġbet": 523,
      "Ġres": 524,
      "ff": 525,
      "ue": 526,
      "ome": 527,
      "Ġtal": 528,
      "Ġmu": 529,
      "rain": 530,
      "Ġlife": 531,
      "Ġonly": 532,
      "Ġid": 533,
      "ru": 534,
      "Ġunder": 535,
      "Ġday": 536,
      "Ġhum": 537,
      "Ġmany": 538,
      "way": 539,
      "ell": 540,
      "Ġgot": 541,
      "Ġmuch": 542,
      "cent": 543,
      "ations": 544,
      "ple": 545,
      "vel": 546,
      "ated": 547,
      "Ġsy": 548,
      "Ġfa": 549,
      "Ġlot": 550,
      "Ġdes": 551,
      "co": 552,
      "Ġkind": 553,
      "ittle": 554,
      "Ġlittle": 555,
      "ody": 556,
      "Ġtake": 557,
      "rough": 558,
      "Ġcomm": 559,
      "Ġlet": 560,
      "lo": 561,
      "Ġreal": 562,
      "Ġdifferent": 563,
      "other": 564,
      "ish": 565,
      "Ġind": 566,
      "ire": 567,
      "Ġmay": 568,
      "Ġdoes": 569,
      "ict": 570,
      "Ġem": 571,
      "Ġgood": 572,
      "ick": 573,
      "able": 574,
      "int": 575,
      "ents": 576,
      "Ġthrough": 577,
      "Ġsc": 578,
      "Ġpre": 579,
      "ase": 580,
      "cess": 581,
      "ress": 582,
      "Ġaround": 583,
      "Ġra": 584,
      "ph": 585,
      "ors": 586,
      "end": 587,
      "du": 588,
      "Ġbeing": 589,
      "Ġinc": 590,
      "Ġtell": 591,
      "Ġide": 592,
      "ning": 593,
      "Ġsm": 594,
      "Ġdown": 595,
      "Ġinter": 596,
      "als": 597,
      "Ġtoo": 598,
      "Ġoff": 599,
      "les": 600,
      "wn": 601,
      "form": 602,
      "Ġsame": 603,
      "day": 604,
      "Ġgen": 605,
      "ak": 606,
      "Ġuse": 607,
      "ath": 608,
      "Ġthou": 609,
      "ether": 610,
      "ance": 611,
      "ms": 612,
      "ary": 613,
      "igh": 614,
      "ade": 615,
      "Ġshow": 616,
      "ved": 617,
      "ile": 618,
      "Ġwhy": 619,
      "Ġput": 620,
      "Ġhuman": 621,
      "be": 622,
      "Ġwom": 623,
      "Ġpers": 624,
      "ful": 625,
      "Ġcount": 626,
      "Ġtra": 627,
      "Ġbr": 628,
      "ys": 629,
      "Ġpla": 630,
      "Ġdec": 631,
      "Ġproble": 632,
      "ars": 633,
      "lect": 634,
      "Ġwr": 635,
      "ang": 636,
      "ark": 637,
      "xt": 638,
      "Ġsur": 639,
      "Ġtry": 640,
      "Ġfact": 641,
      "stem": 642,
      "ren": 643,
      "ject": 644,
      "Ġhappen": 645,
      "Ġbig": 646,
      "Ġcome": 647,
      "urn": 648,
      "Ġafter": 649,
      "Ġapp": 650,
      "Ġcol": 651,
      "Ġhel": 652,
      "Ġchild": 653,
      "Ġfind": 654,
      "Ġstud": 655,
      "ting": 656,
      "Ġtech": 657,
      "vers": 658,
      "Ġgreat": 659,
      "Ġthree": 660,
      "ible": 661,
      "Ġexper": 662,
      "row": 663,
      "Ġtalk": 664,
      "ool": 665,
      "we": 666,
      "ower": 667,
      "Ġrem": 668,
      "per": 669,
      "Ġlear": 670,
      "ord": 671,
      "Ġear": 672,
      "self": 673,
      "ace": 674,
      "Ġsystem": 675,
      "Ġagain": 676,
      "Ġcalled": 677,
      "ons": 678,
      "fore": 679,
      "Ġinst": 680,
      "Ġjo": 681,
      "Ġinv": 682,
      "Ġsim": 683,
      "Ġquest": 684,
      "Ġtechn": 685,
      "Ġlong": 686,
      "Ġdoing": 687,
      "Ġgu": 688,
      "ities": 689,
      "Ġpercent": 690,
      "Ġhelp": 691,
      "thing": 692,
      "Ġown": 693,
      "Ġfeel": 694,
      "ial": 695,
      "Ġbel": 696,
      "Ġtoday": 697,
      "ically": 698,
      "Ġend": 699,
      "Ġbl": 700,
      "Ġbrain": 701,
      "Ġbuild": 702,
      "app": 703,
      "ition": 704,
      "Ġmade": 705,
      "cial": 706,
      "ating": 707,
      "Ġob": 708,
      "Ġbo": 709,
      "Ġfo": 710,
      "Ġshould": 711,
      "ics": 712,
      "ious": 713,
      "Ġbas": 714,
      "ual": 715,
      "oss": 716,
      "Ġrep": 717,
      "ib": 718,
      "ft": 719,
      "Ġunderst": 720,
      "Ġask": 721,
      "ates": 722,
      "Ġimport": 723,
      "ology": 724,
      "Ġcar": 725,
      "Ġperson": 726,
      "illion": 727,
      "Ġsch": 728,
      "Ġchange": 729,
      "Ġgra": 730,
      "Ġke": 731,
      "ric": 732,
      "body": 733,
      "Ġhigh": 734,
      "Ġsci": 735,
      "ty": 736,
      "ub": 737,
      "Ġcons": 738,
      "lic": 739,
      "Ġhim": 740,
      "wh": 741,
      "ily": 742,
      "ize": 743,
      "Ġbefore": 744,
      "Ġfl": 745,
      "Ġmean": 746,
      "Ġimportant": 747,
      "cy": 748,
      "Ġimag": 749,
      "Ġins": 750,
      "Ġold": 751,
      "Ġmight": 752,
      "Ġbetter": 753,
      "Ġcreat": 754,
      "Ġstill": 755,
      "Ġthought": 756,
      "Ġrel": 757,
      "Ġlast": 758,
      "Ġunderstand": 759,
      "Ġfam": 760,
      "Ġanother": 761,
      "Ġeach": 762,
      "Ġstarted": 763,
      "Ġmon": 764,
      "con": 765,
      "Ġcommun": 766,
      "Ġfu": 767,
      "ise": 768,
      "Ġnever": 769,
      "Ġtrans": 770,
      "Ġplay": 771,
      "Ġidea": 772,
      "ists": 773,
      "Ġla": 774,
      "Ġpol": 775,
      "ility": 776,
      "ks": 777,
      "Ġturn": 778,
      "Ġnum": 779,
      "ian": 780,
      "Ġexam": 781,
      "gan": 782,
      "Ġhand": 783,
      "kes": 784,
      "Ġplan": 785,
      "Ġ3": 786,
      "Ġbelie": 787,
      "Ġcour": 788,
      "alth": 789,
      "ope": 790,
      "Ġgive": 791,
      "Ġwomen": 792,
      "Ġpower": 793,
      "Ġsol": 794,
      "ced": 795,
      "ution": 796,
      "lause": 797,
      "Ġfound": 798,
      "Ġdesign": 799,
      "Ġent": 800,
      "Ġmed": 801,
      "Ġtog": 802,
      "Ġatt": 803,
      "000": 804,
      "Ġschool": 805,
      "Ġtogether": 806,
      "Ġpoint": 807,
      "Ġpat": 808,
      "arch": 809,
      "applause": 810,
      "oth": 811,
      "erest": 812,
      "ction": 813,
      "Ġter": 814,
      "Ġlearn": 815,
      "Ġproblem": 816,
      "ular": 817,
      "ough": 818,
      "Ġfew": 819,
      "Ġprodu": 820,
      "Ġstory": 821,
      "Ġwater": 822,
      "Ġits": 823,
      "te": 824,
      "Ġable": 825,
      "Ġnext": 826,
      "Ġcent": 827,
      "Ġinterest": 828,
      "Ġcr": 829,
      "Ġkid": 830,
      "Ġ20": 831,
      "Ġhu": 832,
      "cond": 833,
      "ness": 834,
      "Ġart": 835,
      "Ġtri": 836,
      "Ġwent": 837,
      "ited": 838,
      "eric": 839,
      "Ġext": 840,
      "Ġdat": 841,
      "ward": 842,
      "ert": 843,
      "erg": 844,
      "mo": 845,
      "Ġfin": 846,
      "iss": 847,
      "atch": 848,
      "Ġbit": 849,
      "ros": 850,
      "Ġplace": 851,
      "Ġmod": 852,
      "ween": 853,
      "Ġeng": 854,
      "ized": 855,
      ",\"": 856,
      "ience": 857,
      "Ġbetween": 858,
      "Ġser": 859,
      "Ġdi": 860,
      "uc": 861,
      "Ġago": 862,
      "read": 863,
      "Ġsecond": 864,
      "ger": 865,
      "velop": 866,
      "Ġquestion": 867,
      "Ġcell": 868,
      "Ġmet": 869,
      "Ġused": 870,
      "Ġcomple": 871,
      "Ġmom": 872,
      "Ġlove": 873,
      "gin": 874,
      "Ġword": 875,
      "ix": 876,
      "ines": 877,
      "Ġdata": 878,
      "Ġed": 879,
      "Ġdevelop": 880,
      "Ġrec": 881,
      "Ġcame": 882,
      "cept": 883,
      "Ġameric": 884,
      "Ġcourse": 885,
      "ures": 886,
      "ered": 887,
      "Ġcre": 888,
      "ather": 889,
      "ense": 890,
      "Ġ19": 891,
      "Ġuni": 892,
      "ways": 893,
      "Ġsmall": 894,
      "Ġop": 895,
      "ooking": 896,
      "Ġhealth": 897,
      "ave": 898,
      "Ġstr": 899,
      "Ġmin": 900,
      "pe": 901,
      "Ġeff": 902,
      "?\"": 903,
      "Ġmaybe": 904,
      "Ġfour": 905,
      "ative": 906,
      "Ġcare": 907,
      "Ġlight": 908,
      "Ġchildren": 909,
      "Ġsl": 910,
      "Ġfar": 911,
      "Ġgrow": 912,
      "Ġhard": 913,
      "Ġread": 914,
      "Ġmus": 915,
      "Ġtechnology": 916,
      "Ġfri": 917,
      "Ġ10": 918,
      "ets": 919,
      "Ġexample": 920,
      "Ġwo": 921,
      "Ġlive": 922,
      "av": 923,
      "ale": 924,
      "Ġlooking": 925,
      "ings": 926,
      "Ġless": 927,
      "Ġmove": 928,
      "ific": 929,
      "ram": 930,
      "Ġinform": 931,
      "Ġel": 932,
      "Ġpartic": 933,
      "Ġsk": 934,
      "Ġsort": 935,
      "Ġwanted": 936,
      "Ġchang": 937,
      "ps": 938,
      "Ġgener": 939,
      "Ġnat": 940,
      "Ġever": 941,
      "Ġbeh": 942,
      "Ġho": 943,
      "Ġcomput": 944,
      "ments": 945,
      "Ġsupp": 946,
      "ross": 947,
      "Ġresp": 948,
      "Ġalways": 949,
      "Ġgiv": 950,
      "fect": 951,
      "Ġposs": 952,
      "Ġwar": 953,
      "selves": 954,
      "az": 955,
      "ably": 956,
      "ism": 957,
      "Ġcor": 958,
      "Ġaway": 959,
      "Ġdone": 960,
      "cer": 961,
      "ead": 962,
      "Ġworking": 963,
      "Ġwal": 964,
      "ute": 965,
      "Ġprot": 966,
      "iness": 967,
      "Ġbi": 968,
      "oney": 969,
      "Ġlar": 970,
      "Ġnumber": 971,
      "Ġhome": 972,
      "ational": 973,
      "Ġbelieve": 974,
      "hip": 975,
      "Ġfriend": 976,
      "led": 977,
      "Ġtrying": 978,
      "Ġacc": 979,
      "gg": 980,
      "Ġeverything": 981,
      "Ġlead": 982,
      "Ġreas": 983,
      "Ġpres": 984,
      "Ġ5": 985,
      "conom": 986,
      "ten": 987,
      "Ġusing": 988,
      "Ġfut": 989,
      "Ġwhole": 990,
      "..": 991,
      "Ġmillion": 992,
      "Ġbus": 993,
      "Ġcountry": 994,
      "Ġmeans": 995,
      "ne": 996,
      "Ġthinking": 997,
      "Ġeconom": 998,
      "ac": 999,
      "Ġfive": 1000,
      "Ġmat": 1001,
      "Ġmind": 1002,
      "Ġform": 1003,
      "Ġdep": 1004,
      "Ġcompan": 1005,
      "Ġorgan": 1006,
      "Ġvis": 1007,
      "li": 1008,
      "ruct": 1009,
      "nect": 1010,
      "Ġinformation": 1011,
      "ract": 1012,
      "Ġconf": 1013,
      "ird": 1014,
      "Ġcou": 1015,
      "Ġsub": 1016,
      "ural": 1017,
      "Ġspace": 1018,
      "Ġrun": 1019,
      "Ġopen": 1020,
      "Ġtimes": 1021,
      "Ġreg": 1022,
      "Ġpub": 1023,
      "Ġsing": 1024,
      "ork": 1025,
      "its": 1026,
      "Ġstu": 1027,
      "ries": 1028,
      "vern": 1029,
      "Ġjob": 1030,
      "ention": 1031,
      "Ġearth": 1032,
      "Ġprocess": 1033,
      "Ġfuture": 1034,
      "Ġcle": 1035,
      "Ġcreate": 1036,
      "Ġbody": 1037,
      "Ġmaking": 1038,
      "Ġkids": 1039,
      "no": 1040,
      "Ġcur": 1041,
      "Ġmoney": 1042,
      "ories": 1043,
      "Ġenough": 1044,
      "ital": 1045,
      "Ġgrou": 1046,
      "Ġelect": 1047,
      "Ġbecome": 1048,
      "sw": 1049,
      "ues": 1050,
      "Ġgovern": 1051,
      "Ġspec": 1052,
      "Ġbest": 1053,
      "Ġwhile": 1054,
      "Ġdri": 1055,
      "Ġfood": 1056,
      "tern": 1057,
      "Ġprog": 1058,
      "Ġ4": 1059,
      "Ġenerg": 1060,
      "Ġtook": 1061,
      "Ġleft": 1062,
      "Ġz": 1063,
      "Ġwithout": 1064,
      "Ġprob": 1065,
      "Ġset": 1066,
      "Ġbook": 1067,
      "Ġdoll": 1068,
      "ven": 1069,
      "Ġansw": 1070,
      "Ġadd": 1071,
      "Ġrese": 1072,
      "Ġsound": 1073,
      "Ġmonth": 1074,
      "Ġglo": 1075,
      "Ġhead": 1076,
      "Ġteach": 1077,
      "iting": 1078,
      "Ġsign": 1079,
      "Ġkeep": 1080,
      "Ġpict": 1081,
      "Ġgetting": 1082,
      "Ġhal": 1083,
      "Ġcam": 1084,
      "Ġintern": 1085,
      "Ġanim": 1086,
      "Ġsocial": 1087,
      "ner": 1088,
      "Ġenergy": 1089,
      "ands": 1090,
      "Ġproject": 1091,
      "Ġconnect": 1092,
      "Ġlives": 1093,
      "Ġphys": 1094,
      "Ġty": 1095,
      "Ġfun": 1096,
      "aut": 1097,
      "Ġwa": 1098,
      "Ġresearch": 1099,
      "Ġval": 1100,
      "Ġref": 1101,
      "ull": 1102,
      "ew": 1103,
      "ices": 1104,
      "Ġpass": 1105,
      "Ġeas": 1106,
      "cus": 1107,
      "Ġok": 1108,
      "Ġfamily": 1109,
      "Ġpret": 1110,
      "Ġyoun": 1111,
      "Ġsw": 1112,
      "ately": 1113,
      "bal": 1114,
      "Ġhist": 1115,
      "ouse": 1116,
      "Ġcontro": 1117,
      "pl": 1118,
      "Ġsuch": 1119,
      "Ġwee": 1120,
      "Ġcomes": 1121,
      "Ġroom": 1122,
      "Ġdist": 1123,
      "iew": 1124,
      "Ġcity": 1125,
      "irl": 1126,
      "Ġafric": 1127,
      "uring": 1128,
      "ety": 1129,
      "ember": 1130,
      "ying": 1131,
      "Ġhour": 1132,
      "ote": 1133,
      "Ġtold": 1134,
      "ont": 1135,
      "Ġseem": 1136,
      "Ġmoment": 1137,
      "Ġgre": 1138,
      "Ġimagine": 1139,
      "ever": 1140,
      "Ġopp": 1141,
      "Ġchar": 1142,
      "Ġmar": 1143,
      "Ġtalking": 1144,
      "Ġpop": 1145,
      "Ġhalf": 1146,
      "Ġsense": 1147,
      "Ġdet": 1148,
      "ertain": 1149,
      "Ġmen": 1150,
      "Ġmem": 1151,
      "Ġprobably": 1152,
      "ied": 1153,
      "Ġenv": 1154,
      "Ġallow": 1155,
      "Ġinf": 1156,
      "Ġacross": 1157,
      "Ġey": 1158,
      "Ġpar": 1159,
      "Ġface": 1160,
      "Ġscient": 1161,
      "ince": 1162,
      "Ġexperience": 1163,
      "Ġstop": 1164,
      "Ġbegin": 1165,
      "Ġstand": 1166,
      "Ġmakes": 1167,
      "most": 1168,
      "Ġbla": 1169,
      "Ġside": 1170,
      "Ġord": 1171,
      "Ġanything": 1172,
      "Ġelse": 1173,
      "iron": 1174,
      "Ġaut": 1175,
      "Ġpretty": 1176,
      "arent": 1177,
      "Ġscience": 1178,
      "Ġmark": 1179,
      "Ġhappened": 1180,
      "Ġbeaut": 1181,
      "Ġyoung": 1182,
      "gs": 1183,
      "ts": 1184,
      "Ġcountries": 1185,
      "Ġasked": 1186,
      "ah": 1187,
      "Ġcult": 1188,
      "Ġboth": 1189,
      "Ġquite": 1190,
      "Ġremember": 1191,
      "Ġenviron": 1192,
      "Ġsomeone": 1193,
      "Ġsoci": 1194,
      "Ġlater": 1195,
      "Ġonce": 1196,
      "Ġbuilding": 1197,
      "Ġinteresting": 1198,
      "nce": 1199,
      "rib": 1200,
      "Ġair": 1201,
      "Ġmach": 1202,
      "imes": 1203,
      "ream": 1204,
      "ient": 1205,
      "Ġgirl": 1206,
      "Ġoften": 1207,
      "Ġhaving": 1208,
      "Ġlist": 1209,
      "Ġamaz": 1210,
      "Ġreason": 1211,
      "Ġequ": 1212,
      "Ġyet": 1213,
      "Ġways": 1214,
      "Ġeffect": 1215,
      "Ġcoming": 1216,
      "ided": 1217,
      "Ġgr": 1218,
      "Ġpain": 1219,
      "Ġcap": 1220,
      "idd": 1221,
      "Ġlevel": 1222,
      "Ġalmost": 1223,
      "Ġsure": 1224,
      "Ġlang": 1225,
      "Ġmodel": 1226,
      "Ġhope": 1227,
      "Ġeduc": 1228,
      "Ġsaw": 1229,
      "oc": 1230,
      "ants": 1231,
      "Ġbre": 1232,
      "cing": 1233,
      "ality": 1234,
      "Ġbad": 1235,
      "land": 1236,
      "Ġdef": 1237,
      "ortun": 1238,
      "Ġdollars": 1239,
      "Ġfig": 1240,
      "Ġpolit": 1241,
      "Ġglobal": 1242,
      "Ġlangu": 1243,
      "Ġsingle": 1244,
      "Ġbusiness": 1245,
      "Ġinstead": 1246,
      "Ġdise": 1247,
      "Ġtop": 1248,
      "Ġpie": 1249,
      "Ġunt": 1250,
      "Ġheart": 1251,
      "Ġliving": 1252,
      "Ġrob": 1253,
      "ail": 1254,
      "Ġpublic": 1255,
      "lf": 1256,
      "Ġwatch": 1257,
      "Ġbring": 1258,
      "Ġtreat": 1259,
      "verse": 1260,
      "Ġcommunity": 1261,
      "ases": 1262,
      "where": 1263,
      "Ġage": 1264,
      "Ġcells": 1265,
      "Ġdays": 1266,
      "llow": 1267,
      "allen": 1268,
      "Ġseen": 1269,
      "ken": 1270,
      "Ġplanet": 1271,
      "Ġprof": 1272,
      "Ġsimple": 1273,
      "Ġthous": 1274,
      "Ġlab": 1275,
      "Ġhear": 1276,
      "Ġstates": 1277,
      "Ġche": 1278,
      "Ġtest": 1279,
      "Ġmil": 1280,
      "orn": 1281,
      "ash": 1282,
      "ogra": 1283,
      "Ġinside": 1284,
      "iter": 1285,
      "ready": 1286,
      "Ġanswer": 1287,
      "Ġstuff": 1288,
      "Ġwhether": 1289,
      "olution": 1290,
      "ization": 1291,
      "Ġalready": 1292,
      "ideo": 1293,
      "ron": 1294,
      "Ġphot": 1295,
      "Ġcase": 1296,
      "ots": 1297,
      "osed": 1298,
      "ared": 1299,
      "less": 1300,
      "Ġexact": 1301,
      "Ġloc": 1302,
      "Ġcomplete": 1303,
      "Ġsit": 1304,
      "Ġhappens": 1305,
      "Ġass": 1306,
      "Ġsuc": 1307,
      "ined": 1308,
      "Ġsays": 1309,
      "man": 1310,
      "Ġrest": 1311,
      "Ġclass": 1312,
      "Ġwords": 1313,
      "Ġnothing": 1314,
      "Ġpossible": 1315,
      "Ġblack": 1316,
      "Ġpri": 1317,
      "Ġfore": 1318,
      "Ġchallen": 1319,
      "Ġgoes": 1320,
      "Ġmyself": 1321,
      "Ġdire": 1322,
      "Ġge": 1323,
      "Ġwithin": 1324,
      "Ġenvironment": 1325,
      "Ġris": 1326,
      "pr": 1327,
      "ilt": 1328,
      "Ġsix": 1329,
      "Ġsometimes": 1330,
      "Ġhistory": 1331,
      "Ġsec": 1332,
      "Ġbillion": 1333,
      "Ġcomputer": 1334,
      "Ġstate": 1335,
      "ivid": 1336,
      "Ġ200": 1337,
      "Ġdisco": 1338,
      "Ġsince": 1339,
      "Ġadv": 1340,
      "Ġwrong": 1341,
      "Ġsou": 1342,
      "Ġparticular": 1343,
      "ien": 1344,
      "ef": 1345,
      "Ġproblems": 1346,
      "Ġcertain": 1347,
      "ond": 1348,
      "oice": 1349,
      "itive": 1350,
      "imate": 1351,
      "ury": 1352,
      "Ġdeep": 1353,
      "Ġmatter": 1354,
      "Ġcontrol": 1355,
      "Ġnight": 1356,
      "Ġincre": 1357,
      "Ġmor": 1358,
      "ulation": 1359,
      "Ġcost": 1360,
      "Ġwonder": 1361,
      "Ġcontin": 1362,
      "ins": 1363,
      "aps": 1364,
      "Ġwalk": 1365,
      "Ġgroup": 1366,
      "Ġmusic": 1367,
      "Ġpicture": 1368,
      "ank": 1369,
      "Ġuntil": 1370,
      "ering": 1371,
      "the": 1372,
      "Ġsaying": 1373,
      "io": 1374,
      "ott": 1375,
      "pect": 1376,
      "air": 1377,
      "Ġlaw": 1378,
      "Ġmonths": 1379,
      "ling": 1380,
      "Ġexc": 1381,
      "ages": 1382,
      "bers": 1383,
      "Ġlooked": 1384,
      "Ġiss": 1385,
      "Ġself": 1386,
      "Ġmag": 1387,
      "Ġconst": 1388,
      "rem": 1389,
      "Ġmic": 1390,
      "Ġwoman": 1391,
      "Ġentire": 1392,
      "ange": 1393,
      "cle": 1394,
      "Ġthank": 1395,
      "Ġimm": 1396,
      "Ġfund": 1397,
      "ndred": 1398,
      "Ġhundred": 1399,
      "Ġvir": 1400,
      "Ġfull": 1401,
      "ina": 1402,
      "Ġstre": 1403,
      "Ġthough": 1404,
      "ield": 1405,
      "Ġamazing": 1406,
      "lish": 1407,
      "ier": 1408,
      "Ġpast": 1409,
      "Ġproduct": 1410,
      "Ġret": 1411,
      "Ġstudy": 1412,
      "Ġred": 1413,
      "ograph": 1414,
      "Ġteam": 1415,
      "Ġideas": 1416,
      "Ġ6": 1417,
      "ern": 1418,
      "Ġfriends": 1419,
      "Ġsex": 1420,
      "Ġlearned": 1421,
      "Ġgovernment": 1422,
      "unch": 1423,
      "Ġindivid": 1424,
      "Ġeveryone": 1425,
      "Ġhar": 1426,
      "Ġresult": 1427,
      "Ġcond": 1428,
      "Ġobject": 1429,
      "Ġlanguage": 1430,
      "ivity": 1431,
      "Ġfigure": 1432,
      "Ġtrue": 1433,
      "Ġnews": 1434,
      "Ġdev": 1435,
      "Ġcra": 1436,
      "Ġtrad": 1437,
      "Ġbasically": 1438,
      "Ġkill": 1439,
      "Ġunited": 1440,
      "Ġorder": 1441,
      "Ġstories": 1442,
      "Ġlarge": 1443,
      "Ġheard": 1444,
      "get": 1445,
      "Ġparent": 1446,
      "Ġtrain": 1447,
      "Ġgl": 1448,
      "Ġincred": 1449,
      "ai": 1450,
      "Ġpay": 1451,
      "Ġnor": 1452,
      "rop": 1453,
      "Ġnet": 1454,
      "Ġhouse": 1455,
      "Ġcal": 1456,
      "Ġbeautif": 1457,
      "dd": 1458,
      "side": 1459,
      "Ġmust": 1460,
      "Ġlooks": 1461,
      "omes": 1462,
      "Ġfree": 1463,
      "Ġcancer": 1464,
      "Ġes": 1465,
      "na": 1466,
      "Ġeverybody": 1467,
      "Ġinvest": 1468,
      "Ġmother": 1469,
      "Ġothers": 1470,
      "iddle": 1471,
      "Ġ100": 1472,
      "Ġagainst": 1473,
      "ink": 1474,
      "Ġ15": 1475,
      "Ġfollow": 1476,
      "lud": 1477,
      "Ġspend": 1478,
      "Ġemp": 1479,
      "Ġafrica": 1480,
      "Ġexactly": 1481,
      "utes": 1482,
      "Ġknew": 1483,
      "ior": 1484,
      "ental": 1485,
      "Ġbecame": 1486,
      "Ġline": 1487,
      "Ġworks": 1488,
      "Ġsuccess": 1489,
      "Ġtool": 1490,
      "ware": 1491,
      "Ġthird": 1492,
      "Ġ30": 1493,
      "ision": 1494,
      "Ġyes": 1495,
      "Ġmiddle": 1496,
      "Ġdra": 1497,
      "ogn": 1498,
      "atic": 1499,
      "Ġshare": 1500,
      "Ġbab": 1501,
      "Ġname": 1502,
      "Ġabs": 1503,
      "Ġfront": 1504,
      "Ġmater": 1505,
      "Ġcollect": 1506,
      "Ġpos": 1507,
      "ients": 1508,
      "Ġvideo": 1509,
      "br": 1510,
      "Ġdecided": 1511,
      "Ġbuilt": 1512,
      "ock": 1513,
      "Ġquestions": 1514,
      "uck": 1515,
      "Ġexpl": 1516,
      "Ġfil": 1517,
      "Ġdru": 1518,
      "Ġprotect": 1519,
      "Ġcolle": 1520,
      "Ġguy": 1521,
      "Ġvi": 1522,
      "Ġtaking": 1523,
      "ired": 1524,
      "Ġhours": 1525,
      "Ġbeautiful": 1526,
      "ians": 1527,
      "Ġ9": 1528,
      "acter": 1529,
      "Ġplaces": 1530,
      "icult": 1531,
      "ime": 1532,
      "Ġstep": 1533,
      "Ġfocus": 1534,
      "etic": 1535,
      "Ġav": 1536,
      "ident": 1537,
      "Ġdr": 1538,
      "Ġquick": 1539,
      "Ġ7": 1540,
      "Ġstudents": 1541,
      "Ġcompany": 1542,
      "Ġeducation": 1543,
      "Ġmeet": 1544,
      "aper": 1545,
      "Ġ[": 1546,
      "Ġted": 1547,
      "Ġprov": 1548,
      "Ġmill": 1549,
      "wards": 1550,
      "Ġ50": 1551,
      "Ġspecies": 1552,
      "Ġlearning": 1553,
      "Ġcouple": 1554,
      "ats": 1555,
      "vious": 1556,
      "Ġbro": 1557,
      "Ġbra": 1558,
      "Ġalong": 1559,
      "Ġindust": 1560,
      "Ġview": 1561,
      "Ġmiss": 1562,
      "Ġmeas": 1563,
      "Ġgets": 1564,
      "Ġcompletely": 1565,
      "Ġsomebody": 1566,
      "Ġourselves": 1567,
      "Ġthemselves": 1568,
      "Ġnature": 1569,
      "Ġland": 1570,
      "Ġaud": 1571,
      "Ġlisten": 1572,
      "Ġexperim": 1573,
      "line": 1574,
      "Ġmass": 1575,
      "Ġant": 1576,
      "Ġspeak": 1577,
      "Ġbased": 1578,
      "Ġclear": 1579,
      "bs": 1580,
      "Ġdisease": 1581,
      "Ġstruct": 1582,
      "ane": 1583,
      "Ġsupport": 1584,
      "Ġoce": 1585,
      "Ġben": 1586,
      "Ġsociety": 1587,
      "Ġdifficult": 1588,
      "Ġrelations": 1589,
      "ape": 1590,
      "Ġfre": 1591,
      "Ġengine": 1592,
      "Ġduring": 1593,
      "Ġdig": 1594,
      "Ġamerican": 1595,
      "Ġhuge": 1596,
      "Ġhold": 1597,
      "otion": 1598,
      "Ġjour": 1599,
      "Ġrad": 1600,
      "sy": 1601,
      "Ġsuper": 1602,
      "he": 1603,
      "Ġearly": 1604,
      "aster": 1605,
      "Ġones": 1606,
      "Ġitself": 1607,
      "Ġrev": 1608,
      "ability": 1609,
      "Ġuniverse": 1610,
      "Ġrather": 1611,
      "ator": 1612,
      "Ġopportun": 1613,
      "Ġnorm": 1614,
      "Ġgod": 1615,
      "Ġhappening": 1616,
      "Ġpred": 1617,
      "Ġmess": 1618,
      "gest": 1619,
      "ones": 1620,
      "Ġdoct": 1621,
      "Ġident": 1622,
      "Ġ8": 1623,
      "ames": 1624,
      "Ġturns": 1625,
      "Ġunivers": 1626,
      "itting": 1627,
      "Ġinternet": 1628,
      "Ġ'": 1629,
      "Ġsun": 1630,
      "Ġexist": 1631,
      "Ġgreen": 1632,
      "Ġda": 1633,
      "Ġclose": 1634,
      "ules": 1635,
      "ster": 1636,
      "Ġneur": 1637,
      "Ġpiece": 1638,
      "ush": 1639,
      "ption": 1640,
      "Ġamerica": 1641,
      "Ġpot": 1642,
      "ives": 1643,
      "Ġcreated": 1644,
      "Ġhy": 1645,
      "Ġcentury": 1646,
      "Ġthousands": 1647,
      "Ġdirect": 1648,
      "cc": 1649,
      "Ġarch": 1650,
      "Ġcomplex": 1651,
      "Ġexpect": 1652,
      "Ġdem": 1653,
      "Ġfail": 1654,
      "ither": 1655,
      "...": 1656,
      "Ġanimals": 1657,
      "Ġpur": 1658,
      "Ġworked": 1659,
      "Ġappro": 1660,
      "Ġdream": 1661,
      "ological": 1662,
      "Ġcoll": 1663,
      "Ġcir": 1664,
      "Ġleg": 1665,
      "Ġtyp": 1666,
      "elt": 1667,
      "Ġrelationship": 1668,
      "Ġminutes": 1669,
      "Ġgrand": 1670,
      "Ġdeal": 1671,
      "Ġdeath": 1672,
      "Ġfinally": 1673,
      "Ġreach": 1674,
      "Ġrecent": 1675,
      "Ġbehav": 1676,
      "Ġsens": 1677,
      "Ġele": 1678,
      "ides": 1679,
      "Ġleast": 1680,
      "Ġinclud": 1681,
      "Ġwind": 1682,
      "Ġfield": 1683,
      "Ġinno": 1684,
      "Ġprogram": 1685,
      "Ġshort": 1686,
      "haps": 1687,
      "ented": 1688,
      "Ġliter": 1689,
      "que": 1690,
      "Ġperhaps": 1691,
      "bo": 1692,
      "face": 1693,
      "Ġlim": 1694,
      "Ġkinds": 1695,
      "Ġreality": 1696,
      "Ġmath": 1697,
      "ential": 1698,
      "Ġste": 1699,
      "Ġgame": 1700,
      "Ġknown": 1701,
      "ples": 1702,
      "erv": 1703,
      "aring": 1704,
      "ming": 1705,
      "Ġwhite": 1706,
      "Ġmarket": 1707,
      "Ġmachine": 1708,
      "Ġcommon": 1709,
      "Ġparents": 1710,
      "Ġeur": 1711,
      "istic": 1712,
      "ination": 1713,
      "Ġbott": 1714,
      "Ġfear": 1715,
      "Ġamount": 1716,
      "Ġtakes": 1717,
      "Ġblood": 1718,
      "Ġgiven": 1719,
      "Ġeyes": 1720,
      "Ġsouth": 1721,
      "Ġsimp": 1722,
      "ral": 1723,
      "Ġvar": 1724,
      "Ġgave": 1725,
      "cious": 1726,
      "Ġhumans": 1727,
      "Ġbehind": 1728,
      "Ġlow": 1729,
      "Ġevent": 1730,
      "Ġsystems": 1731,
      "Ġaccess": 1732,
      "Ġneeds": 1733,
      "vered": 1734,
      "Ġbar": 1735,
      "Ġbri": 1736,
      "Ġyourself": 1737,
      "Ġeasy": 1738,
      "Ġviol": 1739,
      "Ġchem": 1740,
      "ially": 1741,
      "Ġstay": 1742,
      "Ġnatural": 1743,
      "Ġnetw": 1744,
      "ibly": 1745,
      "Ġrecord": 1746,
      "ret": 1747,
      "Ġfelt": 1748,
      "Ġap": 1749,
      "att": 1750,
      "Ġcut": 1751,
      "Ġfamil": 1752,
      "Ġcities": 1753,
      "Ġchr": 1754,
      "Ġmicro": 1755,
      "Ġneeded": 1756,
      "Ġer": 1757,
      "Ġpract": 1758,
      "Ġperform": 1759,
      "gen": 1760,
      "Ġimage": 1761,
      "itch": 1762,
      "Ġnear": 1763,
      "Ġimpro": 1764,
      "Ġhands": 1765,
      "olved": 1766,
      "Ġcompanies": 1767,
      "Ġmaj": 1768,
      "Ġleave": 1769,
      "Ġserv": 1770,
      "Ġve": 1771,
      "idence": 1772,
      "Ġoutside": 1773,
      "Ġlocal": 1774,
      "Ġill": 1775,
      "Ġmoving": 1776,
      "Ġchanged": 1777,
      "Ġperfect": 1778,
      "Ġculture": 1779,
      "utions": 1780,
      "Ġsle": 1781,
      "Ġseeing": 1782,
      "Ġextra": 1783,
      "Ġeight": 1784,
      "Ġhappy": 1785,
      "Ġdifference": 1786,
      "ider": 1787,
      "Ġpatients": 1788,
      "ges": 1789,
      "Ġscale": 1790,
      "Ġoper": 1791,
      "Ġsurv": 1792,
      "Ġple": 1793,
      "Ġtaken": 1794,
      "ump": 1795,
      "Ġlots": 1796,
      "Ġcaus": 1797,
      "ror": 1798,
      "Ġsent": 1799,
      "Ġfight": 1800,
      "ully": 1801,
      "sych": 1802,
      "Ġlonger": 1803,
      "Ġexpla": 1804,
      "lock": 1805,
      "aking": 1806,
      "Ġsimply": 1807,
      "up": 1808,
      "osp": 1809,
      "Ġocean": 1810,
      "Ġcommunic": 1811,
      "Ġrecogn": 1812,
      "Ġori": 1813,
      "Ġbreak": 1814,
      "Ġocc": 1815,
      "Ġtre": 1816,
      "Ġyork": 1817,
      "Ġinteract": 1818,
      "ison": 1819,
      "Ġpowerful": 1820,
      "Ġenc": 1821,
      "Ġarg": 1822,
      "Ġrealized": 1823,
      "Ġextrem": 1824,
      "Ġweek": 1825,
      "Ġtem": 1826,
      "astic": 1827,
      "eah": 1828,
      "Ġbegan": 1829,
      "Ġmajor": 1830,
      "Ġarea": 1831,
      "Ġrisk": 1832,
      "Ġpsych": 1833,
      "Ġrepres": 1834,
      "Ġeurope": 1835,
      "Ġpick": 1836,
      "Ġpress": 1837,
      "Ġseven": 1838,
      "Ġwall": 1839,
      "Ġmult": 1840,
      "Ġchina": 1841,
      "Ġfly": 1842,
      "Ġimpact": 1843,
      "itions": 1844,
      "Ġpopulation": 1845,
      "Ġinnov": 1846,
      "Ġess": 1847,
      "verage": 1848,
      "ney": 1849,
      "Ġsend": 1850,
      "oms": 1851,
      "Ġclimate": 1852,
      "Ġsym": 1853,
      "Ġturned": 1854,
      "Ġpolitical": 1855,
      "Ġnon": 1856,
      "Ġrequ": 1857,
      "Ġguys": 1858,
      "what": 1859,
      "Ġpoor": 1860,
      "Ġcolor": 1861,
      "Ġtot": 1862,
      "Ġphone": 1863,
      "Ġmedia": 1864,
      "Ġstrong": 1865,
      "Ġsize": 1866,
      "Ġarm": 1867,
      "ellig": 1868,
      "ilar": 1869,
      "els": 1870,
      "Ġspecial": 1871,
      "inary": 1872,
      "Ġciv": 1873,
      "Ġemb": 1874,
      "Ġattention": 1875,
      "Ġconvers": 1876,
      "Ġokay": 1877,
      "Ġcy": 1878,
      "let": 1879,
      "Ġobvious": 1880,
      "ature": 1881,
      "Ġbeginning": 1882,
      "Ġdemo": 1883,
      "Ġsil": 1884,
      "Ġpersonal": 1885,
      "pid": 1886,
      "Ġdark": 1887,
      "Ġfem": 1888,
      "Ġability": 1889,
      "Ġtravel": 1890,
      "Ġsurpr": 1891,
      "Ġexperien": 1892,
      "pped": 1893,
      "Ġlost": 1894,
      "Ġbehavior": 1895,
      "Ġeither": 1896,
      "Ġdesc": 1897,
      "Ġblue": 1898,
      "Ġnorth": 1899,
      "ression": 1900,
      "Ġsum": 1901,
      "Ġfall": 1902,
      "ised": 1903,
      "Ġborn": 1904,
      "lt": 1905,
      "Ġfish": 1906,
      "Ġobs": 1907,
      "bor": 1908,
      "Ġmedic": 1909,
      "cially": 1910,
      "Ġpattern": 1911,
      "hood": 1912,
      "Ġspent": 1913,
      "Ġweeks": 1914,
      "olute": 1915,
      "Ġbox": 1916,
      "Ġfeeling": 1917,
      "ode": 1918,
      "Ġscientists": 1919,
      "Ġfather": 1920,
      "Ġparts": 1921,
      "Ġpath": 1922,
      "ising": 1923,
      "Ġwhatever": 1924,
      "how": 1925,
      "mer": 1926,
      "Ġwin": 1927,
      "ze": 1928,
      "Ġnational": 1929,
      "Ġpriv": 1930,
      "lec": 1931,
      "Ġeconomic": 1932,
      "Ġkey": 1933,
      "Ġfeed": 1934,
      "Ġcenter": 1935,
      "Ġmal": 1936,
      "Ġmedical": 1937,
      "Ġabsolute": 1938,
      "Ġsleep": 1939,
      "Ġground": 1940,
      "Ġleaders": 1941,
      "fully": 1942,
      "ged": 1943,
      "Ġmeaning": 1944,
      "Ġprofess": 1945,
      "Ġpaper": 1946,
      "Ġ12": 1947,
      "Ġmeasure": 1948,
      "Ġinstit": 1949,
      "Ġdest": 1950,
      "rought": 1951,
      "Ġsea": 1952,
      "Ġquickly": 1953,
      "Ġintellig": 1954,
      "Ġ18": 1955,
      "izing": 1956,
      "ibility": 1957,
      "ledge": 1958,
      "Ġapproach": 1959,
      "Ġhosp": 1960,
      "Ġprom": 1961,
      "rent": 1962,
      "Ġfast": 1963,
      "Ġmot": 1964,
      "Ġindia": 1965,
      "well": 1966,
      "Ġconsum": 1967,
      "Ġchanges": 1968,
      "Ġterm": 1969,
      "Ġopportunity": 1970,
      "erm": 1971,
      "uth": 1972,
      "ively": 1973,
      "Ġsimilar": 1974,
      "Ġrespons": 1975,
      "Ġur": 1976,
      "Ġpresent": 1977,
      "ake": 1978,
      "xy": 1979,
      "Ġsour": 1980,
      "Ġresour": 1981,
      "Ġ40": 1982,
      "Ġterms": 1983,
      "rodu": 1984,
      "Ġtried": 1985,
      "Ġsitu": 1986,
      "Ġdemoc": 1987,
      "Ġpredict": 1988,
      "ium": 1989,
      "Ġ201": 1990,
      "Ġbur": 1991,
      "Ġneigh": 1992,
      "iny": 1993,
      "Ġrele": 1994,
      "Ġprop": 1995,
      "Ġinsp": 1996,
      "ators": 1997,
      "Ġest": 1998,
      "zy": 1999,
      "Ġchallenge": 2000,
      "vor": 2001,
      "Ġwrite": 2002,
      "Ġredu": 2003,
      "Ġslow": 2004,
      "Ġgrowing": 2005,
      "Ġcamp": 2006,
      "you": 2007,
      "Ġvol": 2008,
      "Ġbuy": 2009,
      "loy": 2010,
      "anger": 2011,
      "Ġvalue": 2012,
      "ains": 2013,
      "Ġsurface": 2014,
      "ted": 2015,
      "Ġgone": 2016,
      "Ġeat": 2017,
      "urs": 2018,
      "Ġsuff": 2019,
      "Ġmillions": 2020,
      "Ġsat": 2021,
      "Ġnumbers": 2022,
      "Ġtrust": 2023,
      "Ġyeah": 2024,
      "ried": 2025,
      "ills": 2026,
      "Ġrobot": 2027,
      "Ġsqu": 2028,
      "Ġlikely": 2029,
      "ateg": 2030,
      "Ġphysical": 2031,
      "Ġunderstanding": 2032,
      "Ġhundreds": 2033,
      "oud": 2034,
      "Ġsoon": 2035,
      "Ġcomb": 2036,
      "Ġconv": 2037,
      "Ġscre": 2038,
      "Ġcirc": 2039,
      "Ġdie": 2040,
      "gle": 2041,
      "Ġunf": 2042,
      "Ġcamer": 2043,
      "Ġvers": 2044,
      "itect": 2045,
      "Ġmov": 2046,
      "Ġmovement": 2047,
      "Ġce": 2048,
      "dden": 2049,
      "Ġstreet": 2050,
      "Ġsudden": 2051,
      "Ġgirls": 2052,
      "Ġshows": 2053,
      "Ġarchitect": 2054,
      "Ġcivil": 2055,
      "Ġstat": 2056,
      "Ġindividual": 2057,
      "Ġsitting": 2058,
      "Ġrich": 2059,
      "Ġextreme": 2060,
      "Ġaffect": 2061,
      "Ġdead": 2062,
      "Ġtransform": 2063,
      "Ġwonderful": 2064,
      "Ġaverage": 2065,
      "Ġimages": 2066,
      "Ġtruth": 2067,
      "Ġgrowth": 2068,
      "Ġgiving": 2069,
      "Ġmorning": 2070,
      "ouch": 2071,
      "Ġpull": 2072,
      "Ġaudience": 2073,
      "ler": 2074,
      "acy": 2075,
      "ife": 2076,
      "Ġanyone": 2077,
      "Ġseems": 2078,
      "Ġpa": 2079,
      "bon": 2080,
      "ased": 2081,
      "Ġtype": 2082,
      "Ġcurrent": 2083,
      "to": 2084,
      "Ġalone": 2085,
      "Ġmolec": 2086,
      "Ġfoot": 2087,
      "Ġstructure": 2088,
      "Ġstra": 2089,
      "Ġpost": 2090,
      "Ġdevelopment": 2091,
      "Ġach": 2092,
      "ards": 2093,
      "Ġeconomy": 2094,
      "Ġcool": 2095,
      "ove": 2096,
      "Ġhor": 2097,
      "Ġoil": 2098,
      "Ġvoice": 2099,
      "Ġdraw": 2100,
      "Ġdeg": 2101,
      "Ġdna": 2102,
      "Ġspread": 2103,
      "Ġroad": 2104,
      "Ġopt": 2105,
      "Ġforward": 2106,
      "par": 2107,
      "Ġcop": 2108,
      "Ġhon": 2109,
      "Ġrock": 2110,
      "Ġice": 2111,
      "Ġtelling": 2112,
      "Ġreport": 2113,
      "Ġbrought": 2114,
      "entially": 2115,
      "Ġfire": 2116,
      "Ġchoo": 2117,
      "Ġtools": 2118,
      "Ġanal": 2119,
      "Ġrealize": 2120,
      "ex": 2121,
      "Ġ25": 2122,
      "Ġwrote": 2123,
      "Ġpatient": 2124,
      "pecially": 2125,
      "ton": 2126,
      "Ġbenef": 2127,
      "bit": 2128,
      "Ġprin": 2129,
      "Ġdepend": 2130,
      "Ġespecially": 2131,
      "Ġtext": 2132,
      "Ġknowledge": 2133,
      "Ġareas": 2134,
      "Ġstarting": 2135,
      "Ġpolic": 2136,
      "Ġincredible": 2137,
      "Ġexperiment": 2138,
      "ining": 2139,
      "lu": 2140,
      "Ġton": 2141,
      "Ġstru": 2142,
      "Ġworth": 2143,
      "Ġfilm": 2144,
      "Ġfavor": 2145,
      "Ġbaby": 2146,
      "hor": 2147,
      "Ġprev": 2148,
      "Ġrelig": 2149,
      "Ġliterally": 2150,
      "Ġreact": 2151,
      "Ġinterested": 2152,
      "Ġsounds": 2153,
      "amed": 2154,
      "Ġsho": 2155,
      "Ġcommunities": 2156,
      "com": 2157,
      "ned": 2158,
      "ences": 2159,
      "Ġemotion": 2160,
      "Ġaff": 2161,
      "mus": 2162,
      "Ġtur": 2163,
      "ging": 2164,
      "old": 2165,
      "Ġstage": 2166,
      "Ġsafe": 2167,
      "Ġsolve": 2168,
      "Ġbill": 2169,
      "ters": 2170,
      "Ġmain": 2171,
      "Ġplant": 2172,
      "Ġorigin": 2173,
      "Ġmaterial": 2174,
      "Ġpen": 2175,
      "Ġdiv": 2176,
      "aged": 2177,
      "ilities": 2178,
      "Ġsever": 2179,
      "Ġconc": 2180,
      "Ġhot": 2181,
      "Ġnice": 2182,
      "Ġbooks": 2183,
      "oid": 2184,
      "Ġphotograph": 2185,
      "Ġblock": 2186,
      "Ġgal": 2187,
      "Ġattack": 2188,
      "Ġmodern": 2189,
      "ials": 2190,
      "oices": 2191,
      "Ġchanging": 2192,
      "Ġnormal": 2193,
      "Ġult": 2194,
      "Ġasking": 2195,
      "Ġsave": 2196,
      "Ġrunning": 2197,
      "Ġrevolution": 2198,
      "ances": 2199,
      "Ġsoft": 2200,
      "Ġsmart": 2201,
      "Ġserious": 2202,
      "iant": 2203,
      "ify": 2204,
      "Ġcarbon": 2205,
      "ustain": 2206,
      "Ġfundam": 2207,
      "Ġindustry": 2208,
      "arr": 2209,
      "ional": 2210,
      "Ġrate": 2211,
      "Ġchance": 2212,
      "Ġbottom": 2213,
      "Ġcompet": 2214,
      "Ġdeveloped": 2215,
      "go": 2216,
      "Ġsn": 2217,
      "ency": 2218,
      "Ġchoice": 2219,
      "ument": 2220,
      "Ġtechnolog": 2221,
      "por": 2222,
      "ule": 2223,
      "Ġtowards": 2224,
      "Ġdou": 2225,
      "asc": 2226,
      "Ġachie": 2227,
      "Ġflow": 2228,
      "Ġdiscovered": 2229,
      "asing": 2230,
      "Ġplaying": 2231,
      "Ġrecently": 2232,
      "Ġfur": 2233,
      "Ġonline": 2234,
      "Ġneg": 2235,
      "Ġamong": 2236,
      "ensive": 2237,
      "ony": 2238,
      "Ġproper": 2239,
      "Ġdom": 2240,
      "Ġguess": 2241,
      "Ġcrit": 2242,
      "ration": 2243,
      "Ġissue": 2244,
      "Ġtouch": 2245,
      "Ġseveral": 2246,
      "Ġflo": 2247,
      "Ġactiv": 2248,
      "une": 2249,
      "ggest": 2250,
      "Ġtiny": 2251,
      "Ġsuggest": 2252,
      "Ġcreating": 2253,
      "Ġeye": 2254,
      "Ġrece": 2255,
      "Ġlea": 2256,
      "iod": 2257,
      "Ġbey": 2258,
      "Ġconscious": 2259,
      "Ġtradition": 2260,
      "Ġevolution": 2261,
      "Ġgeneration": 2262,
      "Ġabsolutely": 2263,
      "Ġspeed": 2264,
      "Ġir": 2265,
      "Ġgives": 2266,
      "Ġaw": 2267,
      "Ġtend": 2268,
      "Ġtheory": 2269,
      "Ġconcept": 2270,
      "Ġperiod": 2271,
      "Ġtransp": 2272,
      "Ġanimal": 2273,
      "Ġsal": 2274,
      "Ġoh": 2275,
      "chan": 2276,
      "Ġrights": 2277,
      "Ġgroups": 2278,
      "music": 2279,
      "Ġvac": 2280,
      "fort": 2281,
      "ug": 2282,
      "Ġelectric": 2283,
      "unt": 2284,
      "room": 2285,
      "Ġnetwork": 2286,
      "Ġgoo": 2287,
      "Ġdesigned": 2288,
      "omet": 2289,
      "Ġsolution": 2290,
      "Ġbeyond": 2291,
      "uals": 2292,
      "Ġshowed": 2293,
      "ped": 2294,
      "usion": 2295,
      "imin": 2296,
      "oph": 2297,
      "Ġsustain": 2298,
      "Ġissues": 2299,
      "light": 2300,
      "ther": 2301,
      "Ġsearch": 2302,
      "Ġevidence": 2303,
      "Ġsolar": 2304,
      "ma": 2305,
      "Ġast": 2306,
      "Ġfeet": 2307,
      "Ġjobs": 2308,
      "Ġbed": 2309,
      "Ġball": 2310,
      "Ġforce": 2311,
      "Ġvill": 2312,
      "Ġcris": 2313,
      "Ġmiles": 2314,
      "edi": 2315,
      "Ġclean": 2316,
      "gn": 2317,
      "Ġexcept": 2318,
      "ishing": 2319,
      "ites": 2320,
      "Ġbasic": 2321,
      "Ġdam": 2322,
      "Ġnobody": 2323,
      "Ġforest": 2324,
      "ero": 2325,
      "ished": 2326,
      "Ġbal": 2327,
      "Ġtrack": 2328,
      "Ġdeveloping": 2329,
      "Ġuniversity": 2330,
      "Ġenglish": 2331,
      "Ġclos": 2332,
      "Ġterri": 2333,
      "ny": 2334,
      "ift": 2335,
      "ified": 2336,
      "Ġbigger": 2337,
      "Ġaccount": 2338,
      "oh": 2339,
      "pping": 2340,
      "phere": 2341,
      "Ġmemory": 2342,
      "Ġthreat": 2343,
      "Ġlif": 2344,
      "Ġgeneral": 2345,
      "by": 2346,
      "Ġaid": 2347,
      "Ġproduce": 2348,
      "Ġeventually": 2349,
      "Ġmechan": 2350,
      "Ġsubject": 2351,
      "Ġpoll": 2352,
      "Ġlived": 2353,
      "Ġdigital": 2354,
      "Ġtechnologies": 2355,
      "isions": 2356,
      "urity": 2357,
      "Ġtalked": 2358,
      "Ġbir": 2359,
      "Ġdanger": 2360,
      "odies": 2361,
      "Ġphil": 2362,
      "Ġlay": 2363,
      "Ġbecomes": 2364,
      "Ġmathem": 2365,
      "Ġmap": 2366,
      "Ġinterv": 2367,
      "Ġfunction": 2368,
      "Ġviolence": 2369,
      "Ġbreat": 2370,
      "gth": 2371,
      "Ġmount": 2372,
      "Ġbacter": 2373,
      "ived": 2374,
      "Ġwriting": 2375,
      "ires": 2376,
      "Ġskin": 2377,
      "aila": 2378,
      "Ġpotential": 2379,
      "ister": 2380,
      "Ġstress": 2381,
      "Ġcollege": 2382,
      "iction": 2383,
      "vert": 2384,
      "Ġcomputers": 2385,
      "Ġcars": 2386,
      "Ġled": 2387,
      "Ġdrugs": 2388,
      "Ġhospital": 2389,
      "Ġknows": 2390,
      "Ġtable": 2391,
      "Ġvisual": 2392,
      "Ġstar": 2393,
      "Ġsituation": 2394,
      "ulate": 2395,
      "Ġboy": 2396,
      "Ġavaila": 2397,
      "Ġchemical": 2398,
      "Ġresources": 2399,
      "head": 2400,
      "Ġaccept": 2401,
      "Ġfair": 2402,
      "ucle": 2403,
      "come": 2404,
      "Ġcheck": 2405,
      "Ġjourney": 2406,
      "Ġsell": 2407,
      "Ġnecess": 2408,
      "Ġalg": 2409,
      "Ġdrug": 2410,
      "Ġport": 2411,
      "Ġrules": 2412,
      "Ġneighbor": 2413,
      "ban": 2414,
      "Ġconversation": 2415,
      "eed": 2416,
      "Ġlog": 2417,
      "ung": 2418,
      "Ġaction": 2419,
      "Ġcapital": 2420,
      "arily": 2421,
      "Ġdied": 2422,
      "onse": 2423,
      "Ġmob": 2424,
      "Ġhowever": 2425,
      "ously": 2426,
      "Ġhigher": 2427,
      "Ġflu": 2428,
      "ival": 2429,
      "Ġfamilies": 2430,
      "Ġsyn": 2431,
      "Ġreasons": 2432,
      "Ġdrive": 2433,
      "Ġscreen": 2434,
      "here": 2435,
      "Ġchoose": 2436,
      "Ġpan": 2437,
      "Ġfla": 2438,
      "ades": 2439,
      "lict": 2440,
      "Ġson": 2441,
      "racy": 2442,
      "Ġcapt": 2443,
      "Ġhit": 2444,
      "Ġ60": 2445,
      "Ġrepresent": 2446,
      "Ġnucle": 2447,
      "Ġplants": 2448,
      "Ġoffice": 2449,
      "Ġparticip": 2450,
      "Ġprogress": 2451,
      "Ġexplain": 2452,
      "book": 2453,
      "Ġready": 2454,
      "Ġshape": 2455,
      "Ġincredibly": 2456,
      "sh": 2457,
      "Ġadm": 2458,
      "rast": 2459,
      "Ġinfect": 2460,
      "Ġdeli": 2461,
      "Ġschools": 2462,
      "yn": 2463,
      "Ġpark": 2464,
      "Ġtele": 2465,
      "Ġcharacter": 2466,
      "Ġincluding": 2467,
      "Ġpu": 2468,
      "Ġnine": 2469,
      "verty": 2470,
      "Ġemerg": 2471,
      "of": 2472,
      "Ġdiag": 2473,
      "itiz": 2474,
      "Ġec": 2475,
      "Ġbirth": 2476,
      "Ġavailable": 2477,
      "ude": 2478,
      "Ġresponse": 2479,
      "Ġdefin": 2480,
      "rage": 2481,
      "inese": 2482,
      "de": 2483,
      "Ġcompass": 2484,
      "Ġvirus": 2485,
      "Ġintelligence": 2486,
      "Ġdoctor": 2487,
      "Ġimprove": 2488,
      "oring": 2489,
      "Ġrole": 2490,
      "Ġpoverty": 2491,
      "Ġapart": 2492,
      "Ġfill": 2493,
      "lace": 2494,
      "Ġvision": 2495,
      "Ġsecurity": 2496,
      "Ġpositive": 2497,
      "Ġsource": 2498,
      "Ġtar": 2499,
      "Ġcat": 2500,
      "Ġmars": 2501,
      "Ġconsider": 2502,
      "antly": 2503,
      "Ġcolleag": 2504,
      "Ġnotice": 2505,
      "Ġpeace": 2506,
      "Ġdoor": 2507,
      "uly": 2508,
      "Ġcross": 2509,
      "Ġputting": 2510,
      "Ġmessage": 2511,
      "Ġtas": 2512,
      "Ġsam": 2513,
      "Ġmis": 2514,
      "Ġfix": 2515,
      "Ġluck": 2516,
      "Ġresults": 2517,
      "ows": 2518,
      "Ġchinese": 2519,
      "Ġweb": 2520,
      "Ġcla": 2521,
      "do": 2522,
      "erence": 2523,
      "Ġstrugg": 2524,
      "Ġquality": 2525,
      "Ġwalking": 2526,
      "ese": 2527,
      "ners": 2528,
      "Ġvirt": 2529,
      "ik": 2530,
      "Ġdecision": 2531,
      "Ġinvolved": 2532,
      "Ġine": 2533,
      "Ġadult": 2534,
      "Ġstrateg": 2535,
      "Ġpresident": 2536,
      "Ġencou": 2537,
      "Ġgoogle": 2538,
      "erve": 2539,
      "Ġnamed": 2540,
      "Ġgames": 2541,
      "Ġprison": 2542,
      "Ġaware": 2543,
      "Ġtom": 2544,
      "jo": 2545,
      "cuss": 2546,
      "Ġcertainly": 2547,
      "Ġcrazy": 2548,
      "Ġbodies": 2549,
      "Ġgas": 2550,
      "Ġbrains": 2551,
      "Ġcitiz": 2552,
      "Ġpush": 2553,
      "Ġstarts": 2554,
      "Ġobjects": 2555,
      "ok": 2556,
      "Ġrain": 2557,
      "Ġbiggest": 2558,
      "Ġinternational": 2559,
      "Ġjud": 2560,
      "Ġperspect": 2561,
      "Ġfreed": 2562,
      "Ġfarm": 2563,
      "Ġworse": 2564,
      "Ġfurther": 2565,
      "Ġmachines": 2566,
      "Ġmedicine": 2567,
      "Ġprinci": 2568,
      "Ġwest": 2569,
      "umb": 2570,
      "Ġprint": 2571,
      "Ġpictures": 2572,
      "Ġcode": 2573,
      "Ġwatching": 2574,
      "Ġparticularly": 2575,
      "apt": 2576,
      "nal": 2577,
      "Ġassum": 2578,
      "uit": 2579,
      "Ġbird": 2580,
      "Ġsold": 2581,
      "Ġwaste": 2582,
      "Ġgoal": 2583,
      "ured": 2584,
      "Ġdetect": 2585,
      "Ġcontinue": 2586,
      "Ġsuddenly": 2587,
      "Ġlos": 2588,
      "Ġstanding": 2589,
      "Ġindeed": 2590,
      "Ġobviously": 2591,
      "Ġfavorite": 2592,
      "Ġanybody": 2593,
      "Ġreturn": 2594,
      "Ġincrease": 2595,
      "Ġdevice": 2596,
      "Ġcompassion": 2597,
      "ground": 2598,
      "iar": 2599,
      "for": 2600,
      "Ġabove": 2601,
      "Ġclin": 2602,
      "Ġfinding": 2603,
      "Ġtreatment": 2604,
      "Ġdeb": 2605,
      "Ġprim": 2606,
      "Ġx": 2607,
      "Ġwish": 2608,
      "Ġmeant": 2609,
      "osphere": 2610,
      "Ġfinan": 2611,
      "Ġcamera": 2612,
      "Ġcases": 2613,
      "Ġusually": 2614,
      "Ġeth": 2615,
      "Ġcold": 2616,
      "Ġhealthy": 2617,
      "Ġallowed": 2618,
      "rest": 2619,
      "Ġdesp": 2620,
      "Ġappear": 2621,
      "Ġgrew": 2622,
      "Ġscientific": 2623,
      "ext": 2624,
      "Ġbank": 2625,
      "Ġeverywhere": 2626,
      "akes": 2627,
      "Ġconflict": 2628,
      "Ġtraining": 2629,
      "Ġtaught": 2630,
      "itten": 2631,
      "Ġshowing": 2632,
      "Ġmeth": 2633,
      "Ġminds": 2634,
      "Ġvari": 2635,
      "Ġinnovation": 2636,
      "Ġstudies": 2637,
      "Ġeffic": 2638,
      "Ġsupposed": 2639,
      "zz": 2640,
      "Ġsepar": 2641,
      "Ġmoved": 2642,
      "Ġscen": 2643,
      "Ġpolice": 2644,
      "Ġ199": 2645,
      "Ġteachers": 2646,
      "Ġfemale": 2647,
      "aces": 2648,
      "ley": 2649,
      "Ġcomplic": 2650,
      "Ġmist": 2651,
      "Ġwants": 2652,
      "Ġtells": 2653,
      "Ġrespond": 2654,
      "Ġspecific": 2655,
      "Ġdoctors": 2656,
      "Ġtotally": 2657,
      "Ġdin": 2658,
      "soci": 2659,
      "Ġdecisions": 2660,
      "Ġlabor": 2661,
      "Ġdiscover": 2662,
      "Ġmovie": 2663,
      "bi": 2664,
      "cape": 2665,
      "Ġsong": 2666,
      "ressed": 2667,
      "Ġafrican": 2668,
      "cient": 2669,
      "Ġconnected": 2670,
      "Ġwait": 2671,
      "Ġsecret": 2672,
      "Ġindividuals": 2673,
      "Ġfaster": 2674,
      "Ġdan": 2675,
      "sequ": 2676,
      "Ġshown": 2677,
      "Ġexamples": 2678,
      "Ġimmedi": 2679,
      "eg": 2680,
      "Ġban": 2681,
      "Ġminute": 2682,
      "Ġorganization": 2683,
      "istan": 2684,
      "Ġemploy": 2685,
      "Ġdim": 2686,
      "Ġlower": 2687,
      "Ġstudent": 2688,
      "Ġsky": 2689,
      "Ġmagn": 2690,
      "Ġextraord": 2691,
      "idge": 2692,
      "Ġimposs": 2693,
      "Ġearli": 2694,
      "Ġdro": 2695,
      "Ġlad": 2696,
      "Ġstri": 2697,
      "Ġcarry": 2698,
      "Ġcoun": 2699,
      "Ġlose": 2700,
      "Ġloved": 2701,
      "Ġgala": 2702,
      "lex": 2703,
      "Ġonto": 2704,
      "Ġdetail": 2705,
      "Ġincome": 2706,
      "oming": 2707,
      "rap": 2708,
      "Ġcontext": 2709,
      "Ġhumanity": 2710,
      "Ġcrisis": 2711,
      "Ġann": 2712,
      "Ġintrodu": 2713,
      "Ġ11": 2714,
      "Ġwild": 2715,
      "Ġwife": 2716,
      "uge": 2717,
      "Ġlate": 2718,
      "fer": 2719,
      "ery": 2720,
      "Ġrobots": 2721,
      "ox": 2722,
      "Ġassoci": 2723,
      "Ġmultip": 2724,
      "Ġzero": 2725,
      "Ġsignific": 2726,
      "Ġsuccessful": 2727,
      "Ġunfortun": 2728,
      "ein": 2729,
      "Ġstars": 2730,
      "Ġdeterm": 2731,
      "Ġinflu": 2732,
      "nds": 2733,
      "ims": 2734,
      "Ġconcer": 2735,
      "Ġcreative": 2736,
      "Ġbacteria": 2737,
      "ently": 2738,
      "Ġcloud": 2739,
      "Ġdisc": 2740,
      "cise": 2741,
      "ring": 2742,
      "Ġger": 2743,
      "Ġrecognize": 2744,
      "Ġsoftware": 2745,
      "rate": 2746,
      "Ġhur": 2747,
      "izations": 2748,
      "abor": 2749,
      "Ġolder": 2750,
      "Ġfundamental": 2751,
      "Ġeast": 2752,
      "Ġactivity": 2753,
      "Ġmanage": 2754,
      "Ġblind": 2755,
      "more": 2756,
      "Ġthousand": 2757,
      "Ġhop": 2758,
      "itary": 2759,
      "Ġcollabor": 2760,
      "Ġessentially": 2761,
      "Ġking": 2762,
      "Ġvict": 2763,
      "Ġbuildings": 2764,
      "Ġcorre": 2765,
      "Ġplease": 2766,
      "Ġtree": 2767,
      "Ġpet": 2768,
      "Ġpack": 2769,
      "Ġperspective": 2770,
      "rep": 2771,
      "ruction": 2772,
      "Ġbrit": 2773,
      "Ġterror": 2774,
      "Ġamericans": 2775,
      "Ġcard": 2776,
      "Ġspir": 2777,
      "Ġsomewhere": 2778,
      "Ġservice": 2779,
      "Ġimpossible": 2780,
      "ission": 2781,
      "Ġmental": 2782,
      "Ġpassion": 2783,
      "Ġtrees": 2784,
      "med": 2785,
      "rated": 2786,
      "Ġgold": 2787,
      "Ġreading": 2788,
      "Ġmodels": 2789,
      "Ġ80": 2790,
      "Ġfreedom": 2791,
      "50": 2792,
      "Ġatm": 2793,
      "Ġrace": 2794,
      "Ġ14": 2795,
      "Ġlargest": 2796,
      "Ġstraight": 2797,
      "Ġpolicy": 2798,
      "ued": 2799,
      "iding": 2800,
      "others": 2801,
      "Ġskills": 2802,
      "Ġrespect": 2803,
      "Ġsan": 2804,
      "Ġkept": 2805,
      "Ġtemper": 2806,
      "Ġtown": 2807,
      "Ġglass": 2808,
      "Ġmaterials": 2809,
      "Ġplastic": 2810,
      "Ġexciting": 2811,
      "Ġchrist": 2812,
      "nces": 2813,
      "Ġtruly": 2814,
      "Ġpurp": 2815,
      "ugh": 2816,
      "Ġrand": 2817,
      "Ġoxy": 2818,
      "Ġdisapp": 2819,
      "omen": 2820,
      "Ġjournal": 2821,
      "Ġpressure": 2822,
      "Ġwealth": 2823,
      "Ġmos": 2824,
      "Ġ17": 2825,
      "Ġgenes": 2826,
      "Ġstick": 2827,
      "versity": 2828,
      "xic": 2829,
      "Ġdon": 2830,
      "icle": 2831,
      "apan": 2832,
      "Ġreflect": 2833,
      "bes": 2834,
      "Ġfram": 2835,
      "Ġlaunch": 2836,
      "lished": 2837,
      "Ġextremely": 2838,
      "Ġmatch": 2839,
      "Ġlines": 2840,
      "Ġthroughout": 2841,
      "Ġjoh": 2842,
      "Ġcry": 2843,
      "Ġdiseases": 2844,
      "Ġexcited": 2845,
      "Ġconditions": 2846,
      "Ġexperiences": 2847,
      "Ġsad": 2848,
      "Ġfra": 2849,
      "Ġ16": 2850,
      "Ġenjo": 2851,
      "Ġhappiness": 2852,
      "Ġmathemat": 2853,
      "oke": 2854,
      "Ġmine": 2855,
      "Ġep": 2856,
      "Ġauthor": 2857,
      "isms": 2858,
      "Ġdecades": 2859,
      "Ġunique": 2860,
      "atory": 2861,
      "Ġjapan": 2862,
      "orts": 2863,
      "eless": 2864,
      "Ġremind": 2865,
      "Ġdemocracy": 2866,
      "Ġfort": 2867,
      "Ġcomfort": 2868,
      "Ġrefuge": 2869,
      "Ġachieve": 2870,
      "Ġmale": 2871,
      "eth": 2872,
      "rial": 2873,
      "Ġquant": 2874,
      "Ġgovernments": 2875,
      "Ġcomplicated": 2876,
      "Ġfit": 2877,
      "Ġconsequ": 2878,
      "Ġsomehow": 2879,
      "Ġincreasing": 2880,
      "ball": 2881,
      "orith": 2882,
      "Ġwritten": 2883,
      "Ġpieces": 2884,
      "Ġalgorith": 2885,
      "uct": 2886,
      "Ġswe": 2887,
      "Ġfine": 2888,
      "Ġarri": 2889,
      "Ġproducts": 2890,
      "Ġprovide": 2891,
      "Ġsquare": 2892,
      "amp": 2893,
      "Ġlands": 2894,
      "Ġweight": 2895,
      "Ġoffic": 2896,
      "Ġpatterns": 2897,
      "rum": 2898,
      "Ġheav": 2899,
      "Ġupon": 2900,
      "Ġended": 2901,
      "ought": 2902,
      "Ġdiscuss": 2903,
      "Ġadapt": 2904,
      "Ġgenetic": 2905,
      "Ġlarger": 2906,
      "Ġposition": 2907,
      "Ġdoc": 2908,
      "Ġliber": 2909,
      "Ġdimens": 2910,
      "fact": 2911,
      "imately": 2912,
      "Ġhelped": 2913,
      "Ġstrange": 2914,
      "Ġteacher": 2915,
      "Ġafford": 2916,
      "Ġanyway": 2917,
      "Ġlistening": 2918,
      "inct": 2919,
      "Ġden": 2920,
      "Ġcontrib": 2921,
      "Ġtypes": 2922,
      "Ġnuclear": 2923,
      "emic": 2924,
      "Ġoppos": 2925,
      "cul": 2926,
      "iced": 2927,
      "though": 2928,
      "Ġanymore": 2929,
      "Ġhero": 2930,
      "Ġsolutions": 2931,
      "Ġphysics": 2932,
      "Ġsus": 2933,
      "Ġbat": 2934,
      "Ġbunch": 2935,
      "Ġfant": 2936,
      "Ġdad": 2937,
      "Ġinit": 2938,
      "Ġ13": 2939,
      "Ġdescri": 2940,
      "aw": 2941,
      "Ġalthough": 2942,
      "ounds": 2943,
      "Ġhimself": 2944,
      "Ġvillage": 2945,
      "ray": 2946,
      "Ġcart": 2947,
      "Ġwhe": 2948,
      "Ġsequ": 2949,
      "Ġkil": 2950,
      "Ġremark": 2951,
      "Ġextraordinary": 2952,
      "Ġunfortunately": 2953,
      "Ġisland": 2954,
      "ches": 2955,
      "Ġengage": 2956,
      "Ġcareer": 2957,
      "Ġkilled": 2958,
      "Ġpractice": 2959,
      "Ġmention": 2960,
      "Ġran": 2961,
      "aging": 2962,
      "Ġcentral": 2963,
      "Ġallows": 2964,
      "Ġelectricity": 2965,
      "Ġspeaking": 2966,
      "Ġsmaller": 2967,
      "Ġmilitary": 2968,
      "Ġbud": 2969,
      "Ġchoices": 2970,
      "Ġspect": 2971,
      "Ġgraph": 2972,
      "Ġtransl": 2973,
      "Ġautom": 2974,
      "ops": 2975,
      "Ġclearly": 2976,
      "Ġlevels": 2977,
      "Ġworry": 2978,
      "Ġjohn": 2979,
      "Ġsand": 2980,
      "atives": 2981,
      "Ġfasc": 2982,
      "aries": 2983,
      "imp": 2984,
      "Ġalive": 2985,
      "Ġcontent": 2986,
      "Ġdriving": 2987,
      "Ġloss": 2988,
      "Ġprep": 2989,
      "men": 2990,
      "Ġbase": 2991,
      "Ġpage": 2992,
      "uss": 2993,
      "Ġroll": 2994,
      "Ġpoints": 2995,
      "Ġbabies": 2996,
      "Ġperformance": 2997,
      "Ġearlier": 2998,
      "Ġtiss": 2999,
      "Ġwebs": 3000,
      "istics": 3001,
      "Ġworkers": 3002,
      "Ġapply": 3003,
      "Ġchallenges": 3004,
      "Ġdangerous": 3005,
      "Ġstore": 3006,
      "Ġbeings": 3007,
      "Ġsexual": 3008,
      "Ġdescrib": 3009,
      "Ġthrow": 3010,
      "Ġlat": 3011,
      "Ġforget": 3012,
      "Ġwhose": 3013,
      "Ġlaws": 3014,
      "Ġservices": 3015,
      "Ġurban": 3016,
      "Ġfinancial": 3017,
      "Ġgerman": 3018,
      "put": 3019,
      "Ġcatch": 3020,
      "Ġshared": 3021,
      "Ġelectr": 3022,
      "Ġdaughter": 3023,
      "Ġnation": 3024,
      "Ġhair": 3025,
      "Ġforms": 3026,
      "Ġactual": 3027,
      "Ġphen": 3028,
      "Ġwaiting": 3029,
      "Ġtraditional": 3030,
      "Ġbom": 3031,
      "Ġjump": 3032,
      "Ġtrick": 3033,
      "Ġdespite": 3034,
      "Ġtv": 3035,
      "itation": 3036,
      "sect": 3037,
      "Ġshap": 3038,
      "Ġsorts": 3039,
      "Ġaddress": 3040,
      "Ġneurons": 3041,
      "itted": 3042,
      "ips": 3043,
      "Ġgender": 3044,
      "Ġnearly": 3045,
      "Ġbecoming": 3046,
      "rene": 3047,
      "Ġbeauty": 3048,
      "Ġtit": 3049,
      "Ġhol": 3050,
      "Ġhall": 3051,
      "rams": 3052,
      "Ġremain": 3053,
      "back": 3054,
      "Ġdisp": 3055,
      "Ġsurger": 3056,
      "Ġprojects": 3057,
      "Ġexplore": 3058,
      "ored": 3059,
      "Ġdram": 3060,
      "Ġsurround": 3061,
      "Ġfinal": 3062,
      "Ġdistrib": 3063,
      "Ġmid": 3064,
      "lebr": 3065,
      "Ġwilling": 3066,
      "Ġmagic": 3067,
      "Ġrelationships": 3068,
      "Ġrandom": 3069,
      "ube": 3070,
      "Ġnut": 3071,
      "Ġgradu": 3072,
      "Ġoccur": 3073,
      "Ġcelebr": 3074,
      "Ġfat": 3075,
      "Ġseries": 3076,
      "Ġprevent": 3077,
      "bb": 3078,
      "Ġten": 3079,
      "Ġpal": 3080,
      "ana": 3081,
      "ologists": 3082,
      "ffic": 3083,
      "Ġeffective": 3084,
      "Ġinterview": 3085,
      "Ġtrou": 3086,
      "Ġshot": 3087,
      "Ġboard": 3088,
      "used": 3089,
      "Ġexpensive": 3090,
      "Ġfamous": 3091,
      "Ġplanets": 3092,
      "Ġsick": 3093,
      "Ġgreater": 3094,
      "Ġ198": 3095,
      "Ġcauses": 3096,
      "Ġhonest": 3097,
      "Ġcitizens": 3098,
      "Ġmethod": 3099,
      "dom": 3100,
      "iet": 3101,
      "Ġmi": 3102,
      "Ġparty": 3103,
      "Ġemail": 3104,
      "phone": 3105,
      "Ġpainting": 3106,
      "Ġcosts": 3107,
      "Ġtrade": 3108,
      "cri": 3109,
      "Ġut": 3110,
      "Ġhiv": 3111,
      "Ġrange": 3112,
      "Ġgreatest": 3113,
      "Ġarchitecture": 3114,
      "Ġexh": 3115,
      "Ġmassive": 3116,
      "aur": 3117,
      "estern": 3118,
      "aly": 3119,
      "ama": 3120,
      "iling": 3121,
      "Ġneighborhood": 3122,
      "ises": 3123,
      "Ġriver": 3124,
      "Ġ21": 3125,
      "Ġeffects": 3126,
      "Ġatmosphere": 3127,
      "Ġnone": 3128,
      "ended": 3129,
      "Ġphysic": 3130,
      "Ġsite": 3131,
      "Ġmuse": 3132,
      "ceed": 3133,
      "Ġrom": 3134,
      "Ġimmediately": 3135,
      "Ġphenomen": 3136,
      "Ġrid": 3137,
      "resh": 3138,
      "Ġmostly": 3139,
      "Ġregion": 3140,
      "Ġcritical": 3141,
      "Ġhom": 3142,
      "ales": 3143,
      "rupt": 3144,
      "Ġconnection": 3145,
      "Ġharm": 3146,
      "Ġvacc": 3147,
      "Ġcolleagues": 3148,
      "Ġcust": 3149,
      "Ġang": 3150,
      "Ġfamiliar": 3151,
      "Ġdestro": 3152,
      "Ġemotional": 3153,
      "Ġphilos": 3154,
      "cies": 3155,
      "Ġancient": 3156,
      "Ġjustice": 3157,
      "Ġcover": 3158,
      "Ġsmell": 3159,
      "Ġdirectly": 3160,
      "amm": 3161,
      "Ġrise": 3162,
      "Ġknowing": 3163,
      "epend": 3164,
      "Ġsurve": 3165,
      "Ġbiology": 3166,
      "Ġenvironmental": 3167,
      "Ġprivate": 3168,
      "iation": 3169,
      "Ġmobile": 3170,
      "orrow": 3171,
      "ologist": 3172,
      "Ġdirection": 3173,
      "Ġ70": 3174,
      "Ġenjoy": 3175,
      "Ġmou": 3176,
      "Ġmoon": 3177,
      "Ġmuseum": 3178,
      "ee": 3179,
      "water": 3180,
      "Ġcru": 3181,
      "Ġcrow": 3182,
      "Ġyell": 3183,
      "Ġwalked": 3184,
      "olve": 3185,
      "Ġhole": 3186,
      "Ġstandard": 3187,
      "Ġbroad": 3188,
      "ec": 3189,
      "atically": 3190,
      "Ġtherefore": 3191,
      "Ġuseful": 3192,
      "Ġboys": 3193,
      "Ġmembers": 3194,
      "Ġinstitutions": 3195,
      "Ġhous": 3196,
      "rab": 3197,
      "antic": 3198,
      "Ġexpress": 3199,
      "Ġresist": 3200,
      "Ġgene": 3201,
      "Ġtransport": 3202,
      "Ġlaugh": 3203,
      "Ġslight": 3204,
      "Ġaddition": 3205,
      "Ġmut": 3206,
      "Ġnarr": 3207,
      "Ġpopular": 3208,
      "Ġpolitics": 3209,
      "Ġversion": 3210,
      "reprene": 3211,
      "inated": 3212,
      "Ġlack": 3213,
      "Ġsaving": 3214,
      "Ġ90": 3215,
      "ffe": 3216,
      "ancy": 3217,
      "itude": 3218,
      "Ġworst": 3219,
      "Ġinvent": 3220,
      "Ġseconds": 3221,
      "Ġcondition": 3222,
      "ping": 3223,
      "Ġfeels": 3224,
      "Ġdepression": 3225,
      "Ġidentity": 3226,
      "ndon": 3227,
      "Ġtor": 3228,
      "sem": 3229,
      "Ġdecide": 3230,
      "Ġterrible": 3231,
      "Ġoxygen": 3232,
      ".,": 3233,
      "Ġaust": 3234,
      "Ġdog": 3235,
      "unk": 3236,
      "Ġtax": 3237,
      "Ġrare": 3238,
      "Ġfuel": 3239,
      "Ġharv": 3240,
      "Ġfloor": 3241,
      "arian": 3242,
      "lad": 3243,
      "Ġvalues": 3244,
      "Ġahead": 3245,
      "Ġwestern": 3246,
      "lly": 3247,
      "oting": 3248,
      "Ġorganizations": 3249,
      "Ġfollowing": 3250,
      "Ġmotiv": 3251,
      "ios": 3252,
      "Ġspee": 3253,
      "Ġentreprene": 3254,
      "Ġmeeting": 3255,
      "Ġpurpose": 3256,
      "Ġenorm": 3257,
      "Ġraise": 3258,
      "Ġdecade": 3259,
      "Ġjoy": 3260,
      "Ġhus": 3261,
      "Ġinj": 3262,
      "Ġsociet": 3263,
      "Ġmoral": 3264,
      "Ġchris": 3265,
      "Ġtarget": 3266,
      "Ġtun": 3267,
      "Ġsect": 3268,
      "Ġinteg": 3269,
      "Ġinstance": 3270,
      "Ġradio": 3271,
      "oon": 3272,
      "Ġbeat": 3273,
      "uted": 3274,
      "Ġshock": 3275,
      "Ġmyster": 3276,
      "ception": 3277,
      "Ġstreets": 3278,
      "wise": 3279,
      "Ġvast": 3280,
      "Ġhost": 3281,
      "acity": 3282,
      "Ġhearing": 3283,
      "attle": 3284,
      "Ġsummer": 3285,
      "Ġspirit": 3286,
      "met": 3287,
      "Ġdemon": 3288,
      "ened": 3289,
      "itor": 3290,
      "Ġdel": 3291,
      "ement": 3292,
      "Ġanywhere": 3293,
      "order": 3294,
      "Ġbelief": 3295,
      "orks": 3296,
      "Ġlin": 3297,
      "Ġuses": 3298,
      "Ġstopped": 3299,
      "Ġbroken": 3300,
      "Ġver": 3301,
      "ays": 3302,
      "Ġbrother": 3303,
      "Ġhighly": 3304,
      "Ġindustrial": 3305,
      "Ġtotal": 3306,
      "Ġlink": 3307,
      "raid": 3308,
      "Ġeasier": 3309,
      "Ġmolecules": 3310,
      "Ġmouth": 3311,
      "Ġheat": 3312,
      "Ġselect": 3313,
      "Ġafraid": 3314,
      "airs": 3315,
      "Ġforth": 3316,
      "Ġanswers": 3317,
      "Ġhyd": 3318,
      "Ġconsciousness": 3319,
      "Ġvul": 3320,
      "Ġhistor": 3321,
      "Ġreduce": 3322,
      "Ġtask": 3323,
      "cles": 3324,
      "Ġken": 3325,
      "Ġafgh": 3326,
      "Ġlondon": 3327,
      "Ġswim": 3328,
      "Ġaltern": 3329,
      "Ġclim": 3330,
      "Ġartist": 3331,
      "like": 3332,
      "Ġcultural": 3333,
      "Ġdoub": 3334,
      "cope": 3335,
      "oint": 3336,
      "yle": 3337,
      "Ġsla": 3338,
      "Ġgrav": 3339,
      "Ġproduction": 3340,
      "gu": 3341,
      "Ġunderstood": 3342,
      "Ġaccom": 3343,
      "Ġ500": 3344,
      "Ġdiagn": 3345,
      "ulf": 3346,
      "rench": 3347,
      "Ġstudying": 3348,
      "Ġswitch": 3349,
      "tle": 3350,
      "Ġdyn": 3351,
      "oty": 3352,
      "Ġje": 3353,
      "Ġoffer": 3354,
      "Ġconsid": 3355,
      "Ġconserv": 3356,
      "Ġteaching": 3357,
      "Ġresearchers": 3358,
      "aign": 3359,
      "lies": 3360,
      "aling": 3361,
      "Ġavoid": 3362,
      "Ġsurvive": 3363,
      "Ġnegative": 3364,
      "Ġopposite": 3365,
      "Ġign": 3366,
      "rees": 3367,
      "Ġgiant": 3368,
      "Ġsharing": 3369,
      "Ġspin": 3370,
      "Ġspot": 3371,
      "Ġrepe": 3372,
      "Ġcreativity": 3373,
      "Ġrelative": 3374,
      "Ġreco": 3375,
      "othes": 3376,
      "Ġcampaign": 3377,
      "!\"": 3378,
      "bol": 3379,
      "Ġweap": 3380,
      "amic": 3381,
      "Ġprograms": 3382,
      "Ġfacebook": 3383,
      "Ġultimately": 3384,
      "Ġsurgery": 3385,
      "son": 3386,
      "Ġstren": 3387,
      "Ġplat": 3388,
      "Ġrapid": 3389,
      "Ġcommunicate": 3390,
      "Ġafghan": 3391,
      "lled": 3392,
      "Ġtechni": 3393,
      "Ġhabit": 3394,
      "rad": 3395,
      "Ġdifferently": 3396,
      "Ġindepend": 3397,
      "Ġfrequ": 3398,
      "Ġdemand": 3399,
      "Ġwebsite": 3400,
      "Ġegg": 3401,
      "key": 3402,
      "Ġhelping": 3403,
      "Ġcorrect": 3404,
      "Ġvulner": 3405,
      "Ġstrength": 3406,
      "cil": 3407,
      "Ġdance": 3408,
      "aria": 3409,
      "iforn": 3410,
      "Ġmanu": 3411,
      "Ġbiological": 3412,
      "Ġcaliforn": 3413,
      "Ġvarious": 3414,
      "Ġvolunt": 3415,
      "band": 3416,
      "inating": 3417,
      "empt": 3418,
      "Ġinvented": 3419,
      "Ġends": 3420,
      "Ġengineering": 3421,
      "Ġsurprising": 3422,
      "Ġgun": 3423,
      "Ġ24": 3424,
      "Ġcloser": 3425,
      "Ġfantastic": 3426,
      "Ġcustom": 3427,
      "rew": 3428,
      "Ġseas": 3429,
      "Ġemot": 3430,
      "Ġscan": 3431,
      "why": 3432,
      "ipp": 3433,
      "Ġwashing": 3434,
      "quit": 3435,
      "Ġrule": 3436,
      "Ġprice": 3437,
      "Ġdollar": 3438,
      "Ġodd": 3439,
      "arter": 3440,
      "Ġheld": 3441,
      "Ġnoticed": 3442,
      "atell": 3443,
      "vision": 3444,
      "ening": 3445,
      "Ġcreates": 3446,
      "Ġattract": 3447,
      "Ġmatters": 3448,
      "Ġfocused": 3449,
      "Ġveh": 3450,
      "Ġmanufact": 3451,
      "Ġcalifornia": 3452,
      "my": 3453,
      "Ġwide": 3454,
      "Ġweird": 3455,
      "eter": 3456,
      "cks": 3457,
      "Ġmission": 3458,
      "nel": 3459,
      "Ġai": 3460,
      "Ġeating": 3461,
      "Ġaccord": 3462,
      "Ġtemperature": 3463,
      "Ġsatell": 3464,
      "Ġfing": 3465,
      "Ġdrop": 3466,
      "anc": 3467,
      "anced": 3468,
      "iles": 3469,
      "Ġevolved": 3470,
      "Ġbelow": 3471,
      "Ġscientist": 3472,
      "Ġ197": 3473,
      "Ġsupply": 3474,
      "Ġlegal": 3475,
      "Ġpaid": 3476,
      "Ġremarkable": 3477,
      "Ġshift": 3478,
      "Ġinspired": 3479,
      "Ġsustainable": 3480,
      "Ġemotions": 3481,
      "work": 3482,
      "Ġcand": 3483,
      "Ġinsect": 3484,
      "Ġexpand": 3485,
      "Ġcontain": 3486,
      "Ġfully": 3487,
      "Ġwood": 3488,
      "Ġgain": 3489,
      "iger": 3490,
      "Ġteen": 3491,
      "Ġthanks": 3492,
      "Ġrelated": 3493,
      "Ġpassed": 3494,
      "Ġresponsibility": 3495,
      "Ġoriginal": 3496,
      "Ġplayed": 3497,
      "Ġleading": 3498,
      "Ġmissing": 3499,
      "Ġoptim": 3500,
      "Ġdeliver": 3501,
      "Ġsignificant": 3502,
      "Ġdemonst": 3503,
      "atures": 3504,
      "Ġmix": 3505,
      "Ġvisit": 3506,
      "Ġpublished": 3507,
      "Ġinspir": 3508,
      "rastruct": 3509,
      "Ġefficient": 3510,
      "Ġtherap": 3511,
      "Ġcorner": 3512,
      "Ġinfrastruct": 3513,
      "Ġpuzz": 3514,
      "Ġspeech": 3515,
      "Ġsocieties": 3516,
      "Ġlegs": 3517,
      "ronic": 3518,
      "ffee": 3519,
      "Ġarab": 3520,
      "Ġfol": 3521,
      "Ġdying": 3522,
      "orry": 3523,
      "itter": 3524,
      "Ġspaces": 3525,
      "Ġenter": 3526,
      "Ġpossibly": 3527,
      "Ġflying": 3528,
      "Ġcrowd": 3529,
      "Ġtens": 3530,
      "Ġtough": 3531,
      "Ġtrem": 3532,
      "Ġdiversity": 3533,
      "Ġcommunication": 3534,
      "Ġevents": 3535,
      "Ġanaly": 3536,
      "iot": 3537,
      "Ġartists": 3538,
      "Ġregular": 3539,
      "Ġprofound": 3540,
      "Ġexperiments": 3541,
      "Ġpleas": 3542,
      "Ġbenefits": 3543,
      "bel": 3544,
      "Ġreve": 3545,
      "Ġrh": 3546,
      "Ġagree": 3547,
      "Ġtwice": 3548,
      "Ġhelps": 3549,
      "Ġfold": 3550,
      "ricult": 3551,
      "video": 3552,
      "Ġrough": 3553,
      "Ġgard": 3554,
      "Ġexer": 3555,
      "Ġcong": 3556,
      "Ġagricult": 3557,
      "Ġmusl": 3558,
      "Ġseemed": 3559,
      "Ġbrand": 3560,
      "Ġhang": 3561,
      "Ġnations": 3562,
      "ables": 3563,
      "itely": 3564,
      "Ġeasily": 3565,
      "ob": 3566,
      "Ġfash": 3567,
      "Ġstem": 3568,
      "Ġcoffee": 3569,
      "idden": 3570,
      "Ġtelevision": 3571,
      "Ġadults": 3572,
      "Ġaspect": 3573,
      "Ġunc": 3574,
      "Ġcapacity": 3575,
      "Ġforg": 3576,
      "right": 3577,
      "Ġparad": 3578,
      "Ġsymbol": 3579,
      "aff": 3580,
      "icking": 3581,
      "Ġnoise": 3582,
      "Ġcontact": 3583,
      "Ġspending": 3584,
      "Ġdreams": 3585,
      "Ġtissue": 3586,
      "ius": 3587,
      "Ġfed": 3588,
      "rogen": 3589,
      "Ġlibr": 3590,
      "Ġfaces": 3591,
      "ees": 3592,
      "oun": 3593,
      "Ġcred": 3594,
      "Ġgar": 3595,
      "Ġtraffic": 3596,
      "Ġdevices": 3597,
      "Ġembra": 3598,
      "Ġenormous": 3599,
      "Ġforces": 3600,
      "Ġruss": 3601,
      "Ġmountain": 3602,
      "pro": 3603,
      "Ġburn": 3604,
      "ids": 3605,
      "Ġhell": 3606,
      "Ġrout": 3607,
      "Ġacad": 3608,
      "Ġaccur": 3609,
      "Ġstructures": 3610,
      "Ġsuffering": 3611,
      "Ġbirds": 3612,
      "Ġdescribe": 3613,
      "Ġyellow": 3614,
      "Ġtum": 3615,
      "Ġmr": 3616,
      "omy": 3617,
      "Ġcontinu": 3618,
      "Ġentirely": 3619,
      "Ġleadership": 3620,
      "Ġslightly": 3621,
      "Ġaccording": 3622,
      "Ġbelong": 3623,
      "Ġimportantly": 3624,
      "Ġbelieved": 3625,
      "Ġparticles": 3626,
      "Ġinfrastructure": 3627,
      "cl": 3628,
      "cop": 3629,
      "Ġcook": 3630,
      "Ġbang": 3631,
      "arm": 3632,
      "leg": 3633,
      "erson": 3634,
      "Ġbasis": 3635,
      "Ġartific": 3636,
      "Ġelements": 3637,
      "Ġdemocr": 3638,
      "Ġfashion": 3639,
      "zil": 3640,
      "Ġshark": 3641,
      "Ġchur": 3642,
      "Ġfrank": 3643,
      "Ġcommer": 3644,
      "Ġjoin": 3645,
      "Ġmoments": 3646,
      "Ġfunny": 3647,
      "Ġreligion": 3648,
      "Ġpow": 3649,
      "Ġproduced": 3650,
      "Ġfighting": 3651,
      "Ġdegree": 3652,
      "Ġdegrees": 3653,
      "Ġdav": 3654,
      "ager": 3655,
      "Ġpoet": 3656,
      "Ġbackground": 3657,
      "orders": 3658,
      "Ġphoto": 3659,
      "Ġbrazil": 3660,
      "Ġfailure": 3661,
      "Ġgrandm": 3662,
      "Ġbillions": 3663,
      "set": 3664,
      "Ġwon": 3665,
      "Ġcore": 3666,
      "Ġbag": 3667,
      "Ġmad": 3668,
      "Ġcoast": 3669,
      "Ġraised": 3670,
      "Ġmeters": 3671,
      "Ġ196": 3672,
      "Ġconsequences": 3673,
      "Ġtast": 3674,
      "Ġsister": 3675,
      "Ġbought": 3676,
      "Ġgent": 3677,
      "Ġshop": 3678,
      "Ġotherwise": 3679,
      "Ġapplic": 3680,
      "Ġbrill": 3681,
      "Ġbright": 3682,
      "Ġnetworks": 3683,
      "Ġdestroy": 3684,
      "Ġsorry": 3685,
      "Ġamb": 3686,
      "Ġdesert": 3687,
      "Ġbridge": 3688,
      "Ġgrad": 3689,
      "Ġcourt": 3690,
      "Ġcrimin": 3691,
      "Ġsignals": 3692,
      "Ġhyp": 3693,
      "Ġhusband": 3694,
      "Ġdue": 3695,
      "ysis": 3696,
      "Ġ300": 3697,
      "Ġequal": 3698,
      "und": 3699,
      "Ġwave": 3700,
      "tery": 3701,
      "Ġsaf": 3702,
      "Ġunlike": 3703,
      "Ġpartners": 3704,
      "Ġletter": 3705,
      "Ġflight": 3706,
      "Ġstuck": 3707,
      "Ġbringing": 3708,
      "Ġadvant": 3709,
      "Ġconstruct": 3710,
      "Ġwindow": 3711,
      "Ġturning": 3712,
      "Ġtrouble": 3713,
      "Ġske": 3714,
      "Ġmir": 3715,
      "Ġeg": 3716,
      "Ġet": 3717,
      "istry": 3718,
      "izes": 3719,
      "Ġinvis": 3720,
      "Ġeffort": 3721,
      "Ġdistance": 3722,
      "Ġforever": 3723,
      "Ġholding": 3724,
      "Ġfrench": 3725,
      "ification": 3726,
      "Ġcorpor": 3727,
      "Ġphotos": 3728,
      "Ġprior": 3729,
      "Ġmalaria": 3730,
      "Ġvirtual": 3731,
      "Ġstrategy": 3732,
      "Ġphilosoph": 3733,
      "wood": 3734,
      "vere": 3735,
      "Ġdefe": 3736,
      "athy": 3737,
      "Ġattempt": 3738,
      "Ġlights": 3739,
      "Ġmajority": 3740,
      "Ġlucky": 3741,
      "Ġbound": 3742,
      "itable": 3743,
      "Ġdoz": 3744,
      "oper": 3745,
      "ulations": 3746,
      "Ġlock": 3747,
      "Ġdesire": 3748,
      "Ġwaves": 3749,
      "Ġcycle": 3750,
      "Ġtremend": 3751,
      "Ġdepart": 3752,
      "Ġastron": 3753,
      "Ġwheel": 3754,
      "ores": 3755,
      "Ġwis": 3756,
      "Ġnan": 3757,
      "Ġhack": 3758,
      "Ġund": 3759,
      "Ġfoundation": 3760,
      "board": 3761,
      "Ġdamage": 3762,
      "Ġmultiple": 3763,
      "Ġafghanistan": 3764,
      "Ġmig": 3765,
      "icles": 3766,
      "enty": 3767,
      "Ġnote": 3768,
      "Ġalt": 3769,
      "Ġactive": 3770,
      "load": 3771,
      "Ġmetap": 3772,
      "Ġmilk": 3773,
      "Ġdeeply": 3774,
      "Ġopportunities": 3775,
      "Ġassociated": 3776,
      "Ġbul": 3777,
      "Ġpun": 3778,
      "Ġcompon": 3779,
      "Ġdifferences": 3780,
      "Ġgotten": 3781,
      "Ġconference": 3782,
      "ae": 3783,
      "cest": 3784,
      "eral": 3785,
      "Ġmaster": 3786,
      "Ġbrings": 3787,
      "Ġchildhood": 3788,
      "Ġpossibility": 3789,
      "Ġrequire": 3790,
      "Ġbenefit": 3791,
      "Ã©": 3792,
      "Ġthri": 3793,
      "Ġhate": 3794,
      "enn": 3795,
      "Ġcolors": 3796,
      "Ġmich": 3797,
      "Ġeveryday": 3798,
      "Ġinvestment": 3799,
      "Ġbreath": 3800,
      "val": 3801,
      "Ġcogn": 3802,
      "Ġmamm": 3803,
      "Ġfle": 3804,
      "Ġmarried": 3805,
      "Ġlimited": 3806,
      "Ġvolunte": 3807,
      "vant": 3808,
      "Ġmotion": 3809,
      "Ġprou": 3810,
      "Ġancest": 3811,
      "this": 3812,
      "ques": 3813,
      "Ġlesson": 3814,
      "lied": 3815,
      "Ġlanguages": 3816,
      "Ġcaused": 3817,
      "Ġcounter": 3818,
      "rict": 3819,
      "Ġhomes": 3820,
      "Ġment": 3821,
      "Ġwear": 3822,
      "urd": 3823,
      "ulated": 3824,
      "Ġteles": 3825,
      "Ġprofessor": 3826,
      "Ġleaving": 3827,
      "iers": 3828,
      "reci": 3829,
      "uments": 3830,
      "Ġstudied": 3831,
      "Ġslide": 3832,
      "Ġsubst": 3833,
      "Ġkilomet": 3834,
      "Ġaustral": 3835,
      "ties": 3836,
      "Ġpig": 3837,
      "Ġfro": 3838,
      "lling": 3839,
      "ctic": 3840,
      "Ġsug": 3841,
      "Ġprevious": 3842,
      "Ġmarri": 3843,
      "Ġgeor": 3844,
      "Ġmagaz": 3845,
      "Ġtrained": 3846,
      "Ġdaily": 3847,
      "Ġwalls": 3848,
      "Ġreligious": 3849,
      "Ġdefinition": 3850,
      "Ġira": 3851,
      "Ġconstantly": 3852,
      "cra": 3853,
      "Ġgay": 3854,
      "ils": 3855,
      "anda": 3856,
      "Ġnovel": 3857,
      "Ġtrill": 3858,
      "Ġopened": 3859,
      "Ġresponsible": 3860,
      "Ġartificial": 3861,
      "Ġble": 3862,
      "Ġwearing": 3863,
      "Ġcanad": 3864,
      "Ġpros": 3865,
      "Ġcompared": 3866,
      "Ġfeelings": 3867,
      "Ġimagination": 3868,
      "Ġtransm": 3869,
      "Ġbreast": 3870,
      "Ġdinner": 3871,
      "Ġgentle": 3872,
      "ked": 3873,
      "Ġnames": 3874,
      "Ġindic": 3875,
      "Ġsignal": 3876,
      "Ġwatched": 3877,
      "Ġtypical": 3878,
      "Ġcopy": 3879,
      "now": 3880,
      "Ġround": 3881,
      "inist": 3882,
      "Ġmort": 3883,
      "Ġmaint": 3884,
      "Ġreceived": 3885,
      "Ġnecessarily": 3886,
      "Ġinfluence": 3887,
      "Ġwire": 3888,
      "eness": 3889,
      "Ġcooper": 3890,
      "Ġpartner": 3891,
      "Ġtrip": 3892,
      "Ġsympt": 3893,
      "Ġcurrently": 3894,
      "Ġiron": 3895,
      "Ġweak": 3896,
      "Ġblog": 3897,
      "Ġmicrobes": 3898,
      "Ġfif": 3899,
      "thes": 3900,
      "Ġrot": 3901,
      "Ġcaught": 3902,
      "Ġforeign": 3903,
      "Ġestab": 3904,
      "Ġleaves": 3905,
      "ya": 3906,
      "Ġseed": 3907,
      "Ġfac": 3908,
      "Ġinterp": 3909,
      "Ġconduct": 3910,
      "Ġinvestig": 3911,
      "Ġstruggle": 3912,
      "Ġlandscape": 3913,
      "bed": 3914,
      "ears": 3915,
      "osy": 3916,
      "Ġens": 3917,
      "Ġcalls": 3918,
      "Ġgenome": 3919,
      "Ġcrime": 3920,
      "Ġedge": 3921,
      "Ġfailed": 3922,
      "Ġfarmers": 3923,
      "Ġfresh": 3924,
      "Ġdate": 3925,
      "Ġconcent": 3926,
      "Ġpregn": 3927,
      "Ġantib": 3928,
      "Ġbrilliant": 3929,
      "Ġmer": 3930,
      "Ġmit": 3931,
      "Ġship": 3932,
      "Ġvide": 3933,
      "Ġappreci": 3934,
      "issions": 3935,
      "Ġfigured": 3936,
      "Ġnecessary": 3937,
      "ront": 3938,
      "Ġisol": 3939,
      "Ġbear": 3940,
      "Ġreb": 3941,
      "Ġrecy": 3942,
      "Ġrecon": 3943,
      "irt": 3944,
      "Ġmel": 3945,
      "Ġchick": 3946,
      "Ġcapable": 3947,
      "Ġcollective": 3948,
      "house": 3949,
      "Ġmarch": 3950,
      "Ġisl": 3951,
      "Ġanx": 3952,
      "ume": 3953,
      "Ġexpert": 3954,
      "Ġharder": 3955,
      "Ġrestaur": 3956,
      "Ġidentify": 3957,
      "Ġphenomenon": 3958,
      "ses": 3959,
      "inking": 3960,
      "bert": 3961,
      "Ġadop": 3962,
      "Ġgenerations": 3963,
      "Ġpolitic": 3964,
      "Ġgalaxy": 3965,
      "Ġplatform": 3966,
      "Ġiraq": 3967,
      "Ġhidden": 3968,
      "Ġdar": 3969,
      "Ġnar": 3970,
      "Ġstock": 3971,
      "urally": 3972,
      "uries": 3973,
      "iable": 3974,
      "Ġconsidered": 3975,
      "osystem": 3976,
      "reg": 3977,
      "stein": 3978,
      "idents": 3979,
      "Ġagre": 3980,
      "Ġfortun": 3981,
      "iest": 3982,
      "oes": 3983,
      "ength": 3984,
      "Ġstream": 3985,
      "ifically": 3986,
      "iving": 3987,
      "Ġapple": 3988,
      "Ġtrial": 3989,
      "Ġdiscovery": 3990,
      "Ġinvisible": 3991,
      "Ġproud": 3992,
      "Ġcort": 3993,
      "Ġbees": 3994,
      "rael": 3995,
      "osis": 3996,
      "ief": 3997,
      "Ġboat": 3998,
      "Ġmarkets": 3999,
      "Ġprofessional": 4000,
      "Ġdescribed": 4001,
      "Ġfolks": 4002,
      "Ġdavid": 4003,
      "Ġsen": 4004,
      "oted": 4005,
      "estic": 4006,
      "Ġtalks": 4007,
      "Ġbegins": 4008,
      "Ġsucceed": 4009,
      "Ġecosystem": 4010,
      "Ġbone": 4011,
      "Ġgh": 4012,
      "Ġmexic": 4013,
      "Ġunless": 4014,
      "ography": 4015,
      "Ġengineers": 4016,
      "Ġeuropean": 4017,
      "Ġdouble": 4018,
      "Ġbritish": 4019,
      "ns": 4020,
      "Ġmouse": 4021,
      "ushing": 4022,
      "celer": 4023,
      "Ġug": 4024,
      "Ġworried": 4025,
      "Ġgoals": 4026,
      "Ġcommit": 4027,
      "Ġcreatures": 4028,
      "Ġcurious": 4029,
      "Ġera": 4030,
      "Ġvoices": 4031,
      "Ġintu": 4032,
      "Ġrates": 4033,
      "Ġfellow": 4034,
      "Ġhighest": 4035,
      "Ġleads": 4036,
      "Ġleader": 4037,
      "Ġ400": 4038,
      "Ġpaint": 4039,
      "Ġrisks": 4040,
      "Ġillness": 4041,
      "Ġsurprise": 4042,
      "Ġexperienced": 4043,
      "Ġange": 4044,
      "Ġvote": 4045,
      "Ġappe": 4046,
      "Ġgrown": 4047,
      "Ġclassroom": 4048,
      "Ġsteps": 4049,
      "Ġperfectly": 4050,
      "Ġrequires": 4051,
      "Ġlosing": 4052,
      "Ġepid": 4053,
      "Ġpoem": 4054,
      "ibilities": 4055,
      "Ġorganisms": 4056,
      "Ġsetting": 4057,
      "Ġbusinesses": 4058,
      "Ġdeeper": 4059,
      "Ġcalcul": 4060,
      "Ġquantum": 4061,
      "Ġwashington": 4062,
      "pes": 4063,
      "yes": 4064,
      "Ġpounds": 4065,
      "acters": 4066,
      "Ġperce": 4067,
      "Ġphones": 4068,
      "Ġreplace": 4069,
      "Ġfourth": 4070,
      "Ġcharacters": 4071,
      "Ġanti": 4072,
      "Ġpurs": 4073,
      "Ġmosquit": 4074,
      "Ġtremendous": 4075,
      "inate": 4076,
      "Ġmothers": 4077,
      "Ġnerv": 4078,
      "Ġmoves": 4079,
      "Ġexch": 4080,
      "Ġexec": 4081,
      "Ġacceler": 4082,
      "Ġfaith": 4083,
      "Ġletters": 4084,
      "Ġexperts": 4085,
      "Ġmuscle": 4086,
      "Ġimmune": 4087,
      "Ġlimit": 4088,
      "Ġfeedback": 4089,
      "Ġbalance": 4090,
      "Ġweapons": 4091,
      "Ġhorm": 4092,
      "Ġstim": 4093,
      "Ġtruck": 4094,
      "ruption": 4095,
      "Ġinsight": 4096,
      "Ġnewsp": 4097,
      "Ġneuros": 4098,
      "Ġsurvival": 4099,
      "Ġargue": 4100,
      "Ġseparate": 4101,
      "Ġrefugees": 4102,
      "af": 4103,
      "mar": 4104,
      "Ġfal": 4105,
      "Ġfoss": 4106,
      "Ġisrael": 4107,
      "isco": 4108,
      "Ġrein": 4109,
      "sec": 4110,
      "Ġarms": 4111,
      "Ġcheap": 4112,
      "Ġstatistics": 4113,
      "Ġreaction": 4114,
      "Ġclaim": 4115,
      "Ġchurch": 4116,
      "bre": 4117,
      "bing": 4118,
      "itness": 4119,
      "Ġsoil": 4120,
      "Ġshr": 4121,
      "emy": 4122,
      "apers": 4123,
      "Ġvalu": 4124,
      "play": 4125,
      "Ġconversations": 4126,
      "Ġmotor": 4127,
      "Ġsafety": 4128,
      "mark": 4129,
      "Ġband": 4130,
      "Ġdry": 4131,
      "Ġliqu": 4132,
      "Ġassem": 4133,
      "Ġmyth": 4134,
      "Ġinfin": 4135,
      "Ġconvin": 4136,
      "Ġcircum": 4137,
      "Ġmovies": 4138,
      "Ġsector": 4139,
      "mp": 4140,
      "wide": 4141,
      "Ġtour": 4142,
      "Ġoption": 4143,
      "Ġshut": 4144,
      "Ġshel": 4145,
      "Ġprecise": 4146,
      "Ġhunt": 4147,
      "Ġskill": 4148,
      "Ġtreated": 4149,
      "Ġgrandmother": 4150,
      "ij": 4151,
      "Ġgap": 4152,
      "Ġforced": 4153,
      "Ġintel": 4154,
      "Ġrow": 4155,
      "Ġrub": 4156,
      "Ġclick": 4157,
      "Ġopin": 4158,
      "Ġkeeping": 4159,
      "Ġnormally": 4160,
      "Ġcircle": 4161,
      "Ġlifet": 4162,
      "Ġinequ": 4163,
      "Ġetc": 4164,
      "Ġcos": 4165,
      "Ġtow": 4166,
      "Ġgut": 4167,
      "roph": 4168,
      "Ġlies": 4169,
      "essed": 4170,
      "cket": 4171,
      "Ġclock": 4172,
      "Ġcreation": 4173,
      "Ġconnections": 4174,
      "Ġdrink": 4175,
      "Ġcomplexity": 4176,
      "Ġsurprised": 4177,
      "Ġterrif": 4178,
      "Ġvideos": 4179,
      "can": 4180,
      "hold": 4181,
      "Ġstation": 4182,
      "Ġatoms": 4183,
      "Ġorg": 4184,
      "pper": 4185,
      "ogen": 4186,
      "Ġremote": 4187,
      "Ġheads": 4188,
      "Ġairpl": 4189,
      "Ġprize": 4190,
      "Ġmicros": 4191,
      "Ġslowly": 4192,
      "force": 4193,
      "Ġnervous": 4194,
      "Ġtall": 4195,
      "Ġcro": 4196,
      "Ġfab": 4197,
      "Ġnav": 4198,
      "ston": 4199,
      "Ġjew": 4200,
      "Ġmanaged": 4201,
      "Ġexplo": 4202,
      "Ġquiet": 4203,
      "Ġfollowed": 4204,
      "Ġhorri": 4205,
      "Ġaids": 4206,
      "Ġniger": 4207,
      "ests": 4208,
      "Ġven": 4209,
      "Ġfactors": 4210,
      "Ġregard": 4211,
      "Ġargument": 4212,
      "Ġfairly": 4213,
      "Ġfilled": 4214,
      "Ġmentioned": 4215,
      "Ġadvantage": 4216,
      "Ġplus": 4217,
      "Ġque": 4218,
      "Ġclosed": 4219,
      "Ġempt": 4220,
      "Ġinvited": 4221,
      "Ġcivilization": 4222,
      "Ġpaul": 4223,
      "Ġshoes": 4224,
      "pir": 4225,
      "Ġgather": 4226,
      "Ġju": 4227,
      "anted": 4228,
      "Ġves": 4229,
      "Ġwake": 4230,
      "Ġil": 4231,
      "Ġwhom": 4232,
      "Ġprost": 4233,
      "ypt": 4234,
      "that": 4235,
      "Ġexists": 4236,
      "Ġcoal": 4237,
      "Ġfinished": 4238,
      "hey": 4239,
      "Ġexpected": 4240,
      "Ġsnow": 4241,
      "Ġasia": 4242,
      "Ġvent": 4243,
      "Ġcalling": 4244,
      "Ġfields": 4245,
      "Ġcomfortable": 4246,
      "Ġfascinating": 4247,
      "Ġath": 4248,
      "Ġaug": 4249,
      "Ġbread": 4250,
      "Ġstood": 4251,
      "throp": 4252,
      "Ġkore": 4253,
      "Ġfranc": 4254,
      "Ġbrown": 4255,
      "Ġwarm": 4256,
      "Ġcoral": 4257,
      "Ġseriously": 4258,
      "Ġcompetition": 4259,
      "Ġgermany": 4260,
      "Ġentrepreneurs": 4261,
      "Ġcognitive": 4262,
      "Ġmarriage": 4263,
      "30": 4264,
      "lin": 4265,
      "lus": 4266,
      "xies": 4267,
      "Ġloud": 4268,
      "Ġroof": 4269,
      "Ġhopefully": 4270,
      "Ġincreased": 4271,
      "Ġengineer": 4272,
      "Ġillust": 4273,
      "Ġintelligent": 4274,
      "Ġrelease": 4275,
      "Ġgravity": 4276,
      "edd": 4277,
      "Ġgree": 4278,
      "Ġunp": 4279,
      "Ġtwitter": 4280,
      "Ġfacts": 4281,
      "Ġplanning": 4282,
      "Ġsoul": 4283,
      "Ġpaying": 4284,
      "Ġradical": 4285,
      "Ġexercise": 4286,
      "Ġkilometers": 4287,
      "craft": 4288,
      "Ġtrillion": 4289,
      "rating": 4290,
      "Ġfrust": 4291,
      "Ġspoke": 4292,
      "Ġcontract": 4293,
      "Ġindian": 4294,
      "Ġsurge": 4295,
      "Ġdesigners": 4296,
      "Ġprocesses": 4297,
      "Ġzone": 4298,
      "Ġuniversal": 4299,
      "Ġinstitution": 4300,
      "Ġegypt": 4301,
      "gment": 4302,
      "thetic": 4303,
      "Ġuns": 4304,
      "ensity": 4305,
      "Ġgrade": 4306,
      "Ġsolid": 4307,
      "ocol": 4308,
      "ropri": 4309,
      "Ġexistence": 4310,
      "Ġobserv": 4311,
      "Ġscene": 4312,
      "Ġconcerned": 4313,
      "Ġvessel": 4314,
      "ca": 4315,
      "ino": 4316,
      "Ġpitch": 4317,
      "Ġreef": 4318,
      "ulous": 4319,
      "agers": 4320,
      "Ġdiet": 4321,
      "Ġconfidence": 4322,
      "Ġalternative": 4323,
      "Ġwisdom": 4324,
      "lusion": 4325,
      "Ġsight": 4326,
      "Ġcure": 4327,
      "ami": 4328,
      "Ġfell": 4329,
      "Ġsmo": 4330,
      "Ġblow": 4331,
      "Ġreprodu": 4332,
      "Ġtons": 4333,
      "Ġgalaxies": 4334,
      "Ġvulnerable": 4335,
      "Ġcosm": 4336,
      "Ġbattle": 4337,
      "Ġinh": 4338,
      "cell": 4339,
      "Ġsimpl": 4340,
      "Ġaccident": 4341,
      "Ġoperating": 4342,
      "Ġchemicals": 4343,
      "Ġtomorrow": 4344,
      "Ġdocument": 4345,
      "Ġmagazine": 4346,
      "rit": 4347,
      "Ġcateg": 4348,
      "Ġpil": 4349,
      "aled": 4350,
      "Ġreward": 4351,
      "Ġjail": 4352,
      "Ġflat": 4353,
      "Ġplane": 4354,
      "Ġattach": 4355,
      "Ġcrash": 4356,
      "Ġdriven": 4357,
      "Ġessential": 4358,
      "Ġalgorithm": 4359,
      "Ġarrived": 4360,
      "esome": 4361,
      "asion": 4362,
      "Ġvan": 4363,
      "Ġrat": 4364,
      "ander": 4365,
      "Ġfacing": 4366,
      "Ġthoughts": 4367,
      "Ġprinciple": 4368,
      "Ġhurt": 4369,
      "Ġincreasingly": 4370,
      "Ġelectrical": 4371,
      "Ġdepartment": 4372,
      "Ġsymptoms": 4373,
      "Ġintellect": 4374,
      "Ġmart": 4375,
      "Ġchain": 4376,
      "Ġnotion": 4377,
      "Ġcompare": 4378,
      "odes": 4379,
      "Ġemissions": 4380,
      "Ġordinary": 4381,
      "Ġpromise": 4382,
      "Ġreleased": 4383,
      "Ġlibrary": 4384,
      "Ġliquid": 4385,
      "Ġtick": 4386,
      "Ġthr": 4387,
      "Ġwitness": 4388,
      "Ġtoward": 4389,
      "ctions": 4390,
      "Ġwhenever": 4391,
      "elling": 4392,
      "Ġcourage": 4393,
      "Ġcultures": 4394,
      "Ġequival": 4395,
      "Ġ150": 4396,
      "Ġhonor": 4397,
      "Ġlayer": 4398,
      "Ġmathematics": 4399,
      "Ġcommercial": 4400,
      "Ġmetaphor": 4401,
      "sing": 4402,
      "Ġdial": 4403,
      "Ġgri": 4404,
      "otic": 4405,
      "Ġshif": 4406,
      "Ġrural": 4407,
      "Ġsuic": 4408,
      "Ġunit": 4409,
      "Ġimplic": 4410,
      "Ġfinish": 4411,
      "Ġwond": 4412,
      "Ġorganized": 4413,
      "Ġstatus": 4414,
      "Ġclinical": 4415,
      "ym": 4416,
      "zing": 4417,
      "âĢ": 4418,
      "Ġbare": 4419,
      "Ġhung": 4420,
      "Ġinner": 4421,
      "asa": 4422,
      "lement": 4423,
      "Ġmeat": 4424,
      "Ġspl": 4425,
      "Ġactions": 4426,
      "Ġperception": 4427,
      "abilities": 4428,
      "Ġgrass": 4429,
      "Ġmaintain": 4430,
      "Ġax": 4431,
      "Ġfis": 4432,
      "Ġreject": 4433,
      "Ġshame": 4434,
      "Ġbroke": 4435,
      "Ġtypically": 4436,
      "Ġoptions": 4437,
      "Ġiran": 4438,
      "Ġaccompl": 4439,
      "ford": 4440,
      "rete": 4441,
      "Ġbath": 4442,
      "icing": 4443,
      "Ġreform": 4444,
      "Ġsoph": 4445,
      "Ġlie": 4446,
      "Ġvib": 4447,
      "Ġcolon": 4448,
      "Ġelement": 4449,
      "Ġarmy": 4450,
      "ĠâĢ": 4451,
      "Ġshad": 4452,
      "Ġquote": 4453,
      "Ġscul": 4454,
      "Ġinstall": 4455,
      "Ġminim": 4456,
      "Ġprotein": 4457,
      "Ġcharge": 4458,
      "Ġautism": 4459,
      "Ġbrief": 4460,
      "Ġdrawing": 4461,
      "Ġanalysis": 4462,
      "Ġencourage": 4463,
      "Ġexhib": 4464,
      "Ġlunch": 4465,
      "itarian": 4466,
      "Ġgall": 4467,
      "cend": 4468,
      "Ġimportance": 4469,
      "gged": 4470,
      "Ġalgorithms": 4471,
      "Ġinsects": 4472,
      "Ġmexico": 4473,
      "bors": 4474,
      "ipped": 4475,
      "nown": 4476,
      "Ġtheater": 4477,
      "Ġlu": 4478,
      "Ġperm": 4479,
      "Ġarticle": 4480,
      "Ġmemories": 4481,
      "Ġadvanced": 4482,
      "Ġinteraction": 4483,
      "Ġsending": 4484,
      "Ġcapture": 4485,
      "just": 4486,
      "instein": 4487,
      "Ġbon": 4488,
      "Ġhun": 4489,
      "Ġhide": 4490,
      "itals": 4491,
      "Ġheight": 4492,
      "Ġkick": 4493,
      "Ġload": 4494,
      "Ġgenerate": 4495,
      "Ġmessages": 4496,
      "Ġactivities": 4497,
      "Ġsurvey": 4498,
      "Ġpleasure": 4499,
      "Ġtail": 4500,
      "Ġtraum": 4501,
      "Ġstupid": 4502,
      "Ġtesting": 4503,
      "Ġradiation": 4504,
      "Ġinclude": 4505,
      "Ġsatis": 4506,
      "Ġblocks": 4507,
      "Ġmistakes": 4508,
      "Ġsequence": 4509,
      "Ġsatellite": 4510,
      "Ġcriminal": 4511,
      "ike": 4512,
      "iors": 4513,
      "yth": 4514,
      "Ġham": 4515,
      "Ġseat": 4516,
      "osition": 4517,
      "Ġqual": 4518,
      "angers": 4519,
      "Ġdesigner": 4520,
      "Ġadded": 4521,
      "Ġenvironments": 4522,
      "Ġfunding": 4523,
      "Ġoceans": 4524,
      "Ġpicked": 4525,
      "Ġneighbors": 4526,
      "Ġdefinitely": 4527,
      "Ġheavy": 4528,
      "Ġvaluable": 4529,
      "Ġlifetime": 4530,
      "look": 4531,
      "Ġsides": 4532,
      "Ġpages": 4533,
      "anes": 4534,
      "Ġremo": 4535,
      "connect": 4536,
      "Ġwarming": 4537,
      "new": 4538,
      "Ġopening": 4539,
      "Ġagriculture": 4540,
      "Ġantibiot": 4541,
      "Ġfossil": 4542,
      "Ġilleg": 4543,
      "Ġsculpt": 4544,
      "cast": 4545,
      "mon": 4546,
      "pet": 4547,
      "Ġcow": 4548,
      "Ġeinstein": 4549,
      "Ġadvert": 4550,
      "Ġreplic": 4551,
      "Ġprivile": 4552,
      "Ġversus": 4553,
      "Ġprinciples": 4554,
      "Ġdebate": 4555,
      "Ġcredit": 4556,
      "hi": 4557,
      "lom": 4558,
      "Ġchair": 4559,
      "Ġsaved": 4560,
      "Ġagg": 4561,
      "Ġengland": 4562,
      "Ġroughly": 4563,
      "Ġaustralia": 4564,
      "Ġempty": 4565,
      "ky": 4566,
      "encies": 4567,
      "Ġpair": 4568,
      "Ġgd": 4569,
      "Ġprove": 4570,
      "Ġprote": 4571,
      "Ġdriver": 4572,
      "Ġsigns": 4573,
      "Ġparal": 4574,
      "Ġamazon": 4575,
      "Ġwondering": 4576,
      "Ġequivalent": 4577,
      "Ġwel": 4578,
      "Ġgam": 4579,
      "Ġconsist": 4580,
      "Ġdesigning": 4581,
      "Ġmetal": 4582,
      "Ġlawy": 4583,
      "Ġexplan": 4584,
      "Ġsentence": 4585,
      "Ġobser": 4586,
      "Ġmanagement": 4587,
      "Ġlaunched": 4588,
      "ĠâĢĵ": 4589,
      "place": 4590,
      "Ġpure": 4591,
      "Ġworlds": 4592,
      "Ġworldwide": 4593,
      "aker": 4594,
      "Ġtechnical": 4595,
      "Ġpossibilities": 4596,
      "Ġorganic": 4597,
      "Ġkeeps": 4598,
      "Ġdefined": 4599,
      "Ġconstant": 4600,
      "ographic": 4601,
      "Ġcutting": 4602,
      "Ġprofession": 4603,
      "Ġestim": 4604,
      "Ġproperty": 4605,
      "Ġmira": 4606,
      "Ġtumor": 4607,
      "Ġcast": 4608,
      "omm": 4609,
      "Ġabst": 4610,
      "ession": 4611,
      "ifying": 4612,
      "Ġunk": 4613,
      "Ġarts": 4614,
      "Ġeleph": 4615,
      "Ġbarri": 4616,
      "Ġsources": 4617,
      "Ġgraduate": 4618,
      "ha": 4619,
      "win": 4620,
      "Ġfishing": 4621,
      "Ġsees": 4622,
      "Ġexpression": 4623,
      "Ġtransition": 4624,
      "Ġformer": 4625,
      "Ġempathy": 4626,
      "Ġsouthern": 4627,
      "Ġrepresents": 4628,
      "Ġresource": 4629,
      "Ġaffected": 4630,
      "Ġlady": 4631,
      "Ġdynamic": 4632,
      "ost": 4633,
      "inal": 4634,
      "Ġbow": 4635,
      "olves": 4636,
      "ressive": 4637,
      "Ġnaturally": 4638,
      "Ġelection": 4639,
      "Ġcontinent": 4640,
      "Ġdetails": 4641,
      "Ġjapanese": 4642,
      "Ġbomb": 4643,
      "Ġindependent": 4644,
      "Ġgarden": 4645,
      "Ġgdp": 4646,
      "cap": 4647,
      "oration": 4648,
      "ara": 4649,
      "Ġbeach": 4650,
      "Ġspan": 4651,
      "Ġprototy": 4652,
      "Ġmarine": 4653,
      "Ġmember": 4654,
      "Ġequip": 4655,
      "Ġexisting": 4656,
      "Ġdealing": 4657,
      "Ġdepends": 4658,
      "Ġvictims": 4659,
      "Ġpoliticians": 4660,
      "Ġing": 4661,
      "Ġsem": 4662,
      "Ġsevere": 4663,
      "Ġthinks": 4664,
      "Ġbran": 4665,
      "Ġserve": 4666,
      "Ġassist": 4667,
      "Ġadvice": 4668,
      "Ġawesome": 4669,
      "Ġpuzzle": 4670,
      "Ġsugar": 4671,
      "Ġinterpret": 4672,
      "Ġcircumst": 4673,
      "pher": 4674,
      "Ġalex": 4675,
      "Ġii": 4676,
      "ptions": 4677,
      "Ġspecifically": 4678,
      "Ġdefine": 4679,
      "Ġassign": 4680,
      "pected": 4681,
      "Ġreview": 4682,
      "Ġmirror": 4683,
      "Ġinequality": 4684,
      "care": 4685,
      "rel": 4686,
      "Ġnurs": 4687,
      "edia": 4688,
      "Ġstone": 4689,
      "Ġsports": 4690,
      "Ġcovered": 4691,
      "Ġlapt": 4692,
      "Ġcarefully": 4693,
      "Ġauth": 4694,
      "Ġkilling": 4695,
      "Ġcausing": 4696,
      "Ġconsumption": 4697,
      "Ġcameras": 4698,
      "Ġemployees": 4699,
      "Ġholes": 4700,
      "Ġhouses": 4701,
      "Ġcongress": 4702,
      "20": 4703,
      "Ġeld": 4704,
      "ria": 4705,
      "Ġspring": 4706,
      "Ġfactory": 4707,
      "Ġsilence": 4708,
      "Ġprivacy": 4709,
      "Ġnarrative": 4710,
      "Ġharvard": 4711,
      "zed": 4712,
      "Ġgift": 4713,
      "irty": 4714,
      "Ġjack": 4715,
      "Ġatl": 4716,
      "Ġmax": 4717,
      "Ġring": 4718,
      "Ġphr": 4719,
      "Ġunderne": 4720,
      "akers": 4721,
      "Ġzo": 4722,
      "Ġcollection": 4723,
      "Ġchemistry": 4724,
      "Ġhoriz": 4725,
      "Ġspectrum": 4726,
      "Ġkenya": 4727,
      "Ġrapidly": 4728,
      "Ġunderneath": 4729,
      "fish": 4730,
      "iety": 4731,
      "Ġtro": 4732,
      "Ġlas": 4733,
      "Ġcha": 4734,
      "oles": 4735,
      "Ġmak": 4736,
      "Ġideal": 4737,
      "Ġsolving": 4738,
      "Ġcenturies": 4739,
      "Ġbits": 4740,
      "Ġphysically": 4741,
      "Ġrefer": 4742,
      "Ġadvent": 4743,
      "Ġteams": 4744,
      "Ġprotection": 4745,
      "Ġpotentially": 4746,
      "Ġmolecule": 4747,
      "Ġcanada": 4748,
      "cers": 4749,
      "dy": 4750,
      "rant": 4751,
      "Ġoct": 4752,
      "Ġnur": 4753,
      "abled": 4754,
      "Ġdisplay": 4755,
      "aked": 4756,
      "Ġreached": 4757,
      "Ġfalling": 4758,
      "Ġinev": 4759,
      "ingly": 4760,
      "etics": 4761,
      "rog": 4762,
      "Ġapparent": 4763,
      "Ġ35": 4764,
      "Ġvisible": 4765,
      "Ġlocation": 4766,
      "Ġhyper": 4767,
      "Ġsituations": 4768,
      "Ġdivide": 4769,
      "Ġsoldiers": 4770,
      "Ġclouds": 4771,
      "Ġsweet": 4772,
      "Ġtechniques": 4773,
      "lation": 4774,
      "Ġmile": 4775,
      "ett": 4776,
      "Ġstorm": 4777,
      "ament": 4778,
      "Ġteeth": 4779,
      "Ġscr": 4780,
      "Ġproducing": 4781,
      "Ġgrid": 4782,
      "Ġmeaningful": 4783,
      "Ġfundament": 4784,
      "Ġclinic": 4785,
      "Ġeggs": 4786,
      "Ġorgans": 4787,
      "rom": 4788,
      "Ġthick": 4789,
      "aters": 4790,
      "erves": 4791,
      "Ġneither": 4792,
      "Ġnotes": 4793,
      "Ġscri": 4794,
      "forest": 4795,
      "Ġvalley": 4796,
      "Ġeffectively": 4797,
      "Ġescape": 4798,
      "comfort": 4799,
      "Ġawareness": 4800,
      "Ġdistribution": 4801,
      "Ġmystery": 4802,
      "Ġforgot": 4803,
      "word": 4804,
      "edic": 4805,
      "Ġrely": 4806,
      "Ġaging": 4807,
      "Ġsmile": 4808,
      "Ġfactor": 4809,
      "Ġinternal": 4810,
      "Ġinstitute": 4811,
      "Ġvariety": 4812,
      "oxide": 4813,
      "Ġseason": 4814,
      "Ġtelescope": 4815,
      "ka": 4816,
      "Ġtoile": 4817,
      "Ġpoo": 4818,
      "Ġweather": 4819,
      "terday": 4820,
      "Ġseek": 4821,
      "resp": 4822,
      "Ġviolent": 4823,
      "Ġveget": 4824,
      "Ġhospitals": 4825,
      "Ġshapes": 4826,
      "Ġangry": 4827,
      "Ġassemb": 4828,
      "Ġequipment": 4829,
      "ole": 4830,
      "rs": 4831,
      "Ġpul": 4832,
      "Ġdots": 4833,
      "Ġincent": 4834,
      "Ġkitch": 4835,
      "Ġfrance": 4836,
      "cience": 4837,
      "Ġengaged": 4838,
      "Ġ75": 4839,
      "Ġrequired": 4840,
      "Ġreceive": 4841,
      "Ġselling": 4842,
      "iosity": 4843,
      "Ġcandid": 4844,
      "Ġdemocratic": 4845,
      "Ġpoetry": 4846,
      "Ġrestaurant": 4847,
      "gue": 4848,
      "eng": 4849,
      "Ġflex": 4850,
      "Ġyout": 4851,
      "Ġstaff": 4852,
      "Ġbutton": 4853,
      "ago": 4854,
      "Ġoverwh": 4855,
      "Ġflood": 4856,
      "Ġtrials": 4857,
      "Ġcorruption": 4858,
      "Ġregions": 4859,
      "entional": 4860,
      "print": 4861,
      "Ġconstruction": 4862,
      "Ġfilms": 4863,
      "Ġsuffer": 4864,
      "Ġpulled": 4865,
      "Ġmathematical": 4866,
      "prof": 4867,
      "Ġoverwhel": 4868,
      "ault": 4869,
      "vent": 4870,
      "Ġwars": 4871,
      "Ġcub": 4872,
      "Ġdut": 4873,
      "iti": 4874,
      "Ġusers": 4875,
      "cipl": 4876,
      "Ġfeatures": 4877,
      "Ġpole": 4878,
      "ternal": 4879,
      "Ġsites": 4880,
      "Ġtraveling": 4881,
      "Ġmistake": 4882,
      "Ġintroduced": 4883,
      "Ġmuslim": 4884,
      "Ġgeorge": 4885,
      "Ġyoutube": 4886,
      "uses": 4887,
      "ulating": 4888,
      "Ġmanip": 4889,
      "Ġperman": 4890,
      "apse": 4891,
      "ublic": 4892,
      "Ġinsur": 4893,
      "Ġlessons": 4894,
      "Ġformed": 4895,
      "Ġstret": 4896,
      "Ġcrack": 4897,
      "Ġdinos": 4898,
      "Ġdimensional": 4899,
      "Ġembrace": 4900,
      "Ġcompar": 4901,
      "Ġunex": 4902,
      "Ġquarter": 4903,
      "Ġwhereas": 4904,
      "Ġclothes": 4905,
      "Ġresil": 4906,
      "Ġputs": 4907,
      "Ġappropri": 4908,
      "Ġprocessing": 4909,
      "Ġimmig": 4910,
      "Ġnorthern": 4911,
      "Ġproperties": 4912,
      "Ġiniti": 4913,
      "Ġbudget": 4914,
      "Ġconvinced": 4915,
      "bur": 4916,
      "bble": 4917,
      "Ġpray": 4918,
      "Ġplayers": 4919,
      "Ġeconomics": 4920,
      "Ġcurve": 4921,
      "Ġyounger": 4922,
      "Ġyesterday": 4923,
      "Ġdrag": 4924,
      "Ġmolecular": 4925,
      "Ġforests": 4926,
      "Ġmountains": 4927,
      "Ġrecyc": 4928,
      "Ġepidemic": 4929,
      "Ġfalse": 4930,
      "Ġfrancisco": 4931,
      "Ġillegal": 4932,
      "Ġscript": 4933,
      "car": 4934,
      "hes": 4935,
      "iber": 4936,
      "pan": 4937,
      "sa": 4938,
      "uing": 4939,
      "Ġpin": 4940,
      "Ġevil": 4941,
      "Ġmovements": 4942,
      "Ġbottle": 4943,
      "Ġburning": 4944,
      "Ġpollution": 4945,
      "Ġinfected": 4946,
      "Ġencoura": 4947,
      "Ġprimary": 4948,
      "Ġbritain": 4949,
      "Ġprepared": 4950,
      "Ġhydrogen": 4951,
      "Ġrelatively": 4952,
      "Ġsophistic": 4953,
      "comes": 4954,
      "Ġack": 4955,
      "Ġfert": 4956,
      "Ġyouth": 4957,
      "che": 4958,
      "Ġliked": 4959,
      "Ġjer": 4960,
      "Ġoutcome": 4961,
      "Ġpoly": 4962,
      "ension": 4963,
      "Ġfewer": 4964,
      "Ġgenerally": 4965,
      "Ġ45": 4966,
      "heim": 4967,
      "Ġoccup": 4968,
      "Ġattacks": 4969,
      "Ġcortex": 4970,
      "ipping": 4971,
      "Ġblo": 4972,
      "Ġmas": 4973,
      "icy": 4974,
      "Ġcompla": 4975,
      "Ġ22": 4976,
      "Ġprefer": 4977,
      "Ġapplied": 4978,
      "Ġplayer": 4979,
      "Ġentertain": 4980,
      "Ġallowing": 4981,
      "Ġchallenging": 4982,
      "Ġboxes": 4983,
      "Ġintroduce": 4984,
      "Ġancestors": 4985,
      "Ġproteins": 4986,
      "Ġunknown": 4987,
      "father": 4988,
      "Ġmurd": 4989,
      "Ġstro": 4990,
      "ams": 4991,
      "Ġintense": 4992,
      "Ġride": 4993,
      "Ġscar": 4994,
      "Ġauton": 4995,
      "Ġequality": 4996,
      "Ġprotected": 4997,
      "Ġdisappear": 4998,
      "Ġanxiety": 4999,
      "ares": 5000,
      "port": 5001,
      "Ġbes": 5002,
      "Ġbee": 5003,
      "laced": 5004,
      "Ġatom": 5005,
      "Ġresc": 5006,
      "Ġdesper": 5007,
      "Ġremains": 5008,
      "Ġrepublic": 5009,
      "Ġpersonally": 5010,
      "Ġparking": 5011,
      "Ġequally": 5012,
      "Ġabsor": 5013,
      "onym": 5014,
      "Ġcarrying": 5015,
      "Ġrefugee": 5016,
      "Ġlinked": 5017,
      "Ġexchange": 5018,
      "inations": 5019,
      "Ġborder": 5020,
      "Ġpac": 5021,
      "Ġweigh": 5022,
      "Ġconver": 5023,
      "Ġrational": 5024,
      "Ġinterface": 5025,
      "Ġinstruct": 5026,
      "Ġjoined": 5027,
      "Ġpolar": 5028,
      "Ġswed": 5029,
      "Ġ2008": 5030,
      "Ġempower": 5031,
      "Ġmulti": 5032,
      "Ġdomestic": 5033,
      "Ġsample": 5034,
      "Ġladies": 5035,
      "Ġdoubt": 5036,
      "Ġvehicle": 5037,
      "Ġmanufacturing": 5038,
      "Ġtherapy": 5039,
      "Ġfundamentally": 5040,
      "gets": 5041,
      "Ġsco": 5042,
      "Ġlens": 5043,
      "Ġrenew": 5044,
      "Ġdol": 5045,
      "Ġlift": 5046,
      "Ġjan": 5047,
      "Ġchap": 5048,
      "Ġbuying": 5049,
      "Ġacqu": 5050,
      "aren": 5051,
      "Ġfaced": 5052,
      "Ġsurf": 5053,
      "Ġtransfer": 5054,
      "Ġinterests": 5055,
      "Ġmusical": 5056,
      "Ġcuriosity": 5057,
      "Ġbehaviors": 5058,
      "Ġpsychological": 5059,
      "Ġconsumer": 5060,
      "Ġcombination": 5061,
      "Ġshoot": 5062,
      "Ġconcrete": 5063,
      "Ġevolutionary": 5064,
      "Ġkitchen": 5065,
      "nding": 5066,
      "Ġlying": 5067,
      "Ġnose": 5068,
      "Ġnasa": 5069,
      "icip": 5070,
      "rooms": 5071,
      "Ġmere": 5072,
      "oses": 5073,
      "eline": 5074,
      "Ġdiss": 5075,
      "Ġ2000": 5076,
      "Ġdesk": 5077,
      "Ġscared": 5078,
      "Ġdioxide": 5079,
      "Ġcontrolled": 5080,
      "Ġscenar": 5081,
      "me": 5082,
      "mas": 5083,
      "Ġber": 5084,
      "ann": 5085,
      "Ġlength": 5086,
      "Ġreven": 5087,
      "Ġstyle": 5088,
      "Ġdogs": 5089,
      "Ġchose": 5090,
      "Ġcontem": 5091,
      "Ġcontrast": 5092,
      "aks": 5093,
      "Ġelectron": 5094,
      "iency": 5095,
      "Ġ99": 5096,
      "Ġamounts": 5097,
      "Ġdomin": 5098,
      "Ġparticipate": 5099,
      "Ġnavig": 5100,
      "den": 5101,
      "Ġpip": 5102,
      "Ġshall": 5103,
      "Ġchimp": 5104,
      "Ġalien": 5105,
      "Ġoutcomes": 5106,
      "Ġarr": 5107,
      "Ġremove": 5108,
      "Ġhandle": 5109,
      "Ġsuppose": 5110,
      "Ġadvoc": 5111,
      "Ġstronger": 5112,
      "Ġnegot": 5113,
      "Ġawful": 5114,
      "Ġacknow": 5115,
      "but": 5116,
      "cal": 5117,
      "och": 5118,
      "point": 5119,
      "rim": 5120,
      "vi": 5121,
      "ingu": 5122,
      "arant": 5123,
      "ica": 5124,
      "Ġabuse": 5125,
      "Ġsubs": 5126,
      "Ġruns": 5127,
      "Ġparis": 5128,
      "Ġrising": 5129,
      "Ġstatement": 5130,
      "Ġdigit": 5131,
      "porary": 5132,
      "Ġfrag": 5133,
      "Ġresistance": 5134,
      "Ġswimming": 5135,
      "Ġchicken": 5136,
      "Ġairplane": 5137,
      "Ġintellectual": 5138,
      "Ġfisher": 5139,
      "rors": 5140,
      "Ġpak": 5141,
      "amb": 5142,
      "riend": 5143,
      "Ġchart": 5144,
      "ortion": 5145,
      "Ġarrest": 5146,
      "Ġovercome": 5147,
      "Ġpref": 5148,
      "Ġconstit": 5149,
      "Ġsensitive": 5150,
      "Ġhorse": 5151,
      "Ġdetermine": 5152,
      "Ġpakistan": 5153,
      "iat": 5154,
      "uits": 5155,
      "Ġdust": 5156,
      "Ġanger": 5157,
      "abet": 5158,
      "Ġdisrupt": 5159,
      "Ġdecre": 5160,
      "Ġschol": 5161,
      "while": 5162,
      "Ġplays": 5163,
      "Ġextract": 5164,
      "Ġtopic": 5165,
      "Ġlabel": 5166,
      "Ġexplained": 5167,
      "Ġroads": 5168,
      "Ġframe": 5169,
      "Ġsusp": 5170,
      "Ġbattery": 5171,
      "Ġsurrounded": 5172,
      "Ġvaccine": 5173,
      "Ġtransportation": 5174,
      "Ġtaste": 5175,
      "Ġhoney": 5176,
      "Ġuser": 5177,
      "Ġru": 5178,
      "Ġsuit": 5179,
      "Ġdisaster": 5180,
      "Ġinstrum": 5181,
      "Ġglobe": 5182,
      "Ġfunctions": 5183,
      "Ġtests": 5184,
      "Ġtested": 5185,
      "Ġcyber": 5186,
      "Ġdestruction": 5187,
      "Ġjudge": 5188,
      "Ġdimensions": 5189,
      "Ġromantic": 5190,
      "Ġcircumstances": 5191,
      "bles": 5192,
      "rument": 5193,
      "Ġwik": 5194,
      "Ġbell": 5195,
      "Ġjames": 5196,
      "Ġspo": 5197,
      "Ġdisorder": 5198,
      "Ġbrothers": 5199,
      "Ġminister": 5200,
      "Ġconfident": 5201,
      "lands": 5202,
      "Ġclasses": 5203,
      "Ġ2010": 5204,
      "Ġemerging": 5205,
      "Ġviruses": 5206,
      "Ġshaped": 5207,
      "Ġdramatic": 5208,
      "Ġdolph": 5209,
      "fl": 5210,
      "Ġinput": 5211,
      "Ġgi": 5212,
      "Ġtack": 5213,
      "Ġages": 5214,
      "Ġchannel": 5215,
      "Ġinstrument": 5216,
      "Ġ194": 5217,
      "Ġcollected": 5218,
      "Ġrecords": 5219,
      "Ġmechanism": 5220,
      "Ġbreathe": 5221,
      "Ġflag": 5222,
      "Ġadmit": 5223,
      "Ġpassionate": 5224,
      "Ġharvest": 5225,
      "Ġpregnant": 5226,
      "Ġislam": 5227,
      "Ġopinion": 5228,
      "han": 5229,
      "mber": 5230,
      "off": 5231,
      "rition": 5232,
      "Ġtight": 5233,
      "Ġbones": 5234,
      "enced": 5235,
      "Ġfiction": 5236,
      "Ġdress": 5237,
      "itors": 5238,
      "stream": 5239,
      "child": 5240,
      "Ġhem": 5241,
      "Ġstudio": 5242,
      "Ġextend": 5243,
      "Ġrecorded": 5244,
      "Ġcombined": 5245,
      "Ġaspects": 5246,
      "aust": 5247,
      "uary": 5248,
      "Ġtired": 5249,
      "Ġpill": 5250,
      "esh": 5251,
      "Ġmand": 5252,
      "Ġrit": 5253,
      "Ġguide": 5254,
      "Ġmont": 5255,
      "Ġbiom": 5256,
      "Ġsubm": 5257,
      "Ġmillenn": 5258,
      "Ġdirector": 5259,
      "Ġelev": 5260,
      "Ġstayed": 5261,
      "Ġrelevant": 5262,
      "Ġpolicies": 5263,
      "Ġparticipants": 5264,
      "Ġconservation": 5265,
      "Ġfifth": 5266,
      "Ġnarrow": 5267,
      "Ġsuicide": 5268,
      "heimer": 5269,
      "rations": 5270,
      "wor": 5271,
      "Ġox": 5272,
      "Ġneut": 5273,
      "Ġsphere": 5274,
      "Ġunion": 5275,
      "Ġimplement": 5276,
      "Ġresolution": 5277,
      "Ġgoods": 5278,
      "Ġelimin": 5279,
      "Ġclever": 5280,
      "Ġdefense": 5281,
      "Ġincreases": 5282,
      "Ġpractical": 5283,
      "Ġconvince": 5284,
      "Ġphotographs": 5285,
      "Ġnewspaper": 5286,
      "Ġingred": 5287,
      "Ġmc": 5288,
      "Ġitem": 5289,
      "Ġreci": 5290,
      "olving": 5291,
      "Ġcave": 5292,
      "Ġexposed": 5293,
      "Ġfeature": 5294,
      "Ġscary": 5295,
      "Ġoffered": 5296,
      "Ġrecomm": 5297,
      "Ġdistinct": 5298,
      "Ġexplos": 5299,
      "Ġsenses": 5300,
      "Ġcolleague": 5301,
      "Ġprinting": 5302,
      "Ġlaboratory": 5303,
      "Ġhoping": 5304,
      "Ġridic": 5305,
      "Ġinspiration": 5306,
      "Ġmortality": 5307,
      "Ġabstract": 5308,
      "Ġsophisticated": 5309,
      "friend": 5310,
      "Ġmary": 5311,
      "Ġinject": 5312,
      "Ġlic": 5313,
      "Ġcomment": 5314,
      "Ġorch": 5315,
      "Ġ23": 5316,
      "Ġunderwater": 5317,
      "Ġobst": 5318,
      "Ġcenters": 5319,
      "Ġhealthcare": 5320,
      "Ġrooms": 5321,
      "Ġgrandfather": 5322,
      "Ġwinter": 5323,
      "Ġvolume": 5324,
      "Ġstruck": 5325,
      "Ġcollaboration": 5326,
      "Ġauthority": 5327,
      "llywood": 5328,
      "Ġrhyth": 5329,
      "au": 5330,
      "time": 5331,
      "Ġdip": 5332,
      "Ġplate": 5333,
      "Ġfake": 5334,
      "Ġguarant": 5335,
      "Ġmuscles": 5336,
      "Ġprotest": 5337,
      "box": 5338,
      "Ġfears": 5339,
      "Ġinnovative": 5340,
      "Ġcartoon": 5341,
      "Ġtitle": 5342,
      "Ġdramatically": 5343,
      "Ġaccurate": 5344,
      "Ġphilosophy": 5345,
      "Ġcomponents": 5346,
      "Ġnigeria": 5347,
      "Ġwondered": 5348,
      "ih": 5349,
      "za": 5350,
      "zheimer": 5351,
      "ĠĠ": 5352,
      "Ġcup": 5353,
      "Ġborders": 5354,
      "Ġpushing": 5355,
      "Ġdedic": 5356,
      "Ġanat": 5357,
      "Ġalzheimer": 5358,
      "Ġacts": 5359,
      "Ġbubble": 5360,
      "Ġplaced": 5361,
      "Ġinvention": 5362,
      "Ġtechnological": 5363,
      "Ġdiverse": 5364,
      "Ġbusy": 5365,
      "Ġsinging": 5366,
      "Ġequation": 5367,
      "Ġlargely": 5368,
      "aneously": 5369,
      "Ġsensors": 5370,
      "Ġwindows": 5371,
      "Ġliterature": 5372,
      "Ġrocket": 5373,
      "Ġreported": 5374,
      "Ġframew": 5375,
      "Ġcards": 5376,
      "Ġbg": 5377,
      "Ġpy": 5378,
      "Ġlun": 5379,
      "Ġnative": 5380,
      "iters": 5381,
      "Ġunus": 5382,
      "Ġdiscipl": 5383,
      "Ġboston": 5384,
      "Ġflies": 5385,
      "Ġadvance": 5386,
      "Ġproviding": 5387,
      "Ġclosely": 5388,
      "Ġcombine": 5389,
      "Ġanalog": 5390,
      "Ġtonight": 5391,
      "Ġlogic": 5392,
      "Ġhypothes": 5393,
      "Ġprosper": 5394,
      "gra": 5395,
      "anze": 5396,
      "iring": 5397,
      "Ġupper": 5398,
      "olic": 5399,
      "Ġvoc": 5400,
      "Ġtap": 5401,
      "Ġexpos": 5402,
      "Ġrepair": 5403,
      "Ġmonkey": 5404,
      "Ġgenerated": 5405,
      "Ġbias": 5406,
      "Ġmemor": 5407,
      "lessly": 5408,
      "Ġcalc": 5409,
      "Ġtrend": 5410,
      "Ġsymmet": 5411,
      "Ġterrorism": 5412,
      "Ġhousing": 5413,
      "Ġvessels": 5414,
      "Ġstretch": 5415,
      "Ġchimpanze": 5416,
      "mal": 5417,
      "inction": 5418,
      "Ġanderson": 5419,
      "Ġlect": 5420,
      "Ġna": 5421,
      "rian": 5422,
      "Ġchamp": 5423,
      "Ġevolve": 5424,
      "Ġoverall": 5425,
      "Ġherself": 5426,
      "Ġcommand": 5427,
      "Ġscore": 5428,
      "Ġsteel": 5429,
      "Ġsumm": 5430,
      "Ġcritic": 5431,
      "Ġ1980": 5432,
      "Ġmethods": 5433,
      "Ġhill": 5434,
      "Ġtoler": 5435,
      "Ġgla": 5436,
      "ums": 5437,
      "isters": 5438,
      "Ġtea": 5439,
      "Ġconfront": 5440,
      "Ġbreaking": 5441,
      "Ġreaching": 5442,
      "Ġpsychology": 5443,
      "Ġexperiencing": 5444,
      "Ġtransformation": 5445,
      "herent": 5446,
      "Ġappreciate": 5447,
      "Ġfortunately": 5448,
      "ael": 5449,
      "ship": 5450,
      "vas": 5451,
      "orous": 5452,
      "Ġles": 5453,
      "Ġears": 5454,
      "Ġaspir": 5455,
      "udd": 5456,
      "Ġwherever": 5457,
      "Ġobama": 5458,
      "Ġimagined": 5459,
      "Ġmedium": 5460,
      "Ġfright": 5461,
      "Ġdrives": 5462,
      "Ġdevast": 5463,
      "Ġdrinking": 5464,
      "Ġrecognized": 5465,
      "Ġsilk": 5466,
      "Ġdepending": 5467,
      "Ġlifest": 5468,
      "Ġbirthday": 5469,
      "Ġtasks": 5470,
      "Ġannoun": 5471,
      "Ġuncertain": 5472,
      "ba": 5473,
      "hen": 5474,
      "Ġboring": 5475,
      "Ġhits": 5476,
      "Ġmaps": 5477,
      "Ġrush": 5478,
      "Ġacting": 5479,
      "ogue": 5480,
      "Ġ27": 5481,
      "Ġcarried": 5482,
      "Ġorganism": 5483,
      "Ġcharles": 5484,
      "Ġoccasion": 5485,
      "Ġembarr": 5486,
      "Ġmathematic": 5487,
      "Ġsamples": 5488,
      "Ġdropped": 5489,
      "Ġdiscussion": 5490,
      "Ġhorrible": 5491,
      "respond": 5492,
      "Ġembarrass": 5493,
      "da": 5494,
      "Ġsets": 5495,
      "Ġos": 5496,
      "uting": 5497,
      "Ġhaw": 5498,
      "Ġclub": 5499,
      "athers": 5500,
      "Ġjoke": 5501,
      "Ġflash": 5502,
      "iano": 5503,
      "Ġsolved": 5504,
      "Ġstoryt": 5505,
      "Ġrecru": 5506,
      "Ġdeploy": 5507,
      "Ġpainful": 5508,
      "Ġerror": 5509,
      "Ġrichard": 5510,
      "Ġinfection": 5511,
      "Ġemergency": 5512,
      "Ġassume": 5513,
      "Ġlatin": 5514,
      "Ġexplanation": 5515,
      "gl": 5516,
      "ov": 5517,
      "ula": 5518,
      "Ġsir": 5519,
      "Ġcere": 5520,
      "Ġdign": 5521,
      "Ġdiction": 5522,
      "keys": 5523,
      "Ġchest": 5524,
      "umps": 5525,
      "Ġprime": 5526,
      "berg": 5527,
      "Ġpercentage": 5528,
      "Ġfinance": 5529,
      "Ġefforts": 5530,
      "Ġcorrespond": 5531,
      "gging": 5532,
      "Ġeastern": 5533,
      "Ġtreating": 5534,
      "Ġconstrain": 5535,
      "Ġmarketing": 5536,
      "Ġstruggling": 5537,
      "Ġlaptop": 5538,
      "Ġmaxim": 5539,
      "Ġscratch": 5540,
      "uild": 5541,
      "Ġrela": 5542,
      "Ġchic": 5543,
      "Ġcoach": 5544,
      "Ġgray": 5545,
      "Ġfigures": 5546,
      "Ġsecure": 5547,
      "Ġ2009": 5548,
      "Ġprovided": 5549,
      "Ġsunlight": 5550,
      "Ġdeaths": 5551,
      "Ġlimits": 5552,
      "Ġpractices": 5553,
      "Ġfluid": 5554,
      "Ġfederal": 5555,
      "Ġskelet": 5556,
      "Ġdozen": 5557,
      "Ġdarwin": 5558,
      "Ġinfinite": 5559,
      "Ġhunger": 5560,
      "Ġunexpected": 5561,
      "Ġcord": 5562,
      "Ġpapers": 5563,
      "Ġneural": 5564,
      "Ġdece": 5565,
      "igm": 5566,
      "Ġcoord": 5567,
      "Ġcontains": 5568,
      "Ġgrab": 5569,
      "Ġelectro": 5570,
      "Ġproductive": 5571,
      "Ġsteve": 5572,
      "Ġsurviv": 5573,
      "Ġbreathing": 5574,
      "Ġdestroyed": 5575,
      "Ġzoom": 5576,
      "bl": 5577,
      "kind": 5578,
      "ls": 5579,
      "lines": 5580,
      "vable": 5581,
      "Ġtan": 5582,
      "rets": 5583,
      "Ġcash": 5584,
      "ita": 5585,
      "stic": 5586,
      "raction": 5587,
      "Ġmeg": 5588,
      "Ġroot": 5589,
      "Ġgenius": 5590,
      "Ġattend": 5591,
      "Ġperforming": 5592,
      "Ġspreading": 5593,
      "Ġsuggests": 5594,
      "Ġportra": 5595,
      "Ġrecover": 5596,
      "Ġfrankly": 5597,
      "Ġapplications": 5598,
      "Ġkorea": 5599,
      "Ġantibiotics": 5600,
      "Ġunusual": 5601,
      "aud": 5602,
      "Ġig": 5603,
      "Ġmall": 5604,
      "alk": 5605,
      "lying": 5606,
      "Ġsept": 5607,
      "Ġknock": 5608,
      "Ġnowhere": 5609,
      "phones": 5610,
      "Ġinterf": 5611,
      "Ġdecline": 5612,
      "Ġmeter": 5613,
      "Ġdepth": 5614,
      "Ġcontinued": 5615,
      "Ġobsessed": 5616,
      "Ġmeasured": 5617,
      "Ġrocks": 5618,
      "Ġpengu": 5619,
      "Ġsubjects": 5620,
      "Ġadminist": 5621,
      "Ġsongs": 5622,
      "Ġcelebrate": 5623,
      "Ġtechnique": 5624,
      "Ġcustomers": 5625,
      "Ġensure": 5626,
      "Ġaccomplish": 5627,
      "Ġprivilege": 5628,
      "Ġframework": 5629,
      "Ġchicago": 5630,
      "500": 5631,
      "ham": 5632,
      "oons": 5633,
      "Ġtoy": 5634,
      "Ġpool": 5635,
      "Ġdot": 5636,
      "Ġagency": 5637,
      "Ġcolum": 5638,
      "Ġengaging": 5639,
      "Ġcomputing": 5640,
      "Ġdistrict": 5641,
      "Ġignore": 5642,
      "Ġvehicles": 5643,
      "Ġpunish": 5644,
      "Ġparalle": 5645,
      "Ġq": 5646,
      "Ġvert": 5647,
      "Ġcents": 5648,
      "Ġgro": 5649,
      "etch": 5650,
      "opher": 5651,
      "erences": 5652,
      "iled": 5653,
      "Ġfruit": 5654,
      "Ġray": 5655,
      "Ġsomewhat": 5656,
      "Ġplans": 5657,
      "Ġscream": 5658,
      "onscious": 5659,
      "Ġguard": 5660,
      "Ġdiam": 5661,
      "Ġbehave": 5662,
      "Ġexploration": 5663,
      "Ġarguments": 5664,
      "Ġconclud": 5665,
      "Ġultimate": 5666,
      "Ġsearching": 5667,
      "Ġoccurred": 5668,
      "Ġgentlemen": 5669,
      "Ġbarely": 5670,
      "life": 5671,
      "nic": 5672,
      "yl": 5673,
      "yal": 5674,
      "Ġaim": 5675,
      "Ġsne": 5676,
      "ounce": 5677,
      "Ġboss": 5678,
      "Ġped": 5679,
      "Ġfib": 5680,
      "orter": 5681,
      "Ġgrain": 5682,
      "lymp": 5683,
      "Ġstom": 5684,
      "Ġwash": 5685,
      "iment": 5686,
      "abil": 5687,
      "Ġimpl": 5688,
      "Ġcommitted": 5689,
      "Ġraw": 5690,
      "Ġafterno": 5691,
      "Ġowners": 5692,
      "Ġpresented": 5693,
      "Ġeconomies": 5694,
      "Ġstandards": 5695,
      "Ġmeetings": 5696,
      "Ġ[\"": 5697,
      "Ġbrave": 5698,
      "Ġtraveled": 5699,
      "Ġconclusion": 5700,
      "Ġfixed": 5701,
      "Ġstrategies": 5702,
      "Ġdebt": 5703,
      "Ġacademic": 5704,
      "Ġagreed": 5705,
      "Ġappropriate": 5706,
      "Ġinstruments": 5707,
      "60": 5708,
      "har": 5709,
      "tes": 5710,
      "Ġthom": 5711,
      "Ġolymp": 5712,
      "ald": 5713,
      "Ġgig": 5714,
      "Ġstable": 5715,
      "adic": 5716,
      "iveness": 5717,
      "Ġwanting": 5718,
      "Ġuncomfort": 5719,
      "Ġwriter": 5720,
      "Ġremem": 5721,
      "Ġproduces": 5722,
      "Ġstrangers": 5723,
      "Ġgrows": 5724,
      "Ġ600": 5725,
      "bola": 5726,
      "Ġoperation": 5727,
      "Ġapartment": 5728,
      "Ġmagnetic": 5729,
      "Ġsharks": 5730,
      "profit": 5731,
      "hol": 5732,
      "nes": 5733,
      "Ġ0": 5734,
      "Ġtent": 5735,
      "Ġcause": 5736,
      "Ġtoxic": 5737,
      "Ġdict": 5738,
      "otes": 5739,
      "etically": 5740,
      "ateful": 5741,
      "asters": 5742,
      "Ġplot": 5743,
      "Ġevening": 5744,
      "Ġtranspl": 5745,
      "Ġstring": 5746,
      "Ġmargin": 5747,
      "Ġproductivity": 5748,
      "Ġoperate": 5749,
      "Ġmales": 5750,
      "Ġfootball": 5751,
      "Ġproperly": 5752,
      "Ġfloating": 5753,
      "Ġbeliefs": 5754,
      "Ġrussia": 5755,
      "Ġwelcome": 5756,
      "Ġphrase": 5757,
      "11": 5758,
      "Ġwine": 5759,
      "Ġcath": 5760,
      "Ġcats": 5761,
      "Ġpm": 5762,
      "Ġebola": 5763,
      "Ġstands": 5764,
      "Ġanonym": 5765,
      "Ġorbit": 5766,
      "Ġvital": 5767,
      "Ġric": 5768,
      "Ġrig": 5769,
      "Ġtwe": 5770,
      "Ġraising": 5771,
      "Ġmonkeys": 5772,
      "Ġfuels": 5773,
      "Ġextent": 5774,
      "Ġbush": 5775,
      "Ġpassword": 5776,
      "Ġanticip": 5777,
      "Ġillusion": 5778,
      "Ġarchitects": 5779,
      "Ġsales": 5780,
      "Ġcrucial": 5781,
      "Ġrepeat": 5782,
      "Ġbicy": 5783,
      "oned": 5784,
      "alu": 5785,
      "eding": 5786,
      "oma": 5787,
      "Ġproof": 5788,
      "Ġtheme": 5789,
      "Ġprem": 5790,
      "Ġaccum": 5791,
      "Ġpopulations": 5792,
      "Ġprovides": 5793,
      "Ġconcepts": 5794,
      "Ġaccepted": 5795,
      "Ġcrying": 5796,
      "Ġfrequency": 5797,
      "Ġinsurance": 5798,
      "Ġnegoti": 5799,
      "cr": 5800,
      "Ġwound": 5801,
      "Ġsque": 5802,
      "Ġba": 5803,
      "Ġpace": 5804,
      "Ġpump": 5805,
      "Ġdoors": 5806,
      "Ġspr": 5807,
      "Ġplenty": 5808,
      "Ġdisorders": 5809,
      "Ġelectronic": 5810,
      "Ġsurely": 5811,
      "Ġidentical": 5812,
      "Ġwinning": 5813,
      "Ġaffects": 5814,
      "Ġhotel": 5815,
      "Ġmechanical": 5816,
      "Ġdetermined": 5817,
      "Ġjournalist": 5818,
      "Ġheroes": 5819,
      "Ġnutri": 5820,
      "Ġspiritual": 5821,
      "Ġhistorical": 5822,
      "Ġangeles": 5823,
      "Ġhungry": 5824,
      "Ġelder": 5825,
      "Ġlaser": 5826,
      "Ġobstac": 5827,
      "Ġuncomfortable": 5828,
      "uce": 5829,
      "zen": 5830,
      "Ġhook": 5831,
      "Ġmice": 5832,
      "Ġpra": 5833,
      "ashing": 5834,
      "Ġjun": 5835,
      "Ġexternal": 5836,
      "tering": 5837,
      "Ġproced": 5838,
      "igen": 5839,
      "Ġleap": 5840,
      "Ġfirm": 5841,
      "Ġpersonality": 5842,
      "Ġstranger": 5843,
      "Ġcheaper": 5844,
      "Ġaccessible": 5845,
      "Ġrecognition": 5846,
      "Ġefficiency": 5847,
      "Ġastronom": 5848,
      "Ġprecisely": 5849,
      "Ġsatisf": 5850,
      "Ġapparently": 5851,
      "Ġpacific": 5852,
      "night": 5853,
      "Ġsed": 5854,
      "Ġcous": 5855,
      "Ġdensity": 5856,
      "arity": 5857,
      "sters": 5858,
      "Ġchip": 5859,
      "Ġours": 5860,
      "Ġletting": 5861,
      "Ġinstinct": 5862,
      "Ġmetab": 5863,
      "Ġminor": 5864,
      "Ġze": 5865,
      "Ġconnecting": 5866,
      "Ġeducational": 5867,
      "Ġvirgin": 5868,
      "Ġmeasuring": 5869,
      "steroid": 5870,
      "Ġ250": 5871,
      "Ġachieved": 5872,
      "Ġtracking": 5873,
      "Ġencoun": 5874,
      "Ġdancing": 5875,
      "Ġrepeated": 5876,
      "Ġodds": 5877,
      "Ġfinger": 5878,
      "Ġ1970": 5879,
      "Ġpermanent": 5880,
      "80": 5881,
      "ss": 5882,
      "entic": 5883,
      "entions": 5884,
      "Ġstack": 5885,
      "Ġchocol": 5886,
      "anta": 5887,
      "Ġmac": 5888,
      "Ġcoin": 5889,
      "Ġinvite": 5890,
      "Ġblank": 5891,
      "Ġdatab": 5892,
      "Ġinteractions": 5893,
      "Ġfeeding": 5894,
      "Ġaston": 5895,
      "Ġcontribute": 5896,
      "Ġinitial": 5897,
      "Ġvaccines": 5898,
      "Ġfingers": 5899,
      "Ġisolated": 5900,
      "Ġneuroscience": 5901,
      "Ġathlet": 5902,
      "Ġorchest": 5903,
      "mates": 5904,
      "va": 5905,
      "van": 5906,
      "vis": 5907,
      "wr": 5908,
      "Ġcooking": 5909,
      "Ġlung": 5910,
      "Ġglad": 5911,
      "lete": 5912,
      "Ġstere": 5913,
      "Ġorb": 5914,
      "Ġenable": 5915,
      "Ġunits": 5916,
      "Ġclust": 5917,
      "Ġroots": 5918,
      "Ġimper": 5919,
      "Ġparticle": 5920,
      "Ġclassic": 5921,
      "Ġexisted": 5922,
      "Ġrecording": 5923,
      "Ġsilic": 5924,
      "Ġcitizen": 5925,
      "Ġappears": 5926,
      "Ġkingdom": 5927,
      "Ġvictim": 5928,
      "Ġmichael": 5929,
      "Ġugly": 5930,
      "Ġthomas": 5931,
      "Ġfan": 5932,
      "Ġfulf": 5933,
      "ari": 5934,
      "Ġsection": 5935,
      "Ġaside": 5936,
      "Ġshar": 5937,
      "Ġuncle": 5938,
      "Ġworker": 5939,
      "Ġchances": 5940,
      "icted": 5941,
      "Ġrac": 5942,
      "Ġbike": 5943,
      "Ġeconomists": 5944,
      "Ġpassing": 5945,
      "Ġgrateful": 5946,
      "Ġglam": 5947,
      "Ġveter": 5948,
      "Ġsustainability": 5949,
      "Ġtitan": 5950,
      "Ġdiagnosed": 5951,
      "Ġparadox": 5952,
      "Ġdozens": 5953,
      "Ġhormones": 5954,
      "Ġremoved": 5955,
      "children": 5956,
      "Ġlifestyle": 5957,
      "col": 5958,
      "cence": 5959,
      "over": 5960,
      "Ġcas": 5961,
      "Ġmim": 5962,
      "Ġstan": 5963,
      "Ġaband": 5964,
      "Ġsacri": 5965,
      "Ġdisability": 5966,
      "Ġarctic": 5967,
      "Ġfacial": 5968,
      "Ġtraged": 5969,
      "Ġwalks": 5970,
      "Ġpresence": 5971,
      "Ġcurren": 5972,
      "Ġtreatments": 5973,
      "Ġgreenhouse": 5974,
      "Ġimpacts": 5975,
      "Ġconsumers": 5976,
      "Ġtransparen": 5977,
      "Ġpushed": 5978,
      "Ġdignity": 5979,
      "Ġafternoon": 5980,
      "Ġtransparency": 5981,
      "gger": 5982,
      "nels": 5983,
      "Ġicon": 5984,
      "nda": 5985,
      "ener": 5986,
      "esity": 5987,
      "Ġder": 5988,
      "ora": 5989,
      "Ġreverse": 5990,
      "Ġorange": 5991,
      "Ġenemy": 5992,
      "Ġdisg": 5993,
      "Ġadjust": 5994,
      "aret": 5995,
      "Ġprec": 5996,
      "Ġsmoke": 5997,
      "Ġobesity": 5998,
      "Ġdarkness": 5999,
      "Ġofficial": 6000,
      "Ġentrepreneur": 6001,
      "Ġslavery": 6002,
      "Ġpowers": 6003,
      "Ġmammals": 6004,
      "Ġshadow": 6005,
      "Ġnurses": 6006,
      "Ġwikip": 6007,
      "Ġfulfill": 6008,
      "Ġsacrif": 6009,
      "bally": 6010,
      "Ġtu": 6011,
      "Ġtube": 6012,
      "arctic": 6013,
      "Ġrecept": 6014,
      "section": 6015,
      "Ġdelic": 6016,
      "Ġtape": 6017,
      "oded": 6018,
      "Ġclip": 6019,
      "Ġearn": 6020,
      "Ġcareful": 6021,
      "Ġfriendly": 6022,
      "Ġsettle": 6023,
      "Ġcollecting": 6024,
      "Ġsilent": 6025,
      "Ġchristmas": 6026,
      "Ġautomatically": 6027,
      "Ġroute": 6028,
      "Ġcorporate": 6029,
      "Ġcrops": 6030,
      "Ġaxis": 6031,
      "Ġdiplom": 6032,
      "Ġseptember": 6033,
      "Ġasteroid": 6034,
      "Ġgates": 6035,
      "using": 6036,
      "keep": 6037,
      "Ġuk": 6038,
      "uls": 6039,
      "ivered": 6040,
      "osen": 6041,
      "Ġpocket": 6042,
      "Ġsmarter": 6043,
      "Ġimaging": 6044,
      "Ġcreature": 6045,
      "Ġlake": 6046,
      "Ġcorn": 6047,
      "Ġdepressed": 6048,
      "Ġdistant": 6049,
      "Ġhearts": 6050,
      "Ġretire": 6051,
      "Ġobjective": 6052,
      "Ġexploring": 6053,
      "Ġprotecting": 6054,
      "Ġspeakers": 6055,
      "Ġfalls": 6056,
      "Ġsynthetic": 6057,
      "Ġcaptured": 6058,
      "Ġdistributed": 6059,
      "Ġclimb": 6060,
      "lusive": 6061,
      "Ġparallel": 6062,
      "yeah": 6063,
      "Ġther": 6064,
      "Ġod": 6065,
      "nday": 6066,
      "edy": 6067,
      "Ġgest": 6068,
      "ota": 6069,
      "Ġreh": 6070,
      "Ġpeak": 6071,
      "Ġtex": 6072,
      "Ġrivers": 6073,
      "Ġbackwards": 6074,
      "Ġunderground": 6075,
      "Ġhumor": 6076,
      "Ġshoulder": 6077,
      "Ġpointed": 6078,
      "Ġconfused": 6079,
      "Ġadding": 6080,
      "Ġsigned": 6081,
      "Ġpretend": 6082,
      "Ġviews": 6083,
      "Ġlegis": 6084,
      "Ġincludes": 6085,
      "Ġcircuit": 6086,
      "Ġtransformed": 6087,
      "going": 6088,
      "Ġthreats": 6089,
      "Ġdrove": 6090,
      "Ġhabitat": 6091,
      "Ġinspiring": 6092,
      "copes": 6093,
      "Ġ1960": 6094,
      "Ġdefend": 6095,
      "Ġvolunteers": 6096,
      "Ġpermission": 6097,
      "Ġlungs": 6098,
      "Ġwikipedia": 6099,
      "bage": 6100,
      "Ġaqu": 6101,
      "Ġhub": 6102,
      "Ġdense": 6103,
      "Ġlon": 6104,
      "Ġgor": 6105,
      "omp": 6106,
      "Ġabund": 6107,
      "Ġpeer": 6108,
      "Ġamy": 6109,
      "Ġtrag": 6110,
      "Ġending": 6111,
      "Ġhardly": 6112,
      "Ġcorals": 6113,
      "hips": 6114,
      "Ġconfir": 6115,
      "Ġfoods": 6116,
      "Ġgranted": 6117,
      "Ġmissed": 6118,
      "Ġexpectations": 6119,
      "Ġpurch": 6120,
      "Ġcollaps": 6121,
      "Ġdelivered": 6122,
      "Ġselection": 6123,
      "Ġestablish": 6124,
      "Ġseeds": 6125,
      "Ġreconst": 6126,
      "Ġimplications": 6127,
      "Ġtoilet": 6128,
      "Ġfertil": 6129,
      "Ġpyram": 6130,
      "Ġsilicon": 6131,
      "gun": 6132,
      "nam": 6133,
      "uk": 6134,
      "Ġts": 6135,
      "Ġbind": 6136,
      "Ġhen": 6137,
      "Ġgps": 6138,
      "stand": 6139,
      "iders": 6140,
      "Ġalco": 6141,
      "iform": 6142,
      "Ġrw": 6143,
      "Ġcock": 6144,
      "Ġloop": 6145,
      "Ġacid": 6146,
      "Ġphase": 6147,
      "Ġblame": 6148,
      "Ġhollywood": 6149,
      "Ġvisited": 6150,
      "Ġinterestingly": 6151,
      "Ġholds": 6152,
      "Ġrepresented": 6153,
      "Ġpresentation": 6154,
      "Ġvillages": 6155,
      "Ġ1990": 6156,
      "Ġengagement": 6157,
      "Ġspectac": 6158,
      "Ġtranslate": 6159,
      "Ġsavings": 6160,
      "Ġmuslims": 6161,
      "Ġintuitive": 6162,
      "Ġfabric": 6163,
      "Ġsplit": 6164,
      "abetes": 6165,
      "Ġchocolate": 6166,
      "oy": 6167,
      "ris": 6168,
      "rants": 6169,
      "uous": 6170,
      "under": 6171,
      "Ġbay": 6172,
      "Ġpound": 6173,
      "Ġdirty": 6174,
      "Ġwhist": 6175,
      "sey": 6176,
      "opia": 6177,
      "Ġmeal": 6178,
      "Ġintention": 6179,
      "Ġsuck": 6180,
      "Ġpersu": 6181,
      "Ġmonitor": 6182,
      "Ġdiabetes": 6183,
      "Ġ195": 6184,
      "Ġ2007": 6185,
      "Ġcontinues": 6186,
      "Ġ65": 6187,
      "Ġchrom": 6188,
      "Ġreports": 6189,
      "Ġchristian": 6190,
      "Ġrecommend": 6191,
      "Ġdisgust": 6192,
      "rates": 6193,
      "uel": 6194,
      "Ġhat": 6195,
      "Ġpiano": 6196,
      "Ġnit": 6197,
      "Ġnic": 6198,
      "vey": 6199,
      "there": 6200,
      "teries": 6201,
      "rous": 6202,
      "Ġrul": 6203,
      "udes": 6204,
      "Ġemph": 6205,
      "Ġflip": 6206,
      "Ġtries": 6207,
      "Ġopens": 6208,
      "Ġparas": 6209,
      "Ġidentified": 6210,
      "Ġdirections": 6211,
      "Ġcollapse": 6212,
      "Ġfootprint": 6213,
      "Ġdivided": 6214,
      "Ġsynthes": 6215,
      "Ġbanks": 6216,
      "Ġconcern": 6217,
      "Ġjournalists": 6218,
      "Ġliberal": 6219,
      "Ġbudd": 6220,
      "Ġtort": 6221,
      "Ġdynam": 6222,
      "Ġapplication": 6223,
      "Ġcomponent": 6224,
      "Ġregardless": 6225,
      "Ġtexas": 6226,
      "ket": 6227,
      "uff": 6228,
      "Ġtip": 6229,
      "Ġpand": 6230,
      "Ġpicking": 6231,
      "Ġfusion": 6232,
      "ida": 6233,
      "Ġhey": 6234,
      "Ġjune": 6235,
      "Ġdisag": 6236,
      "Ġdownload": 6237,
      "Ġasks": 6238,
      "Ġconsult": 6239,
      "Ġdistur": 6240,
      "ographer": 6241,
      "Ġfocusing": 6242,
      "Ġspeaker": 6243,
      "Ġuniversities": 6244,
      "Ġincluded": 6245,
      "Ġsleeping": 6246,
      "Ġconventional": 6247,
      "Ġmainly": 6248,
      "Ġconsequence": 6249,
      "Ġnutrition": 6250,
      "Ġskept": 6251,
      "Ġrebuild": 6252,
      "Ġadopt": 6253,
      "Ġgreek": 6254,
      "Ġadvertising": 6255,
      "bby": 6256,
      "ras": 6257,
      "ato": 6258,
      "Ġmood": 6259,
      "Ġneck": 6260,
      "Ġchronic": 6261,
      "Ġchief": 6262,
      "Ġsac": 6263,
      "Ġpercept": 6264,
      "agger": 6265,
      "Ġ26": 6266,
      "Ġmeanwhile": 6267,
      "Ġrelate": 6268,
      "Ġpolio": 6269,
      "Ġhanded": 6270,
      "Ġmatt": 6271,
      "Ġreference": 6272,
      "Ġstops": 6273,
      "Ġgeomet": 6274,
      "Ġhousehold": 6275,
      "Ġantarctic": 6276,
      "Ġlegacy": 6277,
      "Ġconcert": 6278,
      "Ġmechanisms": 6279,
      "Ġofficer": 6280,
      "Ġadditional": 6281,
      "Ġinjury": 6282,
      "Ġmicroscope": 6283,
      "Ġthrown": 6284,
      "Ġtrauma": 6285,
      "connected": 6286,
      "Ġstomach": 6287,
      "aurs": 6288,
      "der": 6289,
      "rary": 6290,
      "Ġtears": 6291,
      "Ġsar": 6292,
      "asm": 6293,
      "iday": 6294,
      "Ġash": 6295,
      "ille": 6296,
      "Ġspark": 6297,
      "Ġevalu": 6298,
      "Ġclients": 6299,
      "soft": 6300,
      "iac": 6301,
      "Ġpharm": 6302,
      "Ġtalent": 6303,
      "ints": 6304,
      "Ġrail": 6305,
      "angle": 6306,
      "Ġinvolves": 6307,
      "Ġoldest": 6308,
      "Ġmush": 6309,
      "Ġairport": 6310,
      "Ġcraft": 6311,
      "Ġinteracting": 6312,
      "Ġamongst": 6313,
      "Ġsuspect": 6314,
      "Ġfascinated": 6315,
      "Ġpaintings": 6316,
      "Ġignor": 6317,
      "Ġsurgeon": 6318,
      "Ġreefs": 6319,
      "Ġauthentic": 6320,
      "Ġchaos": 6321,
      "bin": 6322,
      "bra": 6323,
      "list": 6324,
      "Ġah": 6325,
      "Ġwise": 6326,
      "Ġborrow": 6327,
      "Ġhi": 6328,
      "Ġrent": 6329,
      "Ġjes": 6330,
      "arters": 6331,
      "Ġreput": 6332,
      "Ġflor": 6333,
      "Ġflower": 6334,
      "Ġ1950": 6335,
      "Ġmagical": 6336,
      "Ġinvesting": 6337,
      "Ġinteractive": 6338,
      "Ġflowers": 6339,
      "Ġimprovement": 6340,
      "Ġcryst": 6341,
      "Ġmysterious": 6342,
      "Ġrecovery": 6343,
      "Ġparadigm": 6344,
      "Ġflew": 6345,
      "Ġfrozen": 6346,
      "Ġrelax": 6347,
      "iens": 6348,
      "ivers": 6349,
      "pa": 6350,
      "Ġought": 6351,
      "Ġcute": 6352,
      "Ġpix": 6353,
      "othing": 6354,
      "Ġants": 6355,
      "aming": 6356,
      "Ġbutt": 6357,
      "Ġbutter": 6358,
      "Ġate": 6359,
      "Ġspider": 6360,
      "Ġoutput": 6361,
      "Ġunh": 6362,
      "agn": 6363,
      "Ġhappier": 6364,
      "elly": 6365,
      "cont": 6366,
      "Ġelsewhere": 6367,
      "Ġlimb": 6368,
      "Ġpulling": 6369,
      "Ġcouncil": 6370,
      "Ġgolden": 6371,
      "Ġhanging": 6372,
      "Ġlocked": 6373,
      "Ġwheelch": 6374,
      "Ġcommitment": 6375,
      "Ġentertainment": 6376,
      "Ġjanuary": 6377,
      "Ġscholars": 6378,
      "pal": 6379,
      "Ġpink": 6380,
      "Ġgulf": 6381,
      "Ġsoap": 6382,
      "imeter": 6383,
      "amin": 6384,
      "Ġmanif": 6385,
      "Ġperpet": 6386,
      "Ġdish": 6387,
      "Ġdeserve": 6388,
      "Ġdecl": 6389,
      "Ġtrigger": 6390,
      "Ġorganize": 6391,
      "Ġregener": 6392,
      "Ġfailing": 6393,
      "Ġeradic": 6394,
      "Ġfemales": 6395,
      "Ġreducing": 6396,
      "Ġmechanics": 6397,
      "Ġconflicts": 6398,
      "Ġfortune": 6399,
      "Ġrarely": 6400,
      "Ġreveal": 6401,
      "Ġmosquito": 6402,
      "Ġinstructions": 6403,
      "Ġchromos": 6404,
      "fall": 6405,
      "rus": 6406,
      "Ġinherent": 6407,
      "Ġgath": 6408,
      "Ġhaiti": 6409,
      "eters": 6410,
      "Ġlikes": 6411,
      "Ġchosen": 6412,
      "Ġupset": 6413,
      "Ġrobert": 6414,
      "Ġcommission": 6415,
      "Ġhelpful": 6416,
      "Ġlovely": 6417,
      "Ġglobally": 6418,
      "Ġfung": 6419,
      "Ġembedd": 6420,
      "Ġrobotic": 6421,
      "Ġchoosing": 6422,
      "Ġdiagnosis": 6423,
      "Ġaugust": 6424,
      "Ġattached": 6425,
      "Ġdialogue": 6426,
      "Ġdinosaurs": 6427,
      "Ġscenario": 6428,
      "rimination": 6429,
      "Ġencounter": 6430,
      "des": 6431,
      "ev": 6432,
      "vation": 6433,
      "wl": 6434,
      "Ġtheories": 6435,
      "isons": 6436,
      "itz": 6437,
      "Ġjim": 6438,
      "ads": 6439,
      "Ġouter": 6440,
      "emp": 6441,
      "Ġyours": 6442,
      "Ġnobel": 6443,
      "Ġpoison": 6444,
      "Ġparties": 6445,
      "Ġloving": 6446,
      "Ġprices": 6447,
      "Ġunderlying": 6448,
      "Ġboom": 6449,
      "Ġserved": 6450,
      "Ġmatri": 6451,
      "Ġmarry": 6452,
      "Ġpainted": 6453,
      "Ġeducated": 6454,
      "Ġrobust": 6455,
      "Ġagenda": 6456,
      "Ġdrawn": 6457,
      "Ġburied": 6458,
      "Ġoriginally": 6459,
      "Ġvirtually": 6460,
      "Ġbaseball": 6461,
      "Ġestablished": 6462,
      "Ġappeared": 6463,
      "Ġinevitable": 6464,
      "Ġrescue": 6465,
      "Ġspoken": 6466,
      "oll": 6467,
      "Ġwand": 6468,
      "rect": 6469,
      "anthrop": 6470,
      "Ġnick": 6471,
      "Ġnerve": 6472,
      "Ġyield": 6473,
      "Ġgang": 6474,
      "Ġliver": 6475,
      "Ġanthrop": 6476,
      "Ġprosec": 6477,
      "Ġtwenty": 6478,
      "Ġreson": 6479,
      "Ġbond": 6480,
      "Ġlaid": 6481,
      "Ġentered": 6482,
      "Ġfarmer": 6483,
      "Ġskull": 6484,
      "Ġgovernance": 6485,
      "Ġanimation": 6486,
      "Ġphysi": 6487,
      "Ġcharity": 6488,
      "Ġglobalization": 6489,
      "Ġrestrict": 6490,
      "Ġcontrols": 6491,
      "Ġkiller": 6492,
      "Ġessence": 6493,
      "Ġarmed": 6494,
      "Ġconsume": 6495,
      "Ġpredictions": 6496,
      "Ġ2015": 6497,
      "Ġaffordable": 6498,
      "Ġislands": 6499,
      "Ġbombs": 6500,
      "Ġremaining": 6501,
      "Ġlaughing": 6502,
      "Ġsatellites": 6503,
      "Ġboundaries": 6504,
      "Ġmartin": 6505,
      "Ġsweden": 6506,
      "Ġridiculous": 6507,
      "Ġalcohol": 6508,
      "bul": 6509,
      "Ġwhale": 6510,
      "Ġwhales": 6511,
      "uration": 6512,
      "Ġusual": 6513,
      "Ġsup": 6514,
      "astroph": 6515,
      "Ġunable": 6516,
      "Ġbull": 6517,
      "ologically": 6518,
      "Ġinstant": 6519,
      "Ġmonit": 6520,
      "Ġelections": 6521,
      "Ġfiguring": 6522,
      "Ġindustries": 6523,
      "Ġmedication": 6524,
      "Ġresponses": 6525,
      "Ġfunctional": 6526,
      "belie": 6527,
      "break": 6528,
      "Ġqueen": 6529,
      "Ġelephant": 6530,
      "Ġpoorest": 6531,
      "Ġcurrency": 6532,
      "bial": 6533,
      "bered": 6534,
      "bling": 6535,
      "flies": 6536,
      "vin": 6537,
      "Ġbatt": 6538,
      "Ġfurn": 6539,
      "illance": 6540,
      "Ġgolf": 6541,
      "Ġdear": 6542,
      "ifer": 6543,
      "Ġwilli": 6544,
      "Ġexpans": 6545,
      "Ġmayor": 6546,
      "Ġschem": 6547,
      "archy": 6548,
      "Ġextinct": 6549,
      "Ġinformed": 6550,
      "Ġearthqu": 6551,
      "Ġlanded": 6552,
      "Ġgrandchildren": 6553,
      "Ġpromote": 6554,
      "Ġpredicted": 6555,
      "Ġburst": 6556,
      "Ġreduced": 6557,
      "Ġreligions": 6558,
      "Ġphotography": 6559,
      "Ġultra": 6560,
      "Ġaccounts": 6561,
      "Ġcapitalism": 6562,
      "Ġassumptions": 6563,
      "Ġreturned": 6564,
      "Ġneighborhoods": 6565,
      "Ġjeff": 6566,
      "Ġperceive": 6567,
      "Ġspanish": 6568,
      "Ġnutrients": 6569,
      "Ġtragedy": 6570,
      "ding": 6571,
      "hand": 6572,
      "iel": 6573,
      "iance": 6574,
      "Ġtub": 6575,
      "Ġtrop": 6576,
      "Ġwing": 6577,
      "Ġboo": 6578,
      "Ġfile": 6579,
      "Ġstores": 6580,
      "ura": 6581,
      "Ġabilities": 6582,
      "Ġshout": 6583,
      "Ġexcell": 6584,
      "ughters": 6585,
      "Ġexpon": 6586,
      "Ġquit": 6587,
      "Ġcontrad": 6588,
      "Ġincor": 6589,
      "Ġolds": 6590,
      "Ġattrib": 6591,
      "Ġcontrolling": 6592,
      "Ġsupported": 6593,
      "Ġneuron": 6594,
      "Ġinspire": 6595,
      "Ġprisoners": 6596,
      "Ġlatest": 6597,
      "Ġspinal": 6598,
      "Ġguns": 6599,
      "Ġarabic": 6600,
      "Ġenterpr": 6601,
      "Ġpowered": 6602,
      "Ġaugment": 6603,
      "Ġlux": 6604,
      "Ġprototype": 6605,
      "Ġstroke": 6606,
      "Ġdedicated": 6607,
      "Ġhypothesis": 6608,
      "Ġemphas": 6609,
      "down": 6610,
      "eared": 6611,
      "ups": 6612,
      "Ġwip": 6613,
      "Ġdow": 6614,
      "iture": 6615,
      "roll": 6616,
      "illy": 6617,
      "Ġshake": 6618,
      "Ġspots": 6619,
      "osing": 6620,
      "Ġsheep": 6621,
      "Ġscales": 6622,
      "Ġbron": 6623,
      "Ġafterwards": 6624,
      "Ġbored": 6625,
      "Ġinvestors": 6626,
      "Ġsensory": 6627,
      "Ġnearby": 6628,
      "Ġbehavioral": 6629,
      "Ġcatastroph": 6630,
      "Ġprinted": 6631,
      "Ġfraction": 6632,
      "Ġreminded": 6633,
      "Ġarrive": 6634,
      "Ġprepare": 6635,
      "Ġsurveillance": 6636,
      "Ġcooperation": 6637,
      "Ġmiracle": 6638,
      "Ġchapter": 6639,
      "Ġrhythm": 6640,
      "Ġembedded": 6641,
      "case": 6642,
      "hop": 6643,
      "mm": 6644,
      "rome": 6645,
      "vest": 6646,
      "wa": 6647,
      "war": 6648,
      "Ġthus": 6649,
      "Ġwings": 6650,
      "Ġbars": 6651,
      "Ġpour": 6652,
      "alian": 6653,
      "Ġstations": 6654,
      "Ġconven": 6655,
      "Ġvoting": 6656,
      "Ġups": 6657,
      "Ġseeking": 6658,
      "Ġactors": 6659,
      "Ġenh": 6660,
      "Ġmanager": 6661,
      "Ġtrail": 6662,
      "Ġsimult": 6663,
      "Ġcarol": 6664,
      "who": 6665,
      "when": 6666,
      "Ġattitude": 6667,
      "Ġprescri": 6668,
      "Ġdrivers": 6669,
      "Ġresearcher": 6670,
      "Ġparaly": 6671,
      "Ġsuccessfully": 6672,
      "Ġsentences": 6673,
      "Ġpsychiat": 6674,
      "Ġestimate": 6675,
      "Ġsuffered": 6676,
      "Ġtransparent": 6677,
      "Ġcharacteristics": 6678,
      "Ġimmediate": 6679,
      "Ġdisappoint": 6680,
      "Ġmanufacture": 6681,
      "Ġgradually": 6682,
      "Ġsmoking": 6683,
      "Ġhorizon": 6684,
      "Ġmakers": 6685,
      "Ġannounced": 6686,
      "Ġtransplant": 6687,
      "tain": 6688,
      "wed": 6689,
      "Ġwid": 6690,
      "Ġhipp": 6691,
      "Ġdys": 6692,
      "Ġlit": 6693,
      "Ġnin": 6694,
      "icious": 6695,
      "Ġitaly": 6696,
      "Ġknee": 6697,
      "Ġmanh": 6698,
      "oding": 6699,
      "Ġneedle": 6700,
      "Ġhighlight": 6701,
      "Ġpatent": 6702,
      "Ġsubur": 6703,
      "Ġopposed": 6704,
      "Ġthirds": 6705,
      "Ġcollectively": 6706,
      "Ġoccurs": 6707,
      "Ġfemin": 6708,
      "Ġobserve": 6709,
      "Ġ2011": 6710,
      "Ġreactions": 6711,
      "Ġsalt": 6712,
      "Ġpanel": 6713,
      "Ġrepresentation": 6714,
      "Ġjudgment": 6715,
      "Ġexhaust": 6716,
      "Ġconservative": 6717,
      "Ġteenagers": 6718,
      "Ġtower": 6719,
      "Ġingredients": 6720,
      "Ġmanifest": 6721,
      "90": 6722,
      "ek": 6723,
      "hr": 6724,
      "ws": 6725,
      "Ġsisters": 6726,
      "Ġlone": 6727,
      "Ġnu": 6728,
      "Ġgaz": 6729,
      "lets": 6730,
      "ione": 6731,
      "through": 6732,
      "Ġjul": 6733,
      "Ġmail": 6734,
      "Ġsport": 6735,
      "Ġrang": 6736,
      "Ġunbelie": 6737,
      "Ġroles": 6738,
      "Ġloves": 6739,
      "Ġbrut": 6740,
      "Ġwriters": 6741,
      "Ġfinds": 6742,
      "Ġ32": 6743,
      "Ġsecondly": 6744,
      "Ġforming": 6745,
      "Ġregret": 6746,
      "Ġmeasures": 6747,
      "Ġlistened": 6748,
      "Ġgods": 6749,
      "Ġproposed": 6750,
      "Ġshooting": 6751,
      "Ġsuggested": 6752,
      "Ġlayers": 6753,
      "Ġalgae": 6754,
      "Ġdiscrimination": 6755,
      "Ġterrorist": 6756,
      "Ġelectrons": 6757,
      "Ġpalest": 6758,
      "Ġattractive": 6759,
      "Ġwireless": 6760,
      "Ġlawyer": 6761,
      "Ġadventure": 6762,
      "Ġnurse": 6763,
      "Ġforgotten": 6764,
      "Ġresilience": 6765,
      "Ġbesides": 6766,
      "Ġhemis": 6767,
      "hal": 6768,
      "parent": 6769,
      "Ġwaters": 6770,
      "Ġhire": 6771,
      "Ġpi": 6772,
      "Ġfought": 6773,
      "Ġeve": 6774,
      "Ġconce": 6775,
      "ckets": 6776,
      "Ġintim": 6777,
      "Ġrice": 6778,
      "Ġquad": 6779,
      "Ġadam": 6780,
      "Ġreplaced": 6781,
      "Ġserving": 6782,
      "Ġlighting": 6783,
      "Ġhardware": 6784,
      "Ġdrill": 6785,
      "Ġprofit": 6786,
      "Ġinvested": 6787,
      "Ġempow": 6788,
      "Ġfilter": 6789,
      "Ġprogramming": 6790,
      "Ġmicrosoft": 6791,
      "Ġsimilarly": 6792,
      "Ġcircles": 6793,
      "Ġconcerns": 6794,
      "Ġdocuments": 6795,
      "Ġphysician": 6796,
      "Ġrussian": 6797,
      "Ġbarrier": 6798,
      "Ġbranch": 6799,
      "Ġautonom": 6800,
      "Ġglaci": 6801,
      "Ġigno": 6802,
      "ja": 6803,
      "Ġcig": 6804,
      "Ġpause": 6805,
      "Ġpile": 6806,
      "Ġdu": 6807,
      "Ġinher": 6808,
      "Ġbeer": 6809,
      "Ġanes": 6810,
      "Ġintri": 6811,
      "Ġrating": 6812,
      "Ġactor": 6813,
      "Ġtrash": 6814,
      "Ġposter": 6815,
      "Ġfunded": 6816,
      "Ġdaughters": 6817,
      "attan": 6818,
      "Ġoperations": 6819,
      "Ġceo": 6820,
      "Ġflows": 6821,
      "Ġpanels": 6822,
      "Ġdelivery": 6823,
      "Ġtissues": 6824,
      "Ġmotivated": 6825,
      "Ġexpertise": 6826,
      "Ġghana": 6827,
      "Ġperceived": 6828,
      "Ġpilot": 6829,
      "Ġlecture": 6830,
      "Ġspectacular": 6831,
      "born": 6832,
      "wich": 6833,
      "Ġwra": 6834,
      "Ġwired": 6835,
      "reh": 6836,
      "Ġlou": 6837,
      "itudes": 6838,
      "Ġangle": 6839,
      "Ġdelight": 6840,
      "Ġsperm": 6841,
      "allow": 6842,
      "Ġlean": 6843,
      "Ġdism": 6844,
      "Ġarist": 6845,
      "Ġbubb": 6846,
      "Ġpersist": 6847,
      "Ġinvolve": 6848,
      "Ġgrace": 6849,
      "Ġpublish": 6850,
      "Ġanswered": 6851,
      "Ġdistract": 6852,
      "Ġ2005": 6853,
      "Ġempire": 6854,
      "Ġalongside": 6855,
      "Ġsurvived": 6856,
      "Ġsilver": 6857,
      "Ġ2012": 6858,
      "Ġdependent": 6859,
      "Ġtouched": 6860,
      "Ġexception": 6861,
      "Ġphilanthrop": 6862,
      "Ġdeliber": 6863,
      "Ġethnic": 6864,
      "Ġmindset": 6865,
      "Ġdisappeared": 6866,
      "Ġthrowing": 6867,
      "Ġhalluc": 6868,
      "Ġphysicist": 6869,
      "Ġdemonstrate": 6870,
      "Ġmixed": 6871,
      "Ġshopping": 6872,
      "Ġsmooth": 6873,
      "Ġatlantic": 6874,
      "Ġmerely": 6875,
      "Ġdominant": 6876,
      "Ġexposure": 6877,
      "Ġwheelchair": 6878,
      "ila": 6879,
      "Ġtill": 6880,
      "Ġtied": 6881,
      "Ġsits": 6882,
      "erge": 6883,
      "Ġfool": 6884,
      "Ġlag": 6885,
      "Ġnaked": 6886,
      "Ġbeet": 6887,
      "Ġsel": 6888,
      "Ġalign": 6889,
      "agen": 6890,
      "Ġarth": 6891,
      "Ġsynd": 6892,
      "Ġrealizing": 6893,
      "Ġoffs": 6894,
      "Ġhumanitarian": 6895,
      "Ġlaughter": 6896,
      "Ġcommunications": 6897,
      "Ġbreakthrough": 6898,
      "Ġfastest": 6899,
      "Ġreduction": 6900,
      "Ġsafely": 6901,
      "Ġthreatened": 6902,
      "Ġluckily": 6903,
      "Ġhonestly": 6904,
      "Ġintegrated": 6905,
      "Ġsurprisingly": 6906,
      "Ġconducted": 6907,
      "Ġstimul": 6908,
      "Ġshrimp": 6909,
      "Ġprofessionals": 6910,
      "Ġflexible": 6911,
      "Ġuncertainty": 6912,
      "Ġreputation": 6913,
      "Ġmanhattan": 6914,
      "\"]": 6915,
      "ds": 6916,
      "fast": 6917,
      "kward": 6918,
      "mers": 6919,
      "oe": 6920,
      "esis": 6921,
      "Ġlord": 6922,
      "Ġheal": 6923,
      "Ġmold": 6924,
      "Ġconvert": 6925,
      "Ġalph": 6926,
      "Ġvit": 6927,
      "osal": 6928,
      "Ġrome": 6929,
      "Ġupd": 6930,
      "Ġcomprom": 6931,
      "Ġcommod": 6932,
      "Ġscott": 6933,
      "Ġowned": 6934,
      "Ġdesigns": 6935,
      "Ġprobability": 6936,
      "Ġcontrovers": 6937,
      "Ġdistingu": 6938,
      "Ġparli": 6939,
      "inson": 6940,
      "Ġviet": 6941,
      "Ġversions": 6942,
      "Ġvacu": 6943,
      "Ġutter": 6944,
      "Ġbags": 6945,
      "Ġconstructed": 6946,
      "Ġadopted": 6947,
      "Ġterrifying": 6948,
      "Ġarrange": 6949,
      "Ġdictionary": 6950,
      "Ġvertical": 6951,
      "Ġhenry": 6952,
      "employ": 6953,
      "ira": 6954,
      "Ġthrew": 6955,
      "Ġtheore": 6956,
      "erved": 6957,
      "Ġhier": 6958,
      "Ġpione": 6959,
      "Ġwhis": 6960,
      "uts": 6961,
      "urable": 6962,
      "laim": 6963,
      "ulum": 6964,
      "Ġorph": 6965,
      "Ġspray": 6966,
      "Ġouts": 6967,
      "Ġcaps": 6968,
      "icks": 6969,
      "Ġtribes": 6970,
      "Ġcompleted": 6971,
      "Ġsett": 6972,
      "ocr": 6973,
      "ashed": 6974,
      "Ġassess": 6975,
      "Ġ911": 6976,
      "Ġlegit": 6977,
      "Ġstaying": 6978,
      "Ġimproving": 6979,
      "Ġencount": 6980,
      "Ġcombat": 6981,
      "Ġtextbook": 6982,
      "Ġawkward": 6983,
      "Ġtelephone": 6984,
      "Ġseparated": 6985,
      "Ġdiscoveries": 6986,
      "Ġepis": 6987,
      "Ġresistant": 6988,
      "Ġmotivation": 6989,
      "Ġunconscious": 6990,
      "Ġinhab": 6991,
      "Ġoverwhelming": 6992,
      "Ġlicense": 6993,
      "Ġconclude": 6994,
      "70": 6995,
      "lings": 6996,
      "ta": 6997,
      "Ġtang": 6998,
      "Ġak": 6999,
      "Ġbible": 7000,
      "Ġlions": 7001,
      "Ġnets": 7002,
      "eds": 7003,
      "icop": 7004,
      "lyn": 7005,
      "Ġcham": 7006,
      "umes": 7007,
      "Ġsav": 7008,
      "Ġcompos": 7009,
      "Ġunemploy": 7010,
      "Ġdisabled": 7011,
      "ensus": 7012,
      "Ġadoles": 7013,
      "Ġfault": 7014,
      "Ġindigen": 7015,
      "Ġincar": 7016,
      "Ġcounting": 7017,
      "Ġsciences": 7018,
      "Ġinsist": 7019,
      "Ġreliable": 7020,
      "Ġhealthier": 7021,
      "Ġelected": 7022,
      "otech": 7023,
      "Ġcapita": 7024,
      "Ġcheese": 7025,
      "Ġrestore": 7026,
      "Ġimproved": 7027,
      "Ġstrongly": 7028,
      "Ġceiling": 7029,
      "Ġsuggesting": 7030,
      "Ġintervention": 7031,
      "Ġcrossing": 7032,
      "Ġpeter": 7033,
      "Ġagricultural": 7034,
      "Ġgarbage": 7035,
      "Ġvolunteer": 7036,
      "Ġfrustrated": 7037,
      "Ġbathroom": 7038,
      "Ġpenguins": 7039,
      "Ġstanford": 7040,
      "Ġpyramid": 7041,
      "Ġflorida": 7042,
      "equ": 7043,
      "gent": 7044,
      "Ġtear": 7045,
      "Ġaunt": 7046,
      "Ġdump": 7047,
      "oral": 7048,
      "itate": 7049,
      "Ġwet": 7050,
      "Ġstake": 7051,
      "odi": 7052,
      "apor": 7053,
      "Ġrose": 7054,
      "Ġbuff": 7055,
      "Ġresidents": 7056,
      "Ġsyria": 7057,
      "Ġprecious": 7058,
      "Ġobl": 7059,
      "Ġflour": 7060,
      "Ġentering": 7061,
      "Ġslides": 7062,
      "Ġwarning": 7063,
      "Ġformal": 7064,
      "Ġinfant": 7065,
      "Ġfunds": 7066,
      "Ġpositions": 7067,
      "Ġexperimental": 7068,
      "Ġdifficulty": 7069,
      "Ġapprox": 7070,
      "Ġgrandparent": 7071,
      "Ġinnocent": 7072,
      "Ġtempt": 7073,
      "Ġfeminist": 7074,
      "Ġballoon": 7075,
      "Ġpollen": 7076,
      "Ġrainforest": 7077,
      "Ġethical": 7078,
      "Ġvariation": 7079,
      "Ġsurrounding": 7080,
      "Ġinjust": 7081,
      "Ġfrequently": 7082,
      "Ġanalyze": 7083,
      "Ġsenior": 7084,
      "capes": 7085,
      "Ġconstitution": 7086,
      "Ġanonymous": 7087,
      "Ġricher": 7088,
      "Ġsharp": 7089,
      "Ġmatrix": 7090,
      "makers": 7091,
      "Ġip": 7092,
      "Ġom": 7093,
      "Ġhig": 7094,
      "Ġmate": 7095,
      "Ġdrew": 7096,
      "Ġlion": 7097,
      "Ġgate": 7098,
      "Ġbeating": 7099,
      "amine": 7100,
      "Ġsew": 7101,
      "Ġjam": 7102,
      "Ġjelly": 7103,
      "Ġenforce": 7104,
      "ague": 7105,
      "Ġsheet": 7106,
      "Ġarray": 7107,
      "Ġchannels": 7108,
      "Ġemerge": 7109,
      "Ġoffering": 7110,
      "Ġhelicop": 7111,
      "Ġbasket": 7112,
      "Ġnumer": 7113,
      "Ġdiver": 7114,
      "azz": 7115,
      "neys": 7116,
      "Ġbadly": 7117,
      "Ġ95": 7118,
      "Ġscreens": 7119,
      "Ġsignificantly": 7120,
      "Ġsandwich": 7121,
      "Ġtunnel": 7122,
      "Ġsculpture": 7123,
      "Ġscores": 7124,
      "Ġacknowledge": 7125,
      "Ġneutral": 7126,
      "Ġcalculate": 7127,
      "Ġbicycle": 7128,
      "Ġdatabase": 7129,
      "Ġastonishing": 7130,
      "Ġhemisphere": 7131,
      "ela": 7132,
      "rid": 7133,
      "top": 7134,
      "omb": 7135,
      "ilty": 7136,
      "Ġproc": 7137,
      "Ġagencies": 7138,
      "Ġcoca": 7139,
      "Ġinstantly": 7140,
      "Ġcaring": 7141,
      "Ġ36": 7142,
      "Ġbelieves": 7143,
      "Ġcouples": 7144,
      "Ġsubtle": 7145,
      "Ġsecrets": 7146,
      "Ġbene": 7147,
      "Ġprimarily": 7148,
      "Ġshocked": 7149,
      "Ġexpanding": 7150,
      "Ġsymbols": 7151,
      "Ġburned": 7152,
      "Ġcorporations": 7153,
      "Ġshifting": 7154,
      "Ġcontemporary": 7155,
      "Ġnavigate": 7156,
      "Ġitems": 7157,
      "Ġprosperity": 7158,
      "Ġparliament": 7159,
      "Ġindigenous": 7160,
      "hum": 7161,
      "ober": 7162,
      "west": 7163,
      "Ġaes": 7164,
      "Ġdating": 7165,
      "ala": 7166,
      "Ġgases": 7167,
      "asy": 7168,
      "icial": 7169,
      "Ġbegun": 7170,
      "Ġstor": 7171,
      "Ġcongo": 7172,
      "inder": 7173,
      "arest": 7174,
      "Ġgenetically": 7175,
      "Ġcounty": 7176,
      "iences": 7177,
      "Ġmusicians": 7178,
      "Ġmicrobial": 7179,
      "Ġprediction": 7180,
      "Ġprevention": 7181,
      "Ġpencil": 7182,
      "Ġperiods": 7183,
      "Ġtargets": 7184,
      "okay": 7185,
      "Ġterrorists": 7186,
      "Ġinitially": 7187,
      "Ġtricks": 7188,
      "Ġvulnerability": 7189,
      "Ġintuition": 7190,
      "Ġpursue": 7191,
      "Ġshelter": 7192,
      "Ġbarriers": 7193,
      "Ġoctober": 7194,
      "Ġincentives": 7195,
      "viol": 7196,
      "Ġdecrease": 7197,
      "Ġtackle": 7198,
      "Ġanatomy": 7199,
      "Ġelderly": 7200,
      "Ġstereoty": 7201,
      "Ġdownt": 7202,
      ".'": 7203,
      "field": 7204,
      "tical": 7205,
      "Ġsons": 7206,
      "atts": 7207,
      "enger": 7208,
      "Ġpit": 7209,
      "Ġfathers": 7210,
      "Ġdy": 7211,
      "imag": 7212,
      "orted": 7213,
      "Ġsmith": 7214,
      "Ġcolored": 7215,
      "Ġguid": 7216,
      "Ġeditor": 7217,
      "Ġpreserve": 7218,
      "Ġheaded": 7219,
      "Ġcapability": 7220,
      "they": 7221,
      "Ġdigest": 7222,
      "Ġheaven": 7223,
      "Ġjumped": 7224,
      "Ġoptimistic": 7225,
      "Ġroutine": 7226,
      "copic": 7227,
      "Ġjewish": 7228,
      "Ġgathering": 7229,
      "Ġfragile": 7230,
      "Ġoccasionally": 7231,
      "Ġtragic": 7232,
      "Ġsyndrome": 7233,
      "Ġvacuum": 7234,
      "Ġbeneath": 7235,
      "bow": 7236,
      "fun": 7237,
      "yard": 7238,
      "Ġtes": 7239,
      "Ġtank": 7240,
      "Ġwow": 7241,
      "ata": 7242,
      "Ġink": 7243,
      "Ġstages": 7244,
      "riger": 7245,
      "Ġmelt": 7246,
      "ading": 7247,
      "Ġspain": 7248,
      "osh": 7249,
      "Ġsafer": 7250,
      "asty": 7251,
      "agon": 7252,
      "otherap": 7253,
      "Ġtraject": 7254,
      "Ġowner": 7255,
      "Ġ2050": 7256,
      "Ġelite": 7257,
      "Ġdepri": 7258,
      "Ġseemingly": 7259,
      "ribly": 7260,
      "Ġglow": 7261,
      "Ġapproaches": 7262,
      "Ġvolcan": 7263,
      "Ġreceiving": 7264,
      "Ġbedroom": 7265,
      "Ġastronaut": 7266,
      "Ġislamic": 7267,
      "Ġecosystems": 7268,
      "Ġtrucks": 7269,
      "Ġcategory": 7270,
      "Ġlawyers": 7271,
      "Ġelectronics": 7272,
      "Ġarrested": 7273,
      "Ġdolphins": 7274,
      "Ġguarantee": 7275,
      "Ġchimpanzees": 7276,
      "Ġsurvivors": 7277,
      "Ġexpansion": 7278,
      "Ġearthquake": 7279,
      "Ġsimultaneously": 7280,
      "Ġhiggs": 7281,
      "crib": 7282,
      "iver": 7283,
      "power": 7284,
      "Ġthresh": 7285,
      "Ġbol": 7286,
      "Ġfancy": 7287,
      "Ġfiber": 7288,
      "Ġdive": 7289,
      "itage": 7290,
      "opard": 7291,
      "Ġchat": 7292,
      "Ġ28": 7293,
      "Ġpartly": 7294,
      "Ġhighway": 7295,
      "Ġfounded": 7296,
      "Ġartistic": 7297,
      "Ġtribe": 7298,
      "Ġmode": 7299,
      "Ġrefriger": 7300,
      "Ġtraditions": 7301,
      "Ġpurple": 7302,
      "Ġbreaks": 7303,
      "Ġstatist": 7304,
      "Ġcompete": 7305,
      "Ġcompetitive": 7306,
      "Ġballs": 7307,
      "Ġlogical": 7308,
      "Ġdetection": 7309,
      "Ġcollaborative": 7310,
      "Ġtemperatures": 7311,
      "Ġphilosopher": 7312,
      "Ġcruel": 7313,
      "Ġlinks": 7314,
      "Ġuganda": 7315,
      "Ġbriefly": 7316,
      "Ġassembly": 7317,
      "Ġsurfaces": 7318,
      "Ġrevenue": 7319,
      "Ġcolumn": 7320,
      "Ġsacred": 7321,
      "Ġgrandparents": 7322,
      "Ġthreshold": 7323,
      ".]": 7324,
      "away": 7325,
      "lim": 7326,
      "pass": 7327,
      "Ġaward": 7328,
      "Ġthy": 7329,
      "Ġsession": 7330,
      "Ġbot": 7331,
      "Ġhitting": 7332,
      "Ġtooth": 7333,
      "Ġtone": 7334,
      "Ġfired": 7335,
      "eday": 7336,
      "icient": 7337,
      "ctu": 7338,
      "Ġshore": 7339,
      "Ġsomeday": 7340,
      "izer": 7341,
      "Ġuniform": 7342,
      "Ġgenoc": 7343,
      "Ġbold": 7344,
      "Ġextended": 7345,
      "Ġhardest": 7346,
      "Ġcamps": 7347,
      "Ġafricans": 7348,
      "Ġ2004": 7349,
      "Ġsupporting": 7350,
      "Ġsupermark": 7351,
      "Ġ85": 7352,
      "Ġwinds": 7353,
      "Ġbottles": 7354,
      "Ġexplaining": 7355,
      "Ġtrends": 7356,
      "Ġ120": 7357,
      "Ġburden": 7358,
      "Ġsatur": 7359,
      "Ġdegrad": 7360,
      "Ġactivists": 7361,
      "Ġdamaged": 7362,
      "Ġparticipation": 7363,
      "Ġassumption": 7364,
      "Ġglasses": 7365,
      "Ġharmful": 7366,
      "Ġbroadcast": 7367,
      "Ġlinear": 7368,
      "Ġweapon": 7369,
      "Ġsubstance": 7370,
      "Ġinsights": 7371,
      "Ġconsistent": 7372,
      "Ġexplosion": 7373,
      "Ġsquee": 7374,
      "Ġignorance": 7375,
      "Ġstorage": 7376,
      "fo": 7377,
      "rics": 7378,
      "sp": 7379,
      "viet": 7380,
      "zes": 7381,
      "zan": 7382,
      "Ġtatt": 7383,
      "Ġsilly": 7384,
      "erable": 7385,
      "ene": 7386,
      "Ġdere": 7387,
      "Ġdrought": 7388,
      "Ġinch": 7389,
      "leep": 7390,
      "Ġstability": 7391,
      "Ġanno": 7392,
      "think": 7393,
      "Ġchips": 7394,
      "Ġexcess": 7395,
      "Ġampl": 7396,
      "Ġspont": 7397,
      "Ġintensive": 7398,
      "iece": 7399,
      "izar": 7400,
      "Ġgenu": 7401,
      "Ġcolumb": 7402,
      "Ġarticles": 7403,
      "Ġaccidents": 7404,
      "ails": 7405,
      "Ġ2006": 7406,
      "Ġimmense": 7407,
      "Ġpredators": 7408,
      "Ġbreakfast": 7409,
      "Ġpsychologists": 7410,
      "Ġleaf": 7411,
      "Ġmobility": 7412,
      "Ġpeaceful": 7413,
      "Ġhunting": 7414,
      "Ġexhibition": 7415,
      "Ġestimated": 7416,
      "Ġestimates": 7417,
      "Ġcandidate": 7418,
      "Ġdecember": 7419,
      "Ġgrocer": 7420,
      "Ġremembered": 7421,
      "Ġprecision": 7422,
      "wow": 7423,
      "Ġiphone": 7424,
      "Ġcert": 7425,
      "Ġbure": 7426,
      "Ġpunch": 7427,
      "Ġdies": 7428,
      "Ġgaps": 7429,
      "Ġrecess": 7430,
      "Ġseats": 7431,
      "Ġalb": 7432,
      "Ġspa": 7433,
      "Ġsail": 7434,
      "Ġtag": 7435,
      "Ġrio": 7436,
      "phor": 7437,
      "Ġfactories": 7438,
      "appy": 7439,
      "Ġimagery": 7440,
      "Ġbelieving": 7441,
      "Ġ191": 7442,
      "Ġfarming": 7443,
      "Ġregime": 7444,
      "Ġinfl": 7445,
      "Ġlocations": 7446,
      "Ġcalm": 7447,
      "Ġdrum": 7448,
      "Ġdawn": 7449,
      "Ġeleg": 7450,
      "Ġinnovations": 7451,
      "Ġrequest": 7452,
      "Ġcivic": 7453,
      "Ġscenes": 7454,
      "Ġcounsel": 7455,
      "Ġannual": 7456,
      "Ġphysicians": 7457,
      "Ġteenager": 7458,
      "Ġthrive": 7459,
      "Ġexecut": 7460,
      "Ġobservation": 7461,
      "Ġcosmic": 7462,
      "Ġratio": 7463,
      "Ġminimum": 7464,
      "Ġcomparison": 7465,
      "Ġprocedure": 7466,
      "Ġfurniture": 7467,
      "Ġempowered": 7468,
      "bar": 7469,
      "bled": 7470,
      "hus": 7471,
      "oster": 7472,
      "uity": 7473,
      "encing": 7474,
      "Ġpad": 7475,
      "Ġgab": 7476,
      "Ġitalian": 7477,
      "Ġbears": 7478,
      "Ġsoviet": 7479,
      "Ġneat": 7480,
      "Ġvia": 7481,
      "Ġintended": 7482,
      "Ġenables": 7483,
      "Ġcompelling": 7484,
      "Ġexped": 7485,
      "Ġclothing": 7486,
      "Ġpride": 7487,
      "Ġrealm": 7488,
      "anged": 7489,
      "licity": 7490,
      "Ġextinction": 7491,
      "Ġedges": 7492,
      "Ġprotocol": 7493,
      "Ġweeke": 7494,
      "Ġprofile": 7495,
      "Ġphotographer": 7496,
      "Ġnights": 7497,
      "Ġharness": 7498,
      "aired": 7499,
      "Ġ700": 7500,
      "Ġexplains": 7501,
      "Ġrobotics": 7502,
      "Ġagreement": 7503,
      "Ġhormone": 7504,
      "Ġcategories": 7505,
      "Ġticket": 7506,
      "Ġelephants": 7507,
      "Ġdragon": 7508,
      "Ġpunishment": 7509,
      "Ġgathered": 7510,
      "Ġignored": 7511,
      "Ġgenuine": 7512,
      "mod": 7513,
      "she": 7514,
      "Ġvel": 7515,
      "Ġwedd": 7516,
      "Ġmri": 7517,
      "onic": 7518,
      "Ġdressed": 7519,
      "orious": 7520,
      "Ġbend": 7521,
      "Ġbeij": 7522,
      "Ġkiss": 7523,
      "Ġshots": 7524,
      "Ġshirt": 7525,
      "Ġchains": 7526,
      "adays": 7527,
      "umin": 7528,
      "Ġalle": 7529,
      "Ġnowadays": 7530,
      "ema": 7531,
      "active": 7532,
      "Ġtwist": 7533,
      "Ġheritage": 7534,
      "Ġoffers": 7535,
      "Ġtransact": 7536,
      "Ġterrit": 7537,
      "Ġbeha": 7538,
      "Ġcurric": 7539,
      "Ġreasonable": 7540,
      "Ġcapabilities": 7541,
      "theast": 7542,
      "Ġexcit": 7543,
      "Ġaudiences": 7544,
      "Ġ800": 7545,
      "Ġsteal": 7546,
      "Ġperformed": 7547,
      "Ġcampus": 7548,
      "Ġdeadly": 7549,
      "Ġtends": 7550,
      "Ġclosing": 7551,
      "Ġinfections": 7552,
      "Ġparks": 7553,
      "Ġemerged": 7554,
      "Ġdiagram": 7555,
      "Ġprimitive": 7556,
      "Ġachievement": 7557,
      "Ġdescribing": 7558,
      "Ġhomeless": 7559,
      "Ġcovering": 7560,
      "Ġgravit": 7561,
      "Ġwidely": 7562,
      "Ġacademy": 7563,
      "Ġunlikely": 7564,
      "Ġfacility": 7565,
      "Ġlimitations": 7566,
      "Ġqualities": 7567,
      "Ġobserved": 7568,
      "Ġbranches": 7569,
      "Ġinitiative": 7570,
      "Ġownership": 7571,
      "Ġobstacles": 7572,
      "Ġinjustice": 7573,
      "gers": 7574,
      "lers": 7575,
      "lishing": 7576,
      "Ġsized": 7577,
      "Ġcree": 7578,
      "Ġbats": 7579,
      "Ġbizar": 7580,
      "Ġms": 7581,
      "Ġfits": 7582,
      "organ": 7583,
      "utical": 7584,
      "Ġongoing": 7585,
      "road": 7586,
      "Ġcomments": 7587,
      "Ġdeaf": 7588,
      "Ġalarm": 7589,
      "Ġvary": 7590,
      "Ġworkforce": 7591,
      "Ġarrow": 7592,
      "Ġgenetics": 7593,
      "Ġtraits": 7594,
      "Ġguilty": 7595,
      "Ġsched": 7596,
      "Ġschiz": 7597,
      "Ġtrigg": 7598,
      "Ġrecall": 7599,
      "Ġbiodi": 7600,
      "Ġhomework": 7601,
      "Ġformula": 7602,
      "Ġorganizing": 7603,
      "Ġmarvel": 7604,
      "Ġsocially": 7605,
      "Ġassault": 7606,
      "Ġapolog": 7607,
      "Ġpersonalized": 7608,
      "Ġturkey": 7609,
      "Ġvacation": 7610,
      "Ġmethane": 7611,
      "Ġconcentration": 7612,
      "Ġfortunate": 7613,
      "Ġdesperately": 7614,
      "Ġoxford": 7615,
      "Ġantarctica": 7616,
      "Ġjesus": 7617,
      "Ġwandering": 7618,
      "Ġlonely": 7619,
      "Ġcigaret": 7620,
      "Ġbizarre": 7621,
      "hy": 7622,
      "Ġsin": 7623,
      "Ġsib": 7624,
      "Ġsink": 7625,
      "Ġbump": 7626,
      "Ġhip": 7627,
      "Ġhars": 7628,
      "asp": 7629,
      "Ġech": 7630,
      "stage": 7631,
      "Ġhealing": 7632,
      "Ġjar": 7633,
      "Ġjih": 7634,
      "Ġdecent": 7635,
      "Ġproven": 7636,
      "Ġconqu": 7637,
      "Ġambit": 7638,
      "Ġenzy": 7639,
      "Ġplast": 7640,
      "Ġworkplace": 7641,
      "Ġclient": 7642,
      "Ġpron": 7643,
      "elled": 7644,
      "Ġdescend": 7645,
      "ictions": 7646,
      "Ġincident": 7647,
      "Ġinterrupt": 7648,
      "Ġdecla": 7649,
      "aceutical": 7650,
      "Ġbob": 7651,
      "Ġbonds": 7652,
      "Ġtranscend": 7653,
      "Ġcrew": 7654,
      "Ġaddiction": 7655,
      "Ġauto": 7656,
      "Ġaircraft": 7657,
      "Ġsensor": 7658,
      "Ġopera": 7659,
      "Ġnonprofit": 7660,
      "Ġpropose": 7661,
      "Ġdiagno": 7662,
      "Ġhopes": 7663,
      "Ġpacked": 7664,
      "Ġreminds": 7665,
      "Ġadapted": 7666,
      "Ġdescription": 7667,
      "Ġpreparing": 7668,
      "Ġgraduated": 7669,
      "Ġinterviewed": 7670,
      "Ġexpressions": 7671,
      "Ġprofoundly": 7672,
      "Ġbullet": 7673,
      "Ġpreviously": 7674,
      "Ġpregnancy": 7675,
      "Ġshelf": 7676,
      "Ġhorrif": 7677,
      "Ġprosth": 7678,
      "Ġstorytelling": 7679,
      "Ġathletes": 7680,
      "Ġrwanda": 7681,
      "Ġdynamics": 7682,
      "Ġdowntown": 7683,
      "Ġtattoo": 7684,
      "Ġexcitement": 7685,
      "bru": 7686,
      "cons": 7687,
      "gami": 7688,
      "ker": 7689,
      "part": 7690,
      "Ġbin": 7691,
      "Ġbos": 7692,
      "Ġbinary": 7693,
      "Ġmt": 7694,
      "Ġfate": 7695,
      "Ġgy": 7696,
      "char": 7697,
      "oose": 7698,
      "rill": 7699,
      "ili": 7700,
      "Ġprince": 7701,
      "athan": 7702,
      "Ġbrid": 7703,
      "Ġplain": 7704,
      "Ġwoke": 7705,
      "Ġbio": 7706,
      "Ġeconomist": 7707,
      "Ġmomentum": 7708,
      "Ġeducate": 7709,
      "Ġlabs": 7710,
      "rones": 7711,
      "Ġclassical": 7712,
      "Ġgeographic": 7713,
      "Ġstepped": 7714,
      "Ġlowest": 7715,
      "Ġmeasurements": 7716,
      "Ġ2014": 7717,
      "Ġtongue": 7718,
      "Ġdomain": 7719,
      "Ġirre": 7720,
      "Ġdamn": 7721,
      "Ġlifes": 7722,
      "Ġpanic": 7723,
      "forward": 7724,
      "Ġstriking": 7725,
      "Ġsticks": 7726,
      "Ġauthorities": 7727,
      "Ġapplying": 7728,
      "Ġphysicists": 7729,
      "Ġtelescopes": 7730,
      "Ġtransmission": 7731,
      "Ġrubber": 7732,
      "Ġnurt": 7733,
      "Ġdevastating": 7734,
      "Ġmetabol": 7735,
      "Ġtsun": 7736,
      "Ġsuprem": 7737,
      "otherapy": 7738,
      "Ġambitious": 7739,
      "era": 7740,
      "Ġhiding": 7741,
      "Ġly": 7742,
      "Ġgand": 7743,
      "Ġela": 7744,
      "Ġsoc": 7745,
      "Ġstored": 7746,
      "opath": 7747,
      "olit": 7748,
      "Ġclue": 7749,
      "Ġdisabilities": 7750,
      "Ġrope": 7751,
      "Ġcountless": 7752,
      "Ġtrace": 7753,
      "licit": 7754,
      "Ġrelatives": 7755,
      "Ġzones": 7756,
      "Ġwavel": 7757,
      "Ġmembr": 7758,
      "Ġaudio": 7759,
      "aneous": 7760,
      "Ġfailures": 7761,
      "Ġwildlife": 7762,
      "Ġstraightforward": 7763,
      "Ġsadly": 7764,
      "Ġtranslation": 7765,
      "Ġindependence": 7766,
      "Ġgained": 7767,
      "Ġcontinuous": 7768,
      "Ġhackers": 7769,
      "Ġnewspapers": 7770,
      "Ġterrified": 7771,
      "Ġcandidates": 7772,
      "Ġsacrifice": 7773,
      "Ġretirement": 7774,
      "Ġdisagree": 7775,
      "Ġautonomous": 7776,
      "husi": 7777,
      "Ġschizoph": 7778,
      "Ġjihad": 7779,
      ".)": 7780,
      "oir": 7781,
      "rich": 7782,
      "Ġiv": 7783,
      "real": 7784,
      "inter": 7785,
      "Ġfires": 7786,
      "oning": 7787,
      "esign": 7788,
      "Ġnom": 7789,
      "ril": 7790,
      "Ġjose": 7791,
      "aded": 7792,
      "Ġconvey": 7793,
      "umble": 7794,
      "Ġupside": 7795,
      "Ġlege": 7796,
      "Ġmanner": 7797,
      "Ġmankind": 7798,
      "Ġunw": 7799,
      "Ġ29": 7800,
      "Ġram": 7801,
      "beat": 7802,
      "Ġcolony": 7803,
      "Ġsimulation": 7804,
      "...\"": 7805,
      "Ġvalid": 7806,
      "Ġstopping": 7807,
      "Ġassets": 7808,
      "Ġsixth": 7809,
      "Ġmusician": 7810,
      "Ġengineered": 7811,
      "Ġradically": 7812,
      "Ġexpecting": 7813,
      "Ġorient": 7814,
      "Ġorigami": 7815,
      "Ġpsychologist": 7816,
      "Ġdivision": 7817,
      "Ġethi": 7818,
      "Ġappearance": 7819,
      "Ġwealthy": 7820,
      "Ġhomo": 7821,
      "Ġaltru": 7822,
      "Ġpigs": 7823,
      "Ġcopyright": 7824,
      "Ġinterpretation": 7825,
      "Ġdiscipline": 7826,
      "Ġportrait": 7827,
      "Ġadministration": 7828,
      "Ġnitrogen": 7829,
      "Ġmonitoring": 7830,
      "Ġbiodiversity": 7831,
      "Ġwavelength": 7832,
      "maker": 7833,
      "ua": 7834,
      "vity": 7835,
      "ville": 7836,
      "Ġcott": 7837,
      "Ġcrop": 7838,
      "Ġpod": 7839,
      "Ġdil": 7840,
      "Ġduck": 7841,
      "Ġnt": 7842,
      "Ġner": 7843,
      "Ġnest": 7844,
      "Ġell": 7845,
      "oters": 7846,
      "Ġships": 7847,
      "Ġuseless": 7848,
      "igma": 7849,
      "Ġagent": 7850,
      "Ġspell": 7851,
      "Ġprisons": 7852,
      "Ġphos": 7853,
      "Ġindex": 7854,
      "Ġendless": 7855,
      "Ġgram": 7856,
      "Ġentry": 7857,
      "Ġenthusi": 7858,
      "Ġcrimes": 7859,
      "Ġsupplies": 7860,
      "Ġopenness": 7861,
      "Ġprofits": 7862,
      "Ġsoup": 7863,
      "Ġexcuse": 7864,
      "Ġviral": 7865,
      "Ġredesign": 7866,
      "Ġharass": 7867,
      "Ġtrains": 7868,
      "Ġdrown": 7869,
      "Ġdemands": 7870,
      "Ġshortly": 7871,
      "Ġembry": 7872,
      "Ġproportion": 7873,
      "Ġeaten": 7874,
      "Ġunfold": 7875,
      "Ġemotionally": 7876,
      "Ġtracks": 7877,
      "Ġpupp": 7878,
      "Ġstrategic": 7879,
      "Ġstrike": 7880,
      "Ġdetailed": 7881,
      "Ġassociation": 7882,
      "Ġgraphic": 7883,
      "Ġtranslated": 7884,
      "Ġrandomly": 7885,
      "cript": 7886,
      "Ġnarrator": 7887,
      "Ġalternatives": 7888,
      "Ġunpre": 7889,
      "Ġinstitutional": 7890,
      "Ġreproduce": 7891,
      "forestation": 7892,
      "Ġmurder": 7893,
      "Ġeliminate": 7894,
      "Ġmathematicians": 7895,
      "Ġfibers": 7896,
      "Ġpasswords": 7897,
      "Ġunbelievable": 7898,
      "Ġbubbles": 7899,
      "Ġschizophren": 7900,
      "not": 7901,
      "Ġwider": 7902,
      "inarily": 7903,
      "Ġmild": 7904,
      "Ġtoys": 7905,
      "Ġfest": 7906,
      "Ġdub": 7907,
      "Ġdumb": 7908,
      "ani": 7909,
      "ette": 7910,
      "ctive": 7911,
      "Ġstead": 7912,
      "idal": 7913,
      "Ġjon": 7914,
      "Ġjuly": 7915,
      "Ġchess": 7916,
      "Ġproved": 7917,
      "uncle": 7918,
      "Ġleverage": 7919,
      "Ġunlock": 7920,
      "Ġfebru": 7921,
      "Ġagents": 7922,
      "Ġcliff": 7923,
      "Ġindo": 7924,
      "Ġconsent": 7925,
      "cedented": 7926,
      "Ġmindful": 7927,
      "Ġcharged": 7928,
      "Ġfollows": 7929,
      "bridge": 7930,
      "Ġbrook": 7931,
      "Ġstructural": 7932,
      "Ġerrors": 7933,
      "Ġtreas": 7934,
      "Ġmainstream": 7935,
      "Ġdivor": 7936,
      "Ġsmartphone": 7937,
      "Ġflowing": 7938,
      "Ġecological": 7939,
      "Ġassumed": 7940,
      "Ġvariations": 7941,
      "Ġreflection": 7942,
      "Ġautomob": 7943,
      "Ġrolling": 7944,
      "Ġremained": 7945,
      "Ġdelay": 7946,
      "Ġrevealed": 7947,
      "Ġgarage": 7948,
      "Ġhello": 7949,
      "Ġaccuracy": 7950,
      "Ġmentor": 7951,
      "Ġgentleman": 7952,
      "Ġreplicate": 7953,
      "Ġaggressive": 7954,
      "Ġdutch": 7955,
      "Ġencouraged": 7956,
      "Ġencouraging": 7957,
      "Ġrenewable": 7958,
      "worth": 7959,
      "Ġwilliam": 7960,
      "Ġincarcer": 7961,
      "Ġenforcement": 7962,
      "Ġgenocide": 7963,
      "Ġbeijing": 7964,
      "Ġharsh": 7965,
      "Ġfebruary": 7966,
      "aa": 7967,
      "gm": 7968,
      "los": 7969,
      "view": 7970,
      "xual": 7971,
      "Ġthread": 7972,
      "Ġthumb": 7973,
      "Ġss": 7974,
      "Ġhind": 7975,
      "Ġdrain": 7976,
      "alf": 7977,
      "Ġluc": 7978,
      "Ġnap": 7979,
      "utor": 7980,
      "stop": 7981,
      "rif": 7982,
      "Ġjane": 7983,
      "outs": 7984,
      "Ġcomedy": 7985,
      "Ġpeers": 7986,
      "Ġknife": 7987,
      "Ġrats": 7988,
      "Ġenabled": 7989,
      "Ġcompreh": 7990,
      "Ġlever": 7991,
      "Ġimpression": 7992,
      "Ġimpressive": 7993,
      "Ġjoe": 7994,
      "Ġinsane": 7995,
      "Ġcourses": 7996,
      "Ġentrop": 7997,
      "Ġcrush": 7998,
      "Ġslower": 7999,
      "Ġgenerous": 8000,
      "Ġremembering": 8001,
      "Ġchallenged": 8002,
      "Ġ2001": 8003,
      "otted": 8004,
      "Ġbeautifully": 8005,
      "Ġspeaks": 8006,
      "Ġradi": 8007,
      "Ġidentities": 8008,
      "Ġsends": 8009,
      "Ġpromised": 8010,
      "Ġconsumed": 8011,
      "Ġsufficient": 8012,
      "Ġsaturn": 8013,
      "Ġclosest": 8014,
      "Ġcaptain": 8015,
      "Ġresponded": 8016,
      "Ġmagnitude": 8017,
      "Ġdimension": 8018,
      "Ġregularly": 8019,
      "Ġcontinuing": 8020,
      "Ġisolation": 8021,
      "Ġvegetables": 8022,
      "Ġduty": 8023,
      "Ġrecycling": 8024,
      "Ġrecipe": 8025,
      "Ġpedest": 8026,
      "Ġabandoned": 8027,
      "Ġorphan": 8028,
      "Ġcurriculum": 8029,
      "Ġsoccer": 8030,
      "Ġunprecedented": 8031,
      "Ġtie": 8032,
      "Ġaer": 8033,
      "Ġwrap": 8034,
      "Ġmur": 8035,
      "Ġnsa": 8036,
      "Ġstones": 8037,
      "Ġstaring": 8038,
      "opy": 8039,
      "Ġasian": 8040,
      "umented": 8041,
      "Ġintr": 8042,
      "ardo": 8043,
      "Ġexpressed": 8044,
      "Ġfever": 8045,
      "Ġdisney": 8046,
      "Ġcontrary": 8047,
      "Ġinterven": 8048,
      "Ġintersection": 8049,
      "Ġtrapped": 8050,
      "Ġbrun": 8051,
      "Ġblown": 8052,
      "Ġrelief": 8053,
      "Ġkidney": 8054,
      "Ġstrict": 8055,
      "Ġgenerating": 8056,
      "Ġbiologists": 8057,
      "Ġsubt": 8058,
      "Ġspacecraft": 8059,
      "Ġcharl": 8060,
      "Ġequations": 8061,
      "Ġgrat": 8062,
      "Ġ2003": 8063,
      "Ġexpectancy": 8064,
      "Ġdemographic": 8065,
      "Ġreaches": 8066,
      "Ġsensation": 8067,
      "Ġpropag": 8068,
      "Ġsynch": 8069,
      "Ġclaims": 8070,
      "ika": 8071,
      "Ġcompassionate": 8072,
      "Ġpurposes": 8073,
      "Ġbatteries": 8074,
      "Ġemails": 8075,
      "ecd": 8076,
      "Ġfacilities": 8077,
      "Ġventure": 8078,
      "Ġobservations": 8079,
      "Ġabsorb": 8080,
      "Ġadvocate": 8081,
      "Ġscreaming": 8082,
      "Ġreconstruct": 8083,
      "Ġpharmaceutical": 8084,
      "Ġexcellent": 8085,
      "Ġenterprise": 8086,
      "Ġparalyzed": 8087,
      "cs": 8088,
      "inery": 8089,
      "Ġhired": 8090,
      "Ġpir": 8091,
      "Ġpale": 8092,
      "Ġpairs": 8093,
      "Ġfer": 8094,
      "Ġdent": 8095,
      "Ġinches": 8096,
      "Ġga": 8097,
      "Ġgif": 8098,
      "Ġgerm": 8099,
      "see": 8100,
      "ching": 8101,
      "Ġwhatso": 8102,
      "Ġspill": 8103,
      "Ġoutrage": 8104,
      "Ġactively": 8105,
      "Ġunle": 8106,
      "Ġunint": 8107,
      "Ġovernight": 8108,
      "Ġloan": 8109,
      "Ġapps": 8110,
      "Ġterribly": 8111,
      "Ġtriv": 8112,
      "Ġcareers": 8113,
      "Ġholy": 8114,
      "Ġcomputation": 8115,
      "Ġheadlines": 8116,
      "Ġselfish": 8117,
      "Ġimmers": 8118,
      "Ġlanding": 8119,
      "Ġdreaming": 8120,
      "Ġsimplicity": 8121,
      "Ġstays": 8122,
      "Ġrisky": 8123,
      "Ġpenn": 8124,
      "Ġmagnific": 8125,
      "Ġearliest": 8126,
      "Ġdropping": 8127,
      "Ġinfluenced": 8128,
      "Ġtorn": 8129,
      "Ġcorrectly": 8130,
      "Ġexerc": 8131,
      "thesia": 8132,
      "Ġanxious": 8133,
      "Ġmosquitoes": 8134,
      "Ġneuroscient": 8135,
      "Ġfabulous": 8136,
      "Ġrejected": 8137,
      "Ġconstraints": 8138,
      "audience": 8139,
      "Ġgeometry": 8140,
      "Ġvietnam": 8141,
      "Ġinhabit": 8142,
      "Ġwhatsoever": 8143,
      "ax": 8144,
      "bod": 8145,
      "fly": 8146,
      "Ġeric": 8147,
      "Ġbite": 8148,
      "Ġhors": 8149,
      "inging": 8150,
      "Ġfles": 8151,
      "Ġlamp": 8152,
      "isa": 8153,
      "itative": 8154,
      "Ġsty": 8155,
      "rover": 8156,
      "Ġlivest": 8157,
      "Ġproceed": 8158,
      "Ġrays": 8159,
      "Ġenlight": 8160,
      "Ġcompound": 8161,
      "Ġmanagers": 8162,
      "bec": 8163,
      "Ġboats": 8164,
      "iban": 8165,
      "Ġ33": 8166,
      "Ġreaders": 8167,
      "Ġconfig": 8168,
      "Ġsubway": 8169,
      "Ġconnectivity": 8170,
      "Ġswallow": 8171,
      "Ġhopeful": 8172,
      "Ġcalories": 8173,
      "Ġabsence": 8174,
      "Ġspecialized": 8175,
      "Ġaffecting": 8176,
      "coming": 8177,
      "ascular": 8178,
      "Ġportion": 8179,
      "Ġhurric": 8180,
      "Ġepic": 8181,
      "Ġworrying": 8182,
      "Ġroman": 8183,
      "Ġcustomer": 8184,
      "Ġcontained": 8185,
      "Ġdemonstration": 8186,
      "Ġpuzzles": 8187,
      "Ġnarc": 8188,
      "Ġpursuit": 8189,
      "ogenesis": 8190,
      "Ġvenus": 8191,
      "Ġblowing": 8192,
      "Ġinevit": 8193,
      "Ġorchestra": 8194,
      "Ġluxury": 8195,
      "Ġsupreme": 8196,
      "gia": 8197,
      "Ġsulf": 8198,
      "Ġoz": 8199,
      "inent": 8200,
      "Ġbust": 8201,
      "Ġhated": 8202,
      "Ġfet": 8203,
      "Ġfract": 8204,
      "alous": 8205,
      "Ġinex": 8206,
      "Ġhab": 8207,
      "Ġrevers": 8208,
      "roid": 8209,
      "Ġdop": 8210,
      "Ġforb": 8211,
      "imps": 8212,
      "thood": 8213,
      "Ġubi": 8214,
      "Ġshine": 8215,
      "Ġshorter": 8216,
      "Ġnearest": 8217,
      "ada": 8218,
      "ulin": 8219,
      "Ġvoy": 8220,
      "quis": 8221,
      "Ġoutbreak": 8222,
      "emies": 8223,
      "Ġtab": 8224,
      "Ġcake": 8225,
      "Ġcable": 8226,
      "Ġclarity": 8227,
      "Ġdispar": 8228,
      "Ġroyal": 8229,
      "Ġbug": 8230,
      "Ġresolve": 8231,
      "Ġsmiling": 8232,
      "Ġextension": 8233,
      "Ġsketch": 8234,
      "Ġ55": 8235,
      "Ġconnects": 8236,
      "Ġpassenger": 8237,
      "Ġorders": 8238,
      "Ġlocated": 8239,
      "Ġimmun": 8240,
      "Ġfreely": 8241,
      "Ġargent": 8242,
      "Ġtempor": 8243,
      "Ġpaths": 8244,
      "Ġestate": 8245,
      "Ġcircuits": 8246,
      "Ġfootage": 8247,
      "Ġdrawings": 8248,
      "Ġactivist": 8249,
      "Ġbacterial": 8250,
      "Ġstressed": 8251,
      "Ġnucleus": 8252,
      "Ġblindness": 8253,
      "Ġofficials": 8254,
      "Ġhistoric": 8255,
      "Ġclimbing": 8256,
      "Ġtumors": 8257,
      "Ġbanglad": 8258,
      "Ġflee": 8259,
      "Ġreinvent": 8260,
      "Ġopinions": 8261,
      "Ġsymmetry": 8262,
      "Ġfrightening": 8263,
      "Ġskeleton": 8264,
      "Ġpandemic": 8265,
      "Ġpalestin": 8266,
      "human": 8267,
      "Ġwedding": 8268,
      "city": 8269,
      "dam": 8270,
      "jud": 8271,
      "nat": 8272,
      "toc": 8273,
      "yan": 8274,
      "ÃŃ": 8275,
      "Ġward": 8276,
      "rey": 8277,
      "Ġbother": 8278,
      "Ġdile": 8279,
      "Ġlap": 8280,
      "Ġnerves": 8281,
      "itating": 8282,
      "Ġrevel": 8283,
      "Ġdose": 8284,
      "Ġkar": 8285,
      "Ġasleep": 8286,
      "Ġshakes": 8287,
      "Ġjup": 8288,
      "Ġcomic": 8289,
      "Ġchairs": 8290,
      "Ġdeck": 8291,
      "Ġfriday": 8292,
      "Ġmapping": 8293,
      "Ġtrump": 8294,
      "mental": 8295,
      "Ġcompounds": 8296,
      "Ġindones": 8297,
      "Ġoffices": 8298,
      "aken": 8299,
      "Ġbless": 8300,
      "Ġkeys": 8301,
      "Ġunderstands": 8302,
      "Ġplanes": 8303,
      "Ġpointing": 8304,
      "Ġcriter": 8305,
      "Ġartif": 8306,
      "Ġcellular": 8307,
      "Ġwarri": 8308,
      "Ġcorrupt": 8309,
      "Ġpassage": 8310,
      "Ġdefault": 8311,
      "Ġkills": 8312,
      "Ġprotective": 8313,
      "Ġbench": 8314,
      "Ġapproved": 8315,
      "Ġpracticing": 8316,
      "Ġurge": 8317,
      "Ġarchitectural": 8318,
      "Ġphotographed": 8319,
      "Ġactivate": 8320,
      "Ġtendency": 8321,
      "Ġaccountability": 8322,
      "Ġscreening": 8323,
      "Ġoxytoc": 8324,
      "Ġcartoons": 8325,
      "Ġharmony": 8326,
      "Ġscanner": 8327,
      "Ġcrowds": 8328,
      "Ġanalogy": 8329,
      "Ġrecruit": 8330,
      "Ġcollapsed": 8331,
      "Ġincorpor": 8332,
      "Ġcarolina": 8333,
      "Ġgrocery": 8334,
      "Ġflesh": 8335,
      "Ġoxytocin": 8336,
      "auc": 8337,
      "ran": 8338,
      "rot": 8339,
      "rical": 8340,
      "walk": 8341,
      "Ġsi": 8342,
      "Ġhood": 8343,
      "orph": 8344,
      "Ġingen": 8345,
      "Ġstrain": 8346,
      "stone": 8347,
      "Ġjet": 8348,
      "ado": 8349,
      "Ġdeforestation": 8350,
      "elines": 8351,
      "Ġleon": 8352,
      "Ġplug": 8353,
      "udi": 8354,
      "Ġaged": 8355,
      "enses": 8356,
      "Ġrealistic": 8357,
      "Ġrab": 8358,
      "Ġbrows": 8359,
      "Ġbelt": 8360,
      "Ġendang": 8361,
      "Ġcarries": 8362,
      "Ġgrave": 8363,
      "Ġfarms": 8364,
      "Ġcorners": 8365,
      "Ġplanetary": 8366,
      "Ġcuts": 8367,
      "Ġapproaching": 8368,
      "Ġprinter": 8369,
      "Ġdominated": 8370,
      "Ġteenage": 8371,
      "Ġsucceeded": 8372,
      "Ġsurgeons": 8373,
      "Ġsatisfact": 8374,
      "Ġbowl": 8375,
      "Ġpulse": 8376,
      "Ġrituals": 8377,
      "Ġracism": 8378,
      "function": 8379,
      "Ġtrajectory": 8380,
      "Ġplastics": 8381,
      "Ġtsunami": 8382,
      "Ġdilem": 8383,
      "rist": 8384,
      "Ġsale": 8385,
      "ini": 8386,
      "ounder": 8387,
      "Ġcass": 8388,
      "ona": 8389,
      "Ġdread": 8390,
      "ched": 8391,
      "Ġshipping": 8392,
      "gender": 8393,
      "Ġprol": 8394,
      "Ġcongest": 8395,
      "Ġcabin": 8396,
      "Ġmanual": 8397,
      "aby": 8398,
      "Ġros": 8399,
      "Ġaccent": 8400,
      "cover": 8401,
      "ressing": 8402,
      "Ġrape": 8403,
      "phony": 8404,
      "rence": 8405,
      "apped": 8406,
      "Ġengines": 8407,
      "Ġformation": 8408,
      "Ġresem": 8409,
      "Ġsignature": 8410,
      "Ġcultiv": 8411,
      "Ġdefic": 8412,
      "pring": 8413,
      "Ġamazingly": 8414,
      "Ġharbor": 8415,
      "Ġescap": 8416,
      "Ġbarrel": 8417,
      "Ġstatistic": 8418,
      "Ġdiving": 8419,
      "Ġconsciously": 8420,
      "Ġsoldier": 8421,
      "Ġdiscovering": 8422,
      "Ġsweat": 8423,
      "Ġlandscapes": 8424,
      "Ġmutations": 8425,
      "Ġnarratives": 8426,
      "Ġspinning": 8427,
      "Ġpriorit": 8428,
      "Ġrestaurants": 8429,
      "Ġpoems": 8430,
      "Ġassistance": 8431,
      "Ġrecycled": 8432,
      "Ġatomic": 8433,
      "Ġacknowled": 8434,
      "Ġcousin": 8435,
      "Ġzeal": 8436,
      "Ġdopamine": 8437,
      "Ġjupiter": 8438,
      "hot": 8439,
      "uana": 8440,
      "vio": 8441,
      "Ġthor": 8442,
      "Ġwage": 8443,
      "Ġol": 8444,
      "Ġcin": 8445,
      "Ġmoo": 8446,
      "Ġfallen": 8447,
      "Ġdirt": 8448,
      "oric": 8449,
      "Ġng": 8450,
      "arians": 8451,
      "Ġgear": 8452,
      "Ġkh": 8453,
      "eres": 8454,
      "Ġupload": 8455,
      "Ġyourselves": 8456,
      "Ġenemies": 8457,
      "Ġsauce": 8458,
      "ogens": 8459,
      "Ġevolving": 8460,
      "Ġclay": 8461,
      "Ġpockets": 8462,
      "Ġbuzz": 8463,
      "Ġkindness": 8464,
      "Ġraises": 8465,
      "Ġinclusive": 8466,
      "Ġblur": 8467,
      "Ġrecre": 8468,
      "Ġminus": 8469,
      "Ġbiologist": 8470,
      "ructive": 8471,
      "Ġrefused": 8472,
      "Ġpassive": 8473,
      "Ġadvances": 8474,
      "Ġmorality": 8475,
      "Ġretreat": 8476,
      "Ġarguing": 8477,
      "Ġmedications": 8478,
      "Ġapproached": 8479,
      "Ġ2013": 8480,
      "Ġpulls": 8481,
      "Ġattacked": 8482,
      "Ġtouching": 8483,
      "Ġcrispr": 8484,
      "oked": 8485,
      "Ġclinics": 8486,
      "Ġdespair": 8487,
      "Ġpackage": 8488,
      "Ġofficers": 8489,
      "Ġcontribution": 8490,
      "Ġfatal": 8491,
      "Ġenjoyed": 8492,
      "Ġtargeted": 8493,
      "Ġexpanded": 8494,
      "ijuana": 8495,
      "Ġaggreg": 8496,
      "Ġdolphin": 8497,
      "Ġritual": 8498,
      "Ġtweet": 8499,
      "Ġtropical": 8500,
      "Ġgravitational": 8501,
      "unclear": 8502,
      "Ġmagnificent": 8503,
      "gments": 8504,
      "nology": 8505,
      "Ġtune": 8506,
      "Ġthro": 8507,
      "Ġwore": 8508,
      "atar": 8509,
      "ancing": 8510,
      "eda": 8511,
      "itivity": 8512,
      "Ġbelly": 8513,
      "Ġhaz": 8514,
      "Ġstad": 8515,
      "Ġford": 8516,
      "cel": 8517,
      "Ġum": 8518,
      "Ġshops": 8519,
      "Ġjord": 8520,
      "Ġproph": 8521,
      "Ġintensity": 8522,
      "Ġsake": 8523,
      "Ġtact": 8524,
      "Ġimpul": 8525,
      "Ġads": 8526,
      "Ġfindings": 8527,
      "Ġobtain": 8528,
      "Ġmoder": 8529,
      "Ġmachinery": 8530,
      "Ġbreeding": 8531,
      "Ġimmort": 8532,
      "Ġredef": 8533,
      "Ġnorway": 8534,
      "Ġtemporary": 8535,
      "Ġcycles": 8536,
      "Ġpresidential": 8537,
      "Ġbanking": 8538,
      "Ġdrops": 8539,
      "Ġsanitation": 8540,
      "Ġwheat": 8541,
      "Ġmike": 8542,
      "Ġtaxes": 8543,
      "Ġbeaten": 8544,
      "Ġselected": 8545,
      "Ġaccompan": 8546,
      "Ġautonomy": 8547,
      "Ġsubsid": 8548,
      "Ġvocal": 8549,
      "Ġlouis": 8550,
      "Ġaristot": 8551,
      "Ġhelicopter": 8552,
      "Ġcriteria": 8553,
      "Ġendangered": 8554,
      "cre": 8555,
      "dle": 8556,
      "Ġcows": 8557,
      "Ġbills": 8558,
      "Ġtox": 8559,
      "Ġpier": 8560,
      "Ġgains": 8561,
      "asive": 8562,
      "usions": 8563,
      "ller": 8564,
      "Ġrender": 8565,
      "Ġsole": 8566,
      "raph": 8567,
      "irts": 8568,
      "Ġja": 8569,
      "Ġjunk": 8570,
      "laugh": 8571,
      "olen": 8572,
      "Ġvice": 8573,
      "Ġspons": 8574,
      "Ġoutdo": 8575,
      "Ġrings": 8576,
      "emics": 8577,
      "Ġhoward": 8578,
      "Ġcage": 8579,
      "Ġcared": 8580,
      "izers": 8581,
      "abul": 8582,
      "Ġnove": 8583,
      "Ġbugs": 8584,
      "Ġspelling": 8585,
      "eller": 8586,
      "Ġprepar": 8587,
      "bean": 8588,
      "Ġearned": 8589,
      "Ġguards": 8590,
      "Ġgrabb": 8591,
      "Ġattitudes": 8592,
      "Ġsmallest": 8593,
      "Ġmining": 8594,
      "Ġinformal": 8595,
      "Ġdrift": 8596,
      "Ġheading": 8597,
      "Ġmarijuana": 8598,
      "Ġamazed": 8599,
      "Ġequals": 8600,
      "Ġgrant": 8601,
      "Ġcommunicating": 8602,
      "Ġrecognizing": 8603,
      "Ġreporting": 8604,
      "Ġactivated": 8605,
      "Ġlifel": 8606,
      "Ġmiserable": 8607,
      "Ġreturns": 8608,
      "Ġdaniel": 8609,
      "Ġmagnet": 8610,
      "Ġsexuality": 8611,
      "Ġpalm": 8612,
      "Ġmuseums": 8613,
      "Ġlaughed": 8614,
      "Ġtuna": 8615,
      "Ġtension": 8616,
      "Ġdemocrat": 8617,
      "Ġpartnership": 8618,
      "Ġmirrors": 8619,
      "Ġprospect": 8620,
      "Ġirony": 8621,
      "Ġinvestigate": 8622,
      "Ġelementary": 8623,
      "Ġassigned": 8624,
      "Ġhawai": 8625,
      "Ġolympics": 8626,
      "Ġastronomers": 8627,
      "Ġunhappy": 8628,
      "Ġbronx": 8629,
      "Ġcompromise": 8630,
      "Ġjellyfish": 8631,
      ",'": 8632,
      "iro": 8633,
      "Ġpills": 8634,
      "uther": 8635,
      "Ġstair": 8636,
      "Ġmeets": 8637,
      "Ġgore": 8638,
      "olf": 8639,
      "Ġallies": 8640,
      "Ġmah": 8641,
      "Ġintimate": 8642,
      "Ġsunday": 8643,
      "aint": 8644,
      "Ġacids": 8645,
      "Ġbackyard": 8646,
      "Ġcontam": 8647,
      "Ġadul": 8648,
      "Ġreserv": 8649,
      "Ġtaliban": 8650,
      "icked": 8651,
      "Ġscal": 8652,
      "Ġinterconnected": 8653,
      "Ġbuilds": 8654,
      "Ġfox": 8655,
      "Ġimagining": 8656,
      "Ġtransit": 8657,
      "ucose": 8658,
      "Ġreclaim": 8659,
      "Ġstrings": 8660,
      "people": 8661,
      "Ġcomputational": 8662,
      "Ġdepos": 8663,
      "Ġvisiting": 8664,
      "Ġregul": 8665,
      "Ġpasses": 8666,
      "Ġmarrow": 8667,
      "Ġinflation": 8668,
      "Ġgirlfriend": 8669,
      "Ġpolitically": 8670,
      "Ġretail": 8671,
      "Ġsexually": 8672,
      "Ġparenting": 8673,
      "Ġglucose": 8674,
      "Ġinvestments": 8675,
      "Ġyorker": 8676,
      "Ġtemple": 8677,
      "Ġseawater": 8678,
      "Ġproposition": 8679,
      "Ġtrusted": 8680,
      "Ġcivilizations": 8681,
      "Ġposted": 8682,
      "Ġpenal": 8683,
      "Ġcompeting": 8684,
      "ugal": 8685,
      "ometown": 8686,
      "Ġadmitted": 8687,
      "Ġcrossed": 8688,
      "Ġremarkably": 8689,
      "Ġphenomena": 8690,
      "Ġsmells": 8691,
      "Ġshocking": 8692,
      "Ġdoubled": 8693,
      "Ġslave": 8694,
      "Ġmentally": 8695,
      "Ġairplanes": 8696,
      "Ġjewel": 8697,
      "Ġcolonies": 8698,
      "Ġmanipulate": 8699,
      "Ġberlin": 8700,
      "Ġcoinc": 8701,
      "Ġtubes": 8702,
      "Ġaugmented": 8703,
      "Ġselves": 8704,
      "Ġderek": 8705,
      "Ġterritory": 8706,
      "Ġbridges": 8707,
      "Ġcotton": 8708,
      "Ġhabits": 8709,
      "Ġubiquit": 8710,
      "cor": 8711,
      "fin": 8712,
      "fold": 8713,
      "py": 8714,
      "pled": 8715,
      "Ġtk": 8716,
      "Ġire": 8717,
      "Ġsizes": 8718,
      "inator": 8719,
      "ativity": 8720,
      "Ġhometown": 8721,
      "Ġpants": 8722,
      "Ġfilt": 8723,
      "Ġyog": 8724,
      "Ġster": 8725,
      "Ġstolen": 8726,
      "ima": 8727,
      "Ġmock": 8728,
      "umber": 8729,
      "Ġsap": 8730,
      "Ġcaves": 8731,
      "Ġexplicit": 8732,
      "Ġsheer": 8733,
      "Ġdisasters": 8734,
      "Ġoverla": 8735,
      "Ġbuck": 8736,
      "Ġjoint": 8737,
      "Ġrepet": 8738,
      "Ġhandful": 8739,
      "Ġ190": 8740,
      "Ġminer": 8741,
      "Ġbehalf": 8742,
      "Ġzoo": 8743,
      "Ġwaited": 8744,
      "Ġrefuse": 8745,
      "Ġclassrooms": 8746,
      "Ġbrands": 8747,
      "Ġkeyboard": 8748,
      "Ġ2016": 8749,
      "Ġworthy": 8750,
      "Ġflags": 8751,
      "Ġparkinson": 8752,
      "Ġintroduction": 8753,
      "Ġhoped": 8754,
      "Ġcorrel": 8755,
      "Ġcatching": 8756,
      "Ġjumping": 8757,
      "Ġoccurring": 8758,
      "Ġpreventing": 8759,
      "Ġinterviews": 8760,
      "Ġhistorically": 8761,
      "Ġcriminals": 8762,
      "Ġsubstant": 8763,
      "Ġwitnessed": 8764,
      "Ġinstalled": 8765,
      "Ġpurely": 8766,
      "Ġoverwhelmed": 8767,
      "vasive": 8768,
      "Ġmarginal": 8769,
      "Ġinherently": 8770,
      "Ġultravio": 8771,
      "Ġboost": 8772,
      "Ġarthur": 8773,
      "Ġdistinguish": 8774,
      "Ġbasketball": 8775,
      "Ġsupermarket": 8776,
      "Ġelabor": 8777,
      "Ġsynchron": 8778,
      "Ġartifact": 8779,
      "Ġubiquitous": 8780,
      "Ġultraviolet": 8781,
      "eem": 8782,
      "pox": 8783,
      "rane": 8784,
      "tra": 8785,
      "Ġib": 8786,
      "Ġcube": 8787,
      "Ġdrones": 8788,
      "itution": 8789,
      "Ġeu": 8790,
      "Ġstatic": 8791,
      "Ġstabil": 8792,
      "imeters": 8793,
      "Ġchop": 8794,
      "ador": 8795,
      "Ġalbert": 8796,
      "Ġvivid": 8797,
      "Ġriding": 8798,
      "Ġcape": 8799,
      "abling": 8800,
      "itters": 8801,
      "Ġcovers": 8802,
      "Ġpond": 8803,
      "Ġbucks": 8804,
      "asses": 8805,
      "Ġcontra": 8806,
      "Ġrealities": 8807,
      "Ġideology": 8808,
      "Ġcounts": 8809,
      "weight": 8810,
      "Ġcarpet": 8811,
      "Ġconsensus": 8812,
      "Ġfamously": 8813,
      "Ġ2030": 8814,
      "Ġmetric": 8815,
      "Ġcream": 8816,
      "Ġcurves": 8817,
      "Ġteaches": 8818,
      "Ġcambridge": 8819,
      "Ġparam": 8820,
      "Ġreasoning": 8821,
      "Ġequity": 8822,
      "Ġgrasp": 8823,
      "Ġpublicly": 8824,
      "Ġdeepest": 8825,
      "Ġviewer": 8826,
      "Ġmessy": 8827,
      "Ġsteam": 8828,
      "Ġmedicines": 8829,
      "Ġpreval": 8830,
      "Ġorigins": 8831,
      "Ġrevolutionary": 8832,
      "Ġlogo": 8833,
      "Ġseparation": 8834,
      "Ġextraordinarily": 8835,
      "Ġdetermines": 8836,
      "Ġjournalism": 8837,
      "Ġ130": 8838,
      "Ġdescribes": 8839,
      "Ġutil": 8840,
      "Ġinjured": 8841,
      "Ġjealous": 8842,
      "Ġgardens": 8843,
      "Ġtransmit": 8844,
      "Ġaccelerate": 8845,
      "Ġexploit": 8846,
      "Ġimmigrants": 8847,
      "Ġchampion": 8848,
      "Ġelectrodes": 8849,
      "Ġtanzan": 8850,
      "Ġdiamond": 8851,
      "Ġorbiting": 8852,
      "Ġglamorous": 8853,
      "Ġperceptions": 8854,
      "Ġethiopia": 8855,
      "Ġphosphor": 8856,
      "Ġbrooklyn": 8857,
      "Ġbangladesh": 8858,
      "Ġsatisfaction": 8859,
      "Ġaristotle": 8860,
      "Ġnovember": 8861,
      "Ġpreparation": 8862,
      "\"?": 8863,
      "],": 8864,
      "cut": 8865,
      "ga": 8866,
      "hist": 8867,
      "po": 8868,
      "uction": 8869,
      "Ã¡": 8870,
      "Ġthai": 8871,
      "Ġandrew": 8872,
      "Ġpic": 8873,
      "Ġdivid": 8874,
      "Ġdimin": 8875,
      "Ġinmates": 8876,
      "Ġlam": 8877,
      "isy": 8878,
      "usive": 8879,
      "Ġonstage": 8880,
      "Ġstun": 8881,
      "rol": 8882,
      "Ġanten": 8883,
      "opl": 8884,
      "Ġseattle": 8885,
      "Ġcancers": 8886,
      "Ġmeals": 8887,
      "Ġcomet": 8888,
      "Ġalter": 8889,
      "Ġaliens": 8890,
      "Ġtelom": 8891,
      "Ġcomposition": 8892,
      "Ġmanaging": 8893,
      "Ġloyal": 8894,
      "Ġphi": 8895,
      "Ġphant": 8896,
      "Ġcontest": 8897,
      "Ġreserve": 8898,
      "ffect": 8899,
      "Ġearning": 8900,
      "Ġinstruction": 8901,
      "Ġlasting": 8902,
      "Ġ31": 8903,
      "Ġentit": 8904,
      "teen": 8905,
      "Ġmini": 8906,
      "peare": 8907,
      "Ġslice": 8908,
      "Ġreader": 8909,
      "Ġregulation": 8910,
      "Ġaddict": 8911,
      "Ġdistances": 8912,
      "Ġmarath": 8913,
      "Ġhalfway": 8914,
      "Ġblah": 8915,
      "Ġcalend": 8916,
      "Ġnamely": 8917,
      "Ġbrian": 8918,
      "Ġillum": 8919,
      "Ġdestiny": 8920,
      "Ġmotors": 8921,
      "Ġconsuming": 8922,
      "Ġiceland": 8923,
      "Ġtony": 8924,
      "Ġachieving": 8925,
      "Ġsubjective": 8926,
      "Ġinfectious": 8927,
      "Ġfilling": 8928,
      "cussion": 8929,
      "Ġmutation": 8930,
      "Ġintegrate": 8931,
      "Ġconsidering": 8932,
      "Ġattracted": 8933,
      "Ġdemonstrated": 8934,
      "Ġambig": 8935,
      "Ġmicroscopic": 8936,
      "Ġegyptian": 8937,
      "Ġdinosaur": 8938,
      "burg": 8939,
      "Ġdesperate": 8940,
      "Ġcontempl": 8941,
      "Ġtolerance": 8942,
      "Ġmimic": 8943,
      "Ġlegislation": 8944,
      "Ġoffspring": 8945,
      "Ġrecession": 8946,
      "Ġindonesia": 8947,
      "Ġireland": 8948,
      "Ġphosphorus": 8949,
      "dis": 8950,
      "good": 8951,
      "mes": 8952,
      "wind": 8953,
      "Ġwins": 8954,
      "Ġsna": 8955,
      "Ġmant": 8956,
      "Ġpor": 8957,
      "Ġfans": 8958,
      "Ġnodes": 8959,
      "asi": 8960,
      "Ġego": 8961,
      "Ġbeam": 8962,
      "star": 8963,
      "storm": 8964,
      "oples": 8965,
      "Ġjh": 8966,
      "Ġjen": 8967,
      "Ġcanvas": 8968,
      "Ġcanopy": 8969,
      "erer": 8970,
      "Ġusa": 8971,
      "geon": 8972,
      "Ġsomal": 8973,
      "Ġpeoples": 8974,
      "umines": 8975,
      "essions": 8976,
      "Ġknees": 8977,
      "ifies": 8978,
      "Ġspat": 8979,
      "cip": 8980,
      "ained": 8981,
      "Ġnewton": 8982,
      "Ġphd": 8983,
      "Ġresur": 8984,
      "irect": 8985,
      "Ġprey": 8986,
      "Ġappoint": 8987,
      "Ġplanned": 8988,
      "Ġ37": 8989,
[...]
